fb4de4d00c600f81131006d2e103ef2b
77e7abf67ffcd1b2302fcec10d0ebf21
044a33438b26315bf5eb3b355fc081ee
3c1f3d6c2a060df4e69b819ec7fd4cf1
0bb62514b2f675e19cf17feeba07300b
fe1502ffea293812998e9c816235613f
328e17d831d2ac977f21d81c4f7018d5
4ce4819bcfd2b76dd81c6e270cfe3b0f
0ffacbc0fed42d2006ea2cf61600f0f0
ebe919511afc33111652d1fad7dd3812
2b04120a2f37d8e3fa163739fadcdde9
2027fcfc2a1dbf2e04f3c5d4dbd2060c
cc0019e24dd61ce500fad5d6ee0e0116
210e0f0d153631dcfec41e460fefbe57
9df81be0dfee5715eb160033b9f6d1c9
1fcbee1108e67f260df14bf1110aeb30
fbc6281cccbfe210c0c8b693d8cfdbe0
d514472dd1e0703517c2edb3fbbbb9e3
05de341eebcf51292adc1c3d17f6c412
3811362e29e1441701dd13f53dcec9a3
400c01ce5d582c241910e10aceb1e213
a6e3c5aedcf80f3d55090c2f141a3509
0cf0ef10ced49762fdb0f42338445903
b3e619e681e29325babda6340f3221de
0d2be6f8fff1e50af9d610ddeedfe220
172e101ffa20de23d7fa24f5fef8c22c
0001f3dede19dafee7f4321218f6c4d2
12f0f50912fdeddb0ce430fd1ceb05eb
3f30f7eaeb081aeb04f7d103ff1d20f5
fce5ec14060e1fe105c6e3f3a9d6375d
150ef5eb2bfc2d2b21f90f0019ff117f
f4d211e712de220df70226deeb055811
08ccf4f3f5e6e4f8fad1ec250ad208d6
0ee5251cc5e212d6f308e71e52020430
0607f70a3ee93c19f6f6cf941226d10f
e725e6dd3a44e3f91f112b2ad20fd805
64e0d904bad2ddfeeadbfcc1fbf11318
240017f47faad458c2a8bf21b6a31bdf
d5bccef030cb05dc5f91f4191601e606
18f7f6dbe548d6bb05a7d5d72c1be7fc
03db11e9f9d8f5050efdf7d00b2a9de9
11e3e4a207f1b7a0210181c4f229b306
15ede8f300f4b89feb02e3d0fc0aec16
eef30edd04f3e2f80803eecffe19c119
16ec1bfb24c42a0aecf037fff9e70323
12d944f310eb17d702efd0f2fe20cc56
fbfe27dd00f40dd21dd910f6140c0e36
f904f3f0d009f7cfffe9f1df121ff031
faf11f0e16eb010619f90e01feeff813
16040c0109f3f8e70bdff6e20fd903f9
0b1af6f01003f0ed0feffafd1bf10110
1f1cf2ed071feff8000bf2071903131b
050c01f115fb00150df403fb19e4fa11
0dfe08b0fe010d9cfc0021a7fcfe13ee
010728cb0501ee8101f3f08e0cd01dcf
090ae30705fdbac6ecfce0c2f4f2e9e4
f7da2df417ef1dee1ff3d0df00180132
23139bac1d1da0be0f19a3be1e10defb
2a0197c31d238cef170cb6c71ce4f5ff
1009281af0eb0d28faef2104dbf81417
03fe02ed0f01ec11e0edf7fee5fc2326
e50ad6f0a153e41187abf6c681e425d2
26ff13ff29fee81d12ee00ab1c07d388
edeb000210f130fd1f0e291327141f29
daedfef4fb0dfdf1e1e12123060dd6db
02e3fe26e907e5faeff5293404f8fddb
f4ee0fe300f1fa16ff0cfaf129011105
1701eff907172616ff11e8e8ef211317
ecf0fce9d625e5fff9e3cbe80ced1b2d
d9dd2f0cdf0dd31bd001bddf18d1d27f
021d4117ede1e503d8e6d81f46070535
eefd13eff010a8f4f8f0f3141200fbfc
092df0ccbb1bd728e41ff506e3010134
0928aaebba1bfaf9da29001d0a0ffce6
db1bdd0bf200dcfee3121e2216f917c3
f7f0d6e2bdfb0d1ee22208ff141cf0e2
2afb394bffebf0fd0835fef2ec4201d7
24d1cb0cd012d62bdf0eeafb02e6ed01
0a08d31a4008cf3d2e090935c2bc8115
021bcb2909c8fb1d13c3254a1fd4bf07
0105d8eee7fee8ddd816ddebff0ff911
c4dcccf104e9b2a1dcf6aa9ce413dd0f
06eaead4f8f0c4c202ebc9a12b05f9fc
21ef22042e18ec283715f11b2c373411
00141d0d16f408160efd07fb0b1613ef
0ff1f1d8fb020aa3eefc0d81fe0d30aa
210625d304f108ae0bfa068b1bf422bf
0f261b1605ff2708f7f028d401db2d05
0b020d1619070f1905fc1206d6f105f0
ff1ceef0f300fd0ef3f8160ce3fc0b04
fd05fb07d400feffcbf604fff5f401e8
d30d0310f200feffe9f9150205fb1608
0a070a0705f70518fff40a140f0f00f4
fc141001f2f0e210ecf6e3ebf9feece4
000fe40bf3f9ca01d3f5d7aae2f4c5c1
f421dafcd20dd6fdd5f7cea7e5f081c4
20f89e8b211fd1bdd4fd82c7dcfaf51e
2823a381dafb93dda0d1c5cde40efa33
05070a09e107ecf706eee503190b1a2f
1828110a20100807d4122dfc18271709
d53249f0ca2f0426bad3ccef2bcef5f5
ede7d912eeceb0f6fde1a0b430da2f9b
04c1950de1d0b8fff90d9ab02ffdfef8
17edd6d608e80100f1f0b0051c0bf5f0
0c1df5fc25f648571ad7440cd3e0f9bd
d02ac8a70b29f4dd4423264f3cef161d
e4f812d095f4a2a6d80edaf5301f1930
00f61903ffede914e9f1e6f5d30d01fe
03ee1af1e823fbfa3224d32e3abbf944
1d12ea0a06cfdcf4d1edf2853121fbe8
0b10efff0d1ce0fefc02caa0c5eab781
fef2f601fc18e21a0de2ee2bec05dbdd
2f18deec2f5fe7c5ab10004ec2bb373c
fe6ad7bb81142a52d1bb2831ea3b0fb1
8dae2760059b380e04f6e4b92821e9e0
0bae02bd60dd0edd2d07ef0d0d20dbce
f6110e02e83e472d3bf3f73d1dfb05ca
f02bfbe354eef01ff44a10abe7fb74fa
3204edd9f61e3aa203051ec20cd6e322
24ea42cff4000a05bfc3e81bec23d1fe
0f060efd2a24fcee0ae5f7ec0d0901fb
26f9dfd53df81c1efe01f5d3aee7ddf9
f01befc1352dd4cb5d10f0490bccfc02
def9062c03071e12e402d4f6ca04051d
113bac0f4214ef0f01db4115000023f1
cbec38ca17e017df1ac839dc0fed0afa
2d3a06c4232c42e2bcf53481adc87acb
fffd340d5cf85e0a3913211cffede0ec
faf81f07f4fce9d6fced0d11ebed201b
1c110904f504e2fac1073526edf31a10
08ff08f7effedefdd8011a07fddf1603
1d11e3fdddfedffddc061f0b000a0700
140828fb0afb1008cbebde17fe01ddfb
0702080acc36e215d6f9d2200dfaf03b
dc12e2d9faf4cdfeda1081ddecedf40c
1613e1080a090106f806f2ef0ed7ff01
19fc100823d2e0fd04e1dbc8e59bd309
f60be422e5dbf4e3dbf3d3aef3f981b7
ef02f810cf12f70e051909fa0c13f1e6
f30d1a1a07f918ebedfaf5eaec182d11
0af220d80ce237fac6ea30f4ef18fefd
ecedcfaec521e8d9a61c13c7f3fa0117
0ae9131d0d03e4a20ff8f6eb0ff7d109
32e100e7fa0f02ec27fc3a20ffde1b35
0fed1405030b18f70ce417ff1710080e
17f6ec0a2322022616fa0e1734fa0122
f70ae71701e51624f5f40dee02e81505
03b8f2dfd7eee6e0f2e7f6f2f70eeee1
01070af8d6f4c21fe5e5eac5ffefe017
f6e70722f9eac51f00fef1ff26ffdf31
e81421e705f50907f7d8f4f61ad40fee
fe28f11528e1330400f40c10f7f2fb0a
1ad9eee70681e393e2a2eed32de1edd3
3406ed122d04f4e914c4eadef8e6ebf3
37f7000a0df1e3f41ed9cde154020519
f40edc22c60fd1e9ece601d3f02b0bc5
0aba22e9bcc6fb8fc30b2fd2d203e6b9
1be32fe0fcc411f6ccce208b29e52806
d1d127fbc20722cac2313cf5fd34203a
03fa15fdc309eff6cd2508d4af050721
c108f0ccef25f6d8c0b6008bced3fba8
ceb4eae71bf30dac109a2ff2118f38c0
e2c100fffe04def3bac5fbac001d0b18
e9ceee03caf0ee29c8c029b9c94130ba
29e5c2ec2dd0e03dd4ecacdfe9fea902
a932f306d5fbeddf0f07e8c4cae82ef2
a2180e2bfd09e6130e15ff0de812aff4
db17b026fc32deb4ec12e0132ee41ad7
1ad20a08c4e10d96faf5e8b5ffcd8117
05fcebe0cbcc1cb3e7e815edfac8cd11
024e33ca471232bc0601e31527f21827
20e72d030e270c1e091a022d4ac3dcf5
cd11df05239ee3090ee8de140009f621
21ce11e128dc09240df7dc15d4eaf81e
39f00cca06c8eef817d5f4f416cd0f0f
02ec1edafad80ca1ee1df5eccedce01a
141ce6042cfcf8fd06cdd5f1360e0414
e924c52212fef32421eceedd29f81213
1df5e22c1013fa16381ffbff05f1fe0e
f0cae3d397d4fce6f0c10418fbcf35ea
ff18f01746a9a0f9e39ac4ef40e5edb0
f72093d7229caa0237c807e22adb27c4
f107d0400da2ef00fa8701062b9819d7
dc340332b2230d3dee0c13fcd9f228e3
f89009ddf48af2fdcff4e4d128fd1e21
d9bdedb109d5d6a1cfd4fbe30af623ff
aaceee041311f6d33ced0d1a17eb3cea
f5232b25e821fb2ae7fbda293bfc0a16
d4ec2e160f11ffd604e623e115e419fe
d92db4c08148f9d3c3116aadf9fe6c0e
c106c2dc090c180101f8231b34fc03e5
1113d8af19f4da150019fd2336e8dcea
202c14fbe40715c6f6f6f3d7db28c8ed
3c38240112e819c5e80501d615fad2b8
3e13f7e1f0a5fbc4b61f1aced1f2ded0
27322312f9e9d5e920f42b1d02420ec4
09e7f208002dd9371e12f10eef241ac2
3011d7ee0205f003cfff172cd10e150d
d4e51ed6ff10f801d705fb29f3ed0909
150330e60fda16ecea21d0500006c23a
180433ff2925f20213fef3f61cd0d9d9
fcec2d121e1a2602271e14ecf81ecbe5
190ad7190cddf4040a010d04f5fb0400
08f0081505fcd019f2190106cf13e9f1
02d52f19ee06d6270a1ad60bfce5f80f
12ef07e2fad530f7f2f6c50fd911cde9
e2dff4020bed04f90ed6ea0709e2b719
13040a05ffde07ff27c010ede50accd5
e6fa05ea0f8104fb2c131807fafbfbfc
f6f9f101e1ffd30beaf1ef00f8f7121a
06e1d9feec089dfeeee1c8dff3ff0e10
0f0bf7f7fe0bd0ebc526c5f0f9f52bef
0a0cf710dc021af4ee0be5fafdfbc309
08ff0212df190f2eed0f0001d3f5ed0d
f90de6f7f002fc0516f3d40feffe0004
0fd9f01702dd0cce0ad031d00c0119fb
fa193ef3f0ddf7f5d2e433e03df01ecd
f3fccf41c4c4bae00493d1bb07892693
25fcec6507e31cbef7ebdd96100729ed
fafe32150c0a380643d6080d050516f3
de0eee021c06e1ab17e441a126302b05
f513031cbef99d190c0401170be37405
19fa2855c20cdf1fc212fee40ece0536
48ff1dd7fd3a180bdefef91b1a11d30b
1afc19d9295efafd193bc0daf1b1dcea
01dd08ba0e37c3090c7bbf05cf0b82a2
e824f5e42683ebfb47ff17140f0df42e
c5d3bef721f21c11fbbbf0f73cb508fc
f1122cd00dc5d91f1ae10e1acaf92011
f8e95a8121add7cd1dcfb2280923ee47
ae18eca1fff9afdd0fbd22e4d0d7e1f4
1b16cdfadf26302af70b16e7e940e000
fd22330efc0d2bebef09161316f4231b
e607e90cf719f601ca0cd615f10dd20a
1a12c9fff108bb08ce21c8190c1cca04
e00e1f071f120800ee09de0518e3f2ed
f63808f4070513f613c6e9ea2b010215
ebc8f9ea1bf503d126c1daa50bbfd1d3
1e04bcb126f8fecffad8d894edf4ffad
f4022c03de2715beea11f106dbfe1ffa
f1bb12fd09df13da05fb0314240923bc
f1fcfc150ce4f408f00ec5f5e7e1d8e8
21811e2c01d41304f0daf3fbffc9e7d3
26081404e1050d9cb20301f229dfeddb
f213fdf02c10e5db04f921230e0ae627
1bec15ea41e8e7c315dad702f2fcb8f7
f10beb021819f5e20ae6f6c7c516df09
f3f525fbbf250cadf91418faba0f31ee
10f10f14190d07e6dd25e9ecf9ecf0d8
1bcf2205eeb11bdefaf30dcdf9f7f5c8
10ff0c160fda18fc27dc24f3010903e1
08ceec2112f5362afd0d38fb0ad803d0
3ccdc4b40ee5b5d5071c181dc610e810
25ed0e05e0c8fbd1f701e2f6f820f132
fdd51ca81b0110d1f6c3f5f1e6ee1501
022929dbf0f02e8713c1eadaf9d4f5f5
d5c3e9fb19e706f6e8cde81f0edc2d29
2febfd0407c715dce0c007f20ffa2717
d6030dfafe1b0eac26e224c41aee1fdb
441cfe2dbd38beebfc19ec8114d0d2d0
f5d705f004f10808b5f23a17e8201b25
09f5f4b007b2f3d5efbee009d6deea2c
01ffc323fe0507ead701eb81d8d3e8ee
2b040f0b28001016fcd4c0e9edd20c15
d7e21c0f0600dd13c7f6e89e0315ece8
02d2e91cb4da33cb14010df93cd411e2
f804211e13020b2529f9132538e4f2fe
f517f5fc0edf0607fdfff8010bb308da
02201f1ede071beec5f92c00fa02de00
e017e425e516fdc1e481f9100a37fc35
dc000be20ae615f927fc0b3825ffd713
211011261ee8011ff5ffea1be70ea6e0
fff220151c08db05e61fdffb060d020f
1c2a1323f03be8ecb73ac8f8fee326ff
16020a20c4edecf4cfc1ead349e3d8fe
c9f5e5e201e30ded2603e2e81600ff17
e2caf9101909002c13fb2300e0f61fef
3b25fa1f24112fde16fb30fcbbddf8ef
2af2310705e624fa110415dad5fcecf8
1cfb0ff7e2edee0c1412eadce410f810
e8e10ef5ebf405f2cef105e1f007fbeb
19ff2a0b1cfe150e2c1b021d250c0d11
160cdd0ffeeff5f5ea22db10f1021104
0f04eb05f3fee20407fff70423fd1a07
ff81d0f614c5fce4e8bef7e9f6d5d414
35f704f4260b1803191325f930d4edd6
11edffeff31ff0110d1c19fcfef809fb
0cfdff0dda04f8ecf409ee0c0a01f0e5
c40cdbfce5ec30e10ff41dcde102e60f
fdf4cf06ebdb1ae8fdea02c7e4f8dedf
eef1f909ff1d11f6040f0dfa13fdfbe9
ec0e03ea1ee50e07ff0001080f06f304
f0c400c9dddbebf4e2e7f0eaf1c30712
fefee9e5e50bf806fa18e5fb010bf418
25f6f3fbfeec1d01f90805251ff5fc0e
f615fb02dff1effcdff4f8fe050709e5
011fe10fdde209d316100adb170dd0ee
0f0df835d3fc1be600e82bcff00120dd
e4170e06eb302ee81102f5fbeff1fc0b
fb14040206f20bd2f509e8d7ebf7ee0e
faee042b2002f213ffbd12d71c151114
fe2de6ec19e29610eef7dfb9000cf61e
21c32c3149a98138d7fc16ef0ce13815
f50c08e92fd7e4d9e6290900f00d1d0f
dedc3a05001dc41c2ee5e32502cdf907
02035ae1e2eb91f1020ffc1933fe22d0
e133fbe9fbde8cfe1a110af8f1fffbe2
0ff43700fd12efdbfb01110a15001cd5
f72e1f2310dd121130d30134e91d1e0f
0630fe111794ebf813deebea273e16ee
3226f50a0be5eccde10cf003ea1e10f2
03240b00fbe0dce3ecedce10f02ae422
2fead7df1cdeeef6e9c5c3fdddd8ca21
21bcd9de14ddf02bc9dab536f3d6fe1d
1b0994fbd00ace32bcfbc317231c112a
c8f3dd03e314ff15dbd1160ce813281b
fec300f9130edb23e4ebe5021cf1f223
05f317cd1b09f2dcde0010ecb11b3b0b
10eaede9e3060603f8ea17fa0bf32ce8
d8f9431bea01ddfc0d09e704f5dc0910
eb233b0b0c1619e6d1dfd3d0fd15efd2
21ed05fa05af1bdbfddbede80cecebd0
131be10217dfd8f413edea0c0f04dafa
da2717d52512b922e806af03eefaeae7
ecf73604f2ec0711dae413e006d74381
0afc1205080649c6dd1731d30a2334f8
f31101ec18f434a2fafa0fd436254017
fa040bc136040dcde4cddc09050f2717
2511f21215f51d01250df82132151119
f9d908fadfd5ac2003ebc9e3430fb7dd
2ac6f400f8a3f9ecd8ca85c41a10ca0a
3e084716e5da3de21a11b9011a02e31d
45d416dbf810fdf70dfceced3fc4f8ef
dfee2401d1090ef1bb072f12e5121918
aecfed9b91fc20effbfc1affe80715f2
04ece0f61ce9f61340e6f92545d9d9fa
17edeb081aaee7eee1f3f01dea1be9ed
0ddd04fe01e0f0e9b5d0f7e4ea0824d3
d11504fa10f9fcdf15d33ad517d91dc9
25d3f81630d2192f2df4e20a1b1432d4
38e62f1d31010cf9dce626ea370200ba
de280e07d90a360281fd030ecc0e081f
c8ef1902d42ad309a7eae5deec13ffc7
f12829edf905fceb37f216fb21181ceb
3115052932e1ee01fad723fccdf30df4
27f62704390bb7fa15d1d7fc310d0218
3308d0df1508c1f437f1d10436e3150b
d4f50fda4924ebc22ffeeb04dff8eb1b
f902db07e7811ad70ec7fb0a0320ca09
0e0f02f502eae8dd2be5f70bf6e914e3
140009f8f5c3bde513e5fbcffdc10301
23d21af50abeed04dbe0ae14e9f6dd0a
f6ee07f8d4bae5f1f5eddbeff6d7ebc5
02caea0c2bc4040d06f9e3d00e0ee7c1
fab2f1fe078df312dff5fe0919f1d8f5
462628edfabb04f3f5c2f924251007f4
c30205f8e404e5ba0aefddd10818d1d8
130f01f0e5f0f019fbe0d90bf0fb09dd
f3dc0bf9e301bffa0c05da1e0006f91a
071ef312c7250e33e1220a282b3bf539
024402df1af0f8e04c190ee91902201a
e6ff08faefe0b9f91910122c0c114e0b
f2d1beced1d5f1dbf50f12101d12150f
d6c810e5e3dd17fbf4c0deed3d0cc30c
012d18e9290a0b1022fab3b9dcff01f8
fdd51d10ebbe67f6eae2ceffdd1cf212
b5b03cdbedf92e0220f407550724d92a
bff139ea01df26c51e0f16f31825ff26
fcfd03090cf313fef0ebe91f1bfa0b20
2cde27c70c0f09bf81150a0907fffb20
f01cfbe8f72bffbe18eff4dcefdab80c
0e05feba11fbe5e9ef69e4f72364f0ed
eb010b0631e7e7d912d7381ff5123ccb
0c0deefcd20c33d8b8014be4ebe0efde
14f30fe1cee31b9e0ce017dd030e0c05
f4d416f50ab2ddb204ebbc0ed9fbd11d
1cde05424dbc14100a03cf29f3451d41
ccdfdf02eec91eb7331de98a09e3af84
e73cdd1211dceae240c7160a0ced20a7
e3d303eec3ece7211416f624020f1dcb
1581f8f9f2360641330e11101328f8f5
07a8fdcefb4b2f0592cd1206c51dca5d
162cfe370cbee3e901ee25c9df19ecf7
1907135239f20dc6170be40fe22401d4
1ceee4e9f7b70fecfcde131dfd1a223d
3109f20be761f8f5e0d61107160c4c5a
221aad0dbb33b206e90be7250cd115ff
05403629fe31ec0d03401507f61ae4ed
edda1d13921ff3dada53e92ee707dd2b
0c100ef8df60e2f7ac2ad311b609dd0a
fe8140b51ca90536c513b326c9ecae07
31fdedc846e7f9134f06f8084d32fd0b
de0e1fecf5181a090848d62bfa2ab429
eed0d6eff51f3222052ef0f9480bc909
2bc0ce172043f833eb09cbf6c8deef95
0f07c2ea262520f5f7dfd8a5f4a7bbdb
08e122922c28f1d2083108e2221bb314
d3b938e210bcdad4b4cbddedae1ef012
dc0107122217f0ed1807e5d2f9d54fe8
2439d82b272f200c1b27f3f1092409a6
ef1e32c53fa815b6be91f7fad80c1306
f9ec0e81d624dce3a61601f4cbfe0207
52bce6ae383dab06db160702f206f115
4e17f8f01e0049d8110219145cdb1902
d5ad16f412ebefcac4310ecfe312ef04
9f284cd7df3d18b8b5501406e62bed34
0ae214e604cfe6e3f010c11e0e01d7f1
1fc90001360ad92602d7bd2007e7dde5
d0fe1d27c7d30608dbcfebbbe696c0dd
02e5ffebd4e4fae1d19de0ececc6e0bd
0b0e1ff205eb02f9f0ecf2df0c06e627
0f1001ef08040c0f25ff06fef10f121e
001f2f02c4f515fbdefc1805df021214
04df11e9f3c500f0e2f91fe910f405f9
040701220d0a1f2604f108081011d315
0af1d5f7ed0ee6c81507f3f507fde210
08111af50e3df4f6fc0fe2ff0200f908
06fe0efffd1b05fb0a1e08f62c171cee
022a18fd0e151ef7270013effd080d03
f8f50506fef306060ad7fb0304f2d40c
0926f521150504f301d9c5ddefbf81bf
ed06120710d6eadf0cd2dff327ec28ca
ec1cfc0e01f3be0a16d6e89fedf2129a
f60cfbdcf30ce9f01b04f1d7f00a22f9
dcf709d81017e903e20a0b43e5faed0b
fcdaded51f13f229ea28bf2804eef90f
1806fbe9f0050f1eec12020cf3e5fd24
15d60604d6fd07e7221be1f9fdf4c509
0bed1ab4e610f9e2141fec3907d4fb03
2b0001e828180717e61fe211ffc3f9ce
25e210132003811ad71ff0c1c8d6141e
23b8eb0205ecc10ddfdc04adc01cf31a
0d50e7f12c0d150216c91d20f5f7d7a9
5ffc340517defb3817d5f61aecf6cdc1
12cef1260eede630d7c1e302be0f209f
07f8f701f5f704170109edf50204f9e9
f1aa04fa18fff5f40b0c04dbf51405de
10e20019f4d10b15f42511eeee16f308
e8f2eaff16dec90fec371c28f410ea04
efdcff0202fc011be2490a4cfd130bce
cbe3c4c4f1fdff14d30fc923ee28f42b
26f02ecedb1dd2ef04ecf6c4a0d5060e
e9040acbbc0f38e88a0edccba426f42b
07fc4b03c1f857f6bcffe2d3ed20e443
d8e40746df210a160d171724010b06c5
e0e6f7f7b10db6ffa621f2e405ed088f
ffdb09d9f2261738814139f92eb59416
1937dbd20f16194af72d191c44e1e127
e9a30a1cffbef11504f42a061b1f293c
bbe1ec11b51618eff404fb0afb0ec02b
27ac17dab8f1d614220f58ef2326cfe6
e4351d06082e0a210bff2bb62b350adc
de05fbfc0e0d070ff20cecef32272c2c
e136c32dc25ed325e111e9ed23042109
f9dde5f483f73cb6d52346ca21b150e1
6cdee20f3319ede7c4e3f4c129cbddef
ee01d3dfcc070728d7111e0a2b003740
071d10cfeb4c362b050b0c690dc33364
5ff826f317dbf732e6cbf51a2381dbdb
39fc130cf7f8fdfda7cad6edfbde07ed
d71dde29cb13f2fde51ce0d3faafc5ce
3d02fa37ed05f5d12391d0b62edaecf9
fa0ee5d62b301de30633041fd648f233
e4dd0c04fa0ddc0bc02bf1220cec1731
f50f07e0e2f527d616dbfff7aef4e005
f8f4e7b40aefee13ba1fd0f9e546dcf9
18f526f1f817e7df1c06f80e6a2c33e8
e80eb3155526cff42109171a410317d5
e52ee404d40a09e3aef9fde7de0229de
401717de0d1c29fda8fd3d1c39b40ded
b0c936fa001721400802e52338c202b9
08e2212e22ee22301deb0cb3f9cdccc4
cef1e3f0c4efbf1ca8ebf1fab019dde2
1338de08110b032415f108e506b844d0
fe3ff3e5f43fe51df75cf30d9502efa6
a8f643ebc904ffd7c4f4f8f5e321ebc9
0eb9e749e6fbf1e6d71f2838caa1032b
2c1d96260d5db7ec2d111b56f1d1153f
0df31c23d7163f06cd153c3bb93d2c09
0a3301210415322ee8e321eeb6c320c7
f315ec1e03401626462650f60206fdb8
a8ebf42e13feeb4c41e219391840fcc4
c3b0fc21d6e523f2dbcbcf03e0a2e605
2d37ff81b9304f16a50e20e2e507fdd5
2a00e51809e2dbe02bd9fdb5edc2f6e5
ee0cf7034ce6d91d2df8f008e8d9ffbf
9913faf2f303240f1036511d2ef92f1b
dceff533ad02f3ff28451ec73b31e1d4
031009df0a2b0e00011b39fe0ffb401a
18e229140cf6261319dcf9f041effc1a
2308f4f4eccee4f10abdcaedf2df0be8
0221ff0f10eccc0f0befeaec15cb00ee
0d10e111fe08052506f8181b03ebd8e3
17f452fbf0e136e804f006400048ce49
04f50c3ee2eb1b09dfefcf3b16f8d1e1
e3f6e51a04ee22f4f30ee3181817fcfb
f3f4fddbc2be14cac6a5f8f1d90edb07
dc0fb6f2cfd8ef9006d705bb2f4418ff
d8e1f0ebf20ae11028ec26f321ee02ef
f111e4f698e6ec281ce2e81b161e0f14
fcf616f809fe09f3f2f505cffdf9f50f
3dfcfb18d80d0afbe013f5d5240717ca
e50ed820d4080dadf7ddd681ebe4e6e0
10e234e302dcf0f81bebd3f80e09e501
0bf201c83e3408f2231e111c12f8b907
f7fbe5e71014ed19fdd621faea0eecd7
17f1e10426fed9fd09100911ffe9d3fd
fcde12272be1132ce6ceec13111300c7
07052af128ecfaf725ded9012ceaf810
db10fc041ed6e9b2f60281e723140dfa
1ee0040321ea0500d81ae6f602e40bec
17130d0d12f808ff10f0ff14ecde1121
07e63ef002e116e10616f6041efce709
37f153e7e6cef1cff410ed08191d0405
f1defbf31b0bd9fe2403f8e902e9fd05
e90205f8f7daf32c0c02ec02f900ff1f
f7f1061cfeed1031eae41aeff8e4eaff
fffe01f601cb012001c0f9f605ccdf2f
1202ddc8f707ecd408e6f70004f5bef5
06fc05d1df0006eb0ef9eaedee16f708
051afbfed6f3fffa1a04d804fccdfefa
241727dc083406f92008f8260221b6d8
e9ecf0e2fcdc9003f3efa7f99dd8bbfc
fcff27fe05d5ecee2a01eb05d0f6dc28
db08d2c60cbd11c3ee0fdefeebd0ff11
eefac41cffe2fa27c5f40cfff1ecfcf9
e0ee1f28feaf2752f8f2ee152a06bbfb
9db63d1bc9eb25442fe6fc1d1cfee108
2206e1e6f5b70ef3faecd8f73afe1403
180bcbca9caff5d8d503e7ff090be131
988cede881a948c8b7cb1534eb14ac1b
c61b091fc7e530cafef6f8e61c1bdef4
0b0deb1d09f61102d2f6d120ff15d705
d70bfae7e0c505abefea15f7e5040ff5
833a0803dcfd02af23f839b443fbecd4
d31e24fc1011eada110148f943edfeec
1a11260b05d6dff615df21c539db35ec
460aee2402b1e3f105cbe8f105a7ebb3
32fb1118f6d0120de8f0f0e02ebacad4
f612033205e80ad91b04f1fe112dc2f8
16c6b91eff99023c1f990110f142b70c
ddbcba31fcb9f06ffde41bed0fe10f0b
fbb6090dddefff1be4e010e814ca2b22
e71f05f32013452321fa081032cdf337
f0fed8411a22eacce614c5ecd6e1ecbf
e3f90722e218e51f0132c308ed2dbf96
24e2a825f9dabf11f418b2e617f5e0f5
2432fd1a0aca17311ed6f307e7fec3dc
eeffe72cf906c1ff19c4e904fad2b924
1845e02808f78f2d21d3efee2ec6f21b
06170712e7e5e4fc150d8120e0d3b0be
0d3a4e263cf22a16301d000c21e208d2
19d21a1b03f4021c252e0d0605ece5f7
0e1809e30c1cf11ce3132705c1f3e6e4
14190c170a18d90dce13fed8fc02d8d2
e31ae4f2f12fe9f8172f26dcd90809e9
fb0513dfff1601bdecefd6eef4131e05
09fb39023781c6d3ffbcb2e4df1c1aed
fe0517051bceaaf118e4daf6e3154038
f1fd0f192f13f92afde0231da904190e
2e10040f2ce6f2fbdcfaf1df0cfc2a97
2d0b41f8cddbe70be037abf316215bc8
28f527fca6e7ad0bd0d9dffafee85bc8
1703f31821fddb25cf0df2070dfa1619
15fe0015e92523fde819e9ded3e7f809
0ff9112420e2fffdf4f1c5f6d80700f3
f605d9ff38f9f4fa08efbad50219ecd1
23e4d7f239f7220be6080f03dd15f7f0
f71ecfdba5c8f1ded0ef18dddff920e9
302818d80dfaf602f1111af9dce2fc33
240509f4e7ee02081e22f51c0ff3f652
1713120310000df709040e1b03f7f612
f0b54b2dbdbe0ffb04dccf251cfce960
1e0d1518daeb95142481dedf0dbc28e2
f1b71a24e1efdc2b17daf5280f0d0f20
fb8c1717150cf7170ff3282fe5e60f29
de0e2499d600d0e5ecebd70d09ef0ecf
d00945aff5121d1bf22eeedd9627f7b7
debd02e5ea23df0bddf7ededdfeffafb
f9d6f5e4d70ac4e0cf220604141a1b24
210919df07c8e1f11485f7c9fecdecbc
0ff98fec4cfff00b26efdadd18c4f8a8
eff2fcef05cb21e9f428cef326093ceb
37060df1e8ea2efde003e9ddfef42b16
f20c0d02fe0cde060ff71d0d12ecff08
c502f5e8d802b2c914101ee5fa06fdf1
09ee0cfd1de5b5e71700061c142825f4
e7fbef0f020ac6f6ff190c03f71107ee
f0020006fac7f2e2eef813ea1afcfe10
91e902e1deddf22d1eecd90bf7faf6dd
f80601ef030f3d181fcef7170fdecbc7
f024f310eb244d0f0f0fe12623dfe5f3
f8c01df7f8da1df3e005fafe0f05f2f2
eb11faeaff120b27dbdeccf3eae9e10a
190d44eb33c27fe9fec9f6f8d3dedff3
1623f01315e83ef5f908edf31210f9ee
fd15fae6dadde3f1eef50c05d70cfb09
03f9ec28f5f6fdfb0bed0cefe9060813
c30de7ece9e9f20c24f5eef6f0f5ef1b
1105c3fbf606f63718fdf601f7f11ae0
1cebcaf2ebf80030f913033ec4edfe02
c5e9c70b1520e7131625b11029210f03
e7f8e508f1142cc2010281faeef50eef
c4e2dfecaee808e011e1eebfcedf22d1
f7032b3602e015ce17b6abd7deefd7fc
fafbecd706ef12d2d806f7fafcd504e7
ced70709bd120cf4d6f2ffe2cf051811
e9d1160024151a04d9e1fdcc3fbee622
ba0d05f0d0e4c9f3e6c1b62cd7eaf9f9
1d2d102c1928282d14ff1f4d03efd0ff
f02a324d07d3560920c8360a07dce5fc
2610f0c817100de50e22f0d7c3e7dc0c
2513fd102ad60af2df1e1b22d7d5243c
03e113411020fc50212d395304f91e28
0cb735ddece0fff8dd0b21d9fecf1911
04d020ecfe0ebadf09e2f58df6b610f1
f6e90d36d107081fddfbbcee020fb8f0
3d1c1edb0838e3ebfc213c08e9320a29
3cdc08fa1cdff6e01f0c001515270818
2b03e2043ad1efca1d96d9ddd4c3ffcf
cd20d21df8f1ca27e727ba0ec022ccbd
1ed907e62306daec16819900049ea3d7
0d163f112a1f1de42a0e14f5220cfe0c
0a44f71de037eab3f2f224e3e91b231e
06f711d9e9c0b9f5f202e6161adef6ef
fefdee23f3b49e01cef3a4f8eaa219fc
da18d401c00ab9c80e05e8e0a4dcede1
080829ec3e1ee5093b0b56180e05fdb2
e8e9f5d9e8e6e6dac20905eff8220b12
0c16140136bd03e20b06f6e1d4f10405
0d051221fff0ef36130f1c0a1416f4fd
a9e7cde4d5fb00fee60f0807191bf6f7
0a1a2c0cfffd38f3befa0dc83202e798
f911141e20ee1eef04fa20bde0b2fbaa
2116de10191afd1c45e9fffe5bbce5e9
fd041a09f1f8f80f0013bd32f117f304
eb0df0fad610e01e81dd2a39b5f3f4f5
f60609152a122410d5fe27fdf700f724
0d0ee4cbf1181901f4191cd1eb09d425
30f10906f1d4d011f3fef0f6d4eadd09
0f040d15df1307f423ee1804d408243a
e0fb040728fb33ce000d38d01b552609
1300e110ef2007fcd121f4f212100abe
1dfd1e15e1e1061ad61ecf1806f8140d
24f44b0ff1ec0ce80fd0e2b6fbc1e110
da3d072cfb2a1632c213d410e7eff3a2
f6060519e7f9f023d330ed25bb01fec6
09fcfbf7dcf8f81200222741ff141011
27e30cf8def90e0214e2baf606f4f0e7
0fd1ec040400e31dffff180cb8cb0df4
f6fd18dcf4e517ff03de2e4703f90305
17cce33112d8ecdea8020c00eff8f70d
81fcd016d80717d5dd252f10f512e61b
2be8c2dbf91ceecf16b9e40ef4e4bfc1
19ec0645ece20916080ef6070d1a0f18
32db28f7f614c5ec231a2602f1fe111b
af040f29080dfdcb2bebe8de0406f015
0f07e60afee3e8e5f0c0eaea1ef6fed3
33eaef0ffed0f218040e3ce9b311210e
0ced0cf63332fd15fe0d28dfd40b15f4
0e20f434ef17f601ee0503ecf5f3fbeb
ddec082af212ef01f60f18eaeff5ddf8
06022503d7111aea0d2f14db09be0b24
1be614ead3ee1df6ebd116d4320df3fa
31d705c70cf8130acef0fdeebdffe328
ddf7190d1cf6e8f20301d6eaf0d0c824
1b100d221ae0eb23edef37143ef80c00
c4112808e23714de242d0fe8f905250c
00fa201026e90c0cece203f6171dd31a
040809fa01ff2ff6d5e903fafbd303db
fa2207f0e809e5e92ae902f0fa1109e3
d41dd3e7d024e5fc0b31dcf51035fa0c
dd0cdfb3d91119d8e2eef2d91f21860e
9e0800b8deece90111f3010bd2deea20
e8241346fe02eb3b18fe1c012e1acff1
9df84b05c1e820f6e404f31e401ad90c
cee617e7d2f4f6023e1f13e9df0cd503
f8e2041fda12fbf61b12fce9f8090a1b
f94233ce070ef3f0deddfb1ee7f1fabf
fed90c07f4ef0210e1f6ed0c01f514bb
10fee72903fdee001afafcf21ee6f3f3
dd20e5dff316f1e210e405f90cdb0904
ee0e0fe8f1ffdf100c110c24fcf325ee
e118fff9fdd8051aefd2e127e8fc0405
cbec02fa090a1be718ff12dc11ebfb0c
ecfa03f2fae9f1ec1afbfc0f180c15f3
dbe801d4c91103090802f0dcddfd01f5
0ff5101fb10dd4fd81ffe3daa7140101
10f323f308010cf90b170520f9f31002
19effe11faf40cfb19fd1200fafe03ee
f5e6bff805fee61401180adb07291215
d915dcf2fef416eafa1312e40adefcf7
1bff19fcfc0c030af0e50104d501f711
ecfce9f40f230bf1ea01f40b04f1fbfb
fa09f3d80ded07f7f90a1309f5bc04fa
fbefebd4ecdc000af2eee808dcf32010
fc0ce703f51cf51602dc01f60708fefe
0bf231f407f8e5f0ecccff01fbf0f508
1901e61eddf304e701e8ffe5fb061203
0ed7efe8f5e130ea00e110eefce50c0c
f61bf402f52918f80fe9f9f50df5f100
021afa06ed22fa0af7f8caff06f302e5
05e9b7f8f3e8020bed0efaf6f40bdfff
06c50cf91feff6f607f207ece81f03de
0cee06f716f800eb16130700280021f4
06f6fb13030a0c06f21200e2f101f2e0
ea0ffb1a05ed1110f2e204ff0c020010
f2ceb028c3d9e81821c9b6feeee9d42c
eb13f41a03ed0720faf6f10306f508ff
0edef0f5de16f4fc01e9d81bfc00f61d
c60bf404fd27fa161606fee00922f200
f10714f8ec0807eae3ed0ed0e1e5101d
d7f9dcec0714f9ff0efffa3e13c406f2
f624cc05e3fbccdd2cdf1428bad929f9
01d5fcecdf111d1ada37f2d0041fedfd
0df91412f404e9fae6fe09253a2f10fe
ffb0fafcf9011a2cdee6ebc2f91506ff
f6e4f4f40b06f51da7f3f214f5f421cb
39e9ee111c1becfed1fd0516b5052d15
c1d9e00fc7db08f9c619011235b21014
20dbedf7eae2c60109fe0218e3f8ee14
f3fd08ecf9051df8ec041215e0361cbe
03040d17eafb0805d4e914e0021181eb
260721f7f70051fdfcf600e50ea39cd3
270ad7ddef34100fd211050d1a21ff18
0ff9d8f4f73003f4d2ff0513069a1def
ea1ffd0505381a12180e40dcf81c02ee
d0bb0ee209180323fff0d10df220c202
03d8390721cffbdcf1ec0bffeadb0106
1f10d8000306f5e0e20114dbfbf80adf
fff0e0ea07f9cf23ff02dd002003ec0c
f80c0b1dd9b427fb0a0af5f43a18eede
dbf1f1f50a2326e3fd0411ea0feaac35
22f301f4e61407f613d8f3eb10ee181a
09e7f5e6092aedee1d1f01fc07033cc7
ca2ad305ddf4fe13ef1dfde21826feca
21e2ea0e1e03e2d8d000f7ec0af1f429
06231ad4f8019af42403fd02f7cf3dfe
5d26eefc0d081722eee1e71fb1fa10ff
000a0740fee3d8da1fbce6faf2b21406
0a28d414163004fe2ed8e8ce03ee12ee
eedef035f4f512f9fdfabc0dcaeefbd4
e71cf60a03f6f70eeb1dec2bd7e61515
e111f6e1f733f5ee32120d1621041406
f4d6fae41c02d602040dc5063709cdf8
39fb18eb09d907d3edf207f6bbdb0d1c
d402e715f12ce30ee6ec2322fc0630d3
f61c06d00fe46223fef9c03303dbe302
59e712dac3cef0aa4006e848f61cd608
06250723b0fefbd1fe2918fb17f7e00c
1302ecfbf9f50a0ce6f506fd040df9f6
3d9ee5092df00b15ace5ebf8edfd1eb9
e91051013200ff0ce0ecf927da27ebef
eceff2f108f1e4e8ed300311f6222f16
40fff0f2e90101f7f9f6e10b1414180d
27efb9a5fd331f1327c581fd0d10cd0f
3210dbef000cdaca10d5cdd6df0ffaff
de1e2e29191a100706f2fff7e7edf700
2e000307db0216fde6c312ff02fde6cf
0b0bd9cb0cc4f4121708f532ea07d917
44fd1b1511faf3e519f90cd908abc705
1affca27a82001f6bd27d1fbcf0911d2
0a11c8df09efc8130612fedfdc0ffe17
27fcf4e6f1270006dadc39c2d4f102ec
f3dce5e2e5f603f4dfe9efe340039e12
1ce901e603dde600130ef207fc180513
2902241010d7b007ddf2f410acc60c1f
5613ddbfed9826ddcd020ae1fc2afee1
0b06f7f5f80203faf7f5e30337d8ede5
dbfed50bfb0ca00cfa09facef900131d
fbcfca05fc931b3fe600ca0fec0a1fc9
0003da0c02ff1b1c0f0ea125ddec1fd6
bee106f7eee30028e9e4d8eae0d5d902
1cef2a0e25fb02d3030327d917eacf1e
2ee50c03f70201faf0040fab10f54d33
f406cc14280f1533efdd27b233de210e
e8ede31e1ce3d10fee222d03fefd022f
a40014f71f2ec5013b17e2f1050dca18
b2442fee2f12ed4e39d21db1abfefdca
8c27eb10c3241de5d5f2080f1932d7fd
900ddc8348e3fc1022f0f6fa210d0d23
ae052003eb23101247dedd0e33ec3811
42311753342005154445c407bc00fce9
0ace89c52ac6e5d8c6f7cf133902e73b
e1d7f65808da21e3cdd74609c2070ee8
e92d1d9a0b06cd1906dded2fe6f51bf1
35f5e0d05018e91652d4e53de7b40dd1
07e9e60e9a199ed50cd1deea1bb6df18
2d0c0703dfc6f0fb0522e404f02f3e03
a3b7352007fae222f03e2001f8f3e70b
fa0c1606f4dc03d31beede0cdf2830e1
165d4a93e40bfbd8d8e8fc17123e18ca
293214fb1df6010fe5ee10f5f9ea23b7
2006ece9ed1b1511ce0dcacee6ff3c09
2fd614142fe52ffd01d9ccf24f89433e
0f3fbb2516fff3d1cde21427ed182302
3a2acee4dfcb5426f60230c6b8d40bf1
1a162f16d8d1df07fb25fcf715ecebf1
4b0d43270044de1012eff9ff4127bc39
f5f4f80815eae510edf6ccf939ba20fe
c544a82caddceeef9b0cd5f523a6e50d
02ec1f0216e02502eadf0dffacb40402
1400d4551ab41117ed33dfe7011e041b
1f362ce0010f992c0515fbf8e520cb0a
abc9d8efe12aee04130df7d9d5cb15ea
f4c2e1e7d3d3ceabff0901e515e2b50e
558112a9c9e82ac6fcf228f0eb0ef12b
412d10e20bd9fe09e4f3fb190ae24214
150df011c50d2317fe02f304e1271d0e
06000927f80aff3ad505f509f50df0ee
d4ee112c37e605d30df230dcdcf901d3
1e0decefb31d1111092a2a14ca2e03c7
08fe14ea070f4afb09e90be1c2f8fdce
8509f0d7f903c9f0241af9c61ecbf4de
a00223129ff309e9a202f5e7b60b0f0b
04111ee104feffb529170d19ea010aa0
c9ce3233d10d22d40c14fdfee002a3ee
efe7130cfff405e9eff7bdea14cf23ef
d6f804ffeb1825fe020afd082deae9cd
23e4f625f9ede5ee06def422fdf90429
09c30f1deece051be40b2d09da3e0c16
cdd8e4f3e517d9e4d81806b6a2070a02
d9f3b02bea00f4f200f6f6223ffff824
f7baf135dfee060e090a09d6a8062cfe
acd429270df732ba0cfd05d4f3f0e6c1
12ff180d052b14edf116d9fdfd0af2f4
d8e4fdfed6f91107f0fef90d27d7191c
feec3210e585cb0dc620321a14fd14ff
2c0cf7ca30d5f3db131f0cb0218fead8
27f93019ef400501f7fb17e6f527193c
2f4527e4080b13e1f41fe310e3160bf4
ddd817f0320fe21fec04f0f8e3010921
810c158506fdf3fe9cf8fddf0afc2d35
e30227f2f7efe809fafaeb06ddc6f229
f406e6faf1f2f3c900074002bf25b320
0924063926e1e9e308dc101cfdc209cc
26fd001bc1d4e8f6dfcb06e7c1d9d9cb
fa090a03d956ceefd10be5f91e02bc02
f320f51e04f5f609fd0d1225e50d0cd9
26fafe27e9e8f0160a02f63102b41008
ddeebfc4f10e1bdc000f03032bfced20
b9f22dabdf12edbcf7f7e7e1f1f21def
f4f9dc44dacfbab9fdfc44a1a9f21e2f
ecd91018fe473902033f0afa0631fd18
3c19ee6d0a0617fc01e901ec28f7daf6
a816e614bcdb2fce071fda0ef5d9ee09
c91b1abcd01833d1192513e2fef317e0
e600032fdfc224f212bef2c52dbde2c5
221aff1424fb2cd1fef3181607d4fd1e
2625a9dae72546f0f00b1805d8172ff7
1af0fe0c0e2917f4de072308f3260211
10d2fff2e508fcfde5d0f4ac06ed01aa
2d1ef9030bc927160f00fffcc6eb0ed9
e505e201dce605c4ebe21001f6da2fe0
c6dd5712ba3b0b2ce9e81c2dfddb0c20
15f8002b05e10d051314e42bed041d22
d1fcfc101afa3008f1e3cb05c902f25c
f3e6f1c6f6ee22bc23f9f4fdfceee4f2
22e3beee27f6fbf3f5f2edfc1208e300
170efc1a1ccd03171fd7d120eef52d19
bf06de2205000adceacac0092403e321
81a6e80edd07fac8d8060be3050cf1e5
0af22d0b111617ab0d06ddf905f804f9
cff9050436d121faf1ecf5e825100ee2
060412fa19ff2e3e130620f1f3ef030b
1411fc1bf816e90cf100f1f31af5f80f
2a1422d804131700bcfcd729d0fbe413
fdf3280214e927efeb2be2e02486c214
fe25280deb00130424f2d10ce819fee8
3ce8f9071311f80ae6e31d251a1a0706
0604fe21cbfa0cfff10a032301fbf80b
a8afdebdcfe428d5bce3080d15bd2a50
121aeb9dde27d90c0915fff3f50d07dd
fae8a7e6dfe8d0fb2bebef04e0df25a3
d8e8e3e91a37b7b5f335dff2adc2e9b2
31d5fadd3ed0372b03020cfaee91de38
cad20841aff21406d7efda0818f71518
fd14e811bafbfa17de36fde9d839d322
c5e2d619f4e93deecc1001ec13f1f9c3
1ce30bf4371c281f2ba518faa0b651df
f1bcf3122812edf7d21fe1f5fe160a1e
27bae711e622d7df25d5cc05ec382ec9
0b0129d7f319efe814f83929160346f2
c3f9ef26ee0bf0c8121ef2ec53370337
d7ddfb9e1ceefae818e10adfd21b04e8
f8dec11d29d2d5e4f0fae508e3adf815
26513b22eff816e12c183b01a71b00f0
09f9372ce4f3412bea12ed0ba8410edb
e40824f3fa1f17f31509e2e11b01a720
27d222321afc0115f0dc1401f3e0aa25
3e5bfd14fde3870c25cbbc04c9bc3130
0de76af9f9b612f013114a13bfce51f0
2715340d214f17e00f1b17ef1f5ddf2b
29c4ff2eeaddde1e02030dc40af5c1e1
d0101406181e42dcaee01313f31cc406
aa08c6d3e814dcce0951cf06af49c1e8
04f3000dff02ec2d031507feebd4b607
f7f3d7141d11f0270af6f1cbb10cd534
e592380411ed13ebff210622fea13dcf
b9f7311b2ed8711bebf5b61c81fbda04
f4f7b3d0f90f011a0503080802f9fe11
e6e601f90baedaeaf710fec5d5e4f9e3
371c1f00b613e422e9131af2f011c5f2
12e5f128c8e603e3cefe27edf105f93c
0aff0414e0e208fd0a0bdfb2f411d112
0d1f0604dd200e0afcf20f27091cfa19
fbdd0400edcc1909fd070207e9fae7ff
27f0e6f610e5fed8081400e8f3e9ea9c
e3e1e9f5fa16c6c0ddf3dc16c305ef29
e410feeaf10800cf18f5f7d615e88191
02ebf3fde3e60ce70ef2ecca1b2510c8
1c041f032c053d2406270d0fddf03118
0ff00cc5f4f80d0606164ff913ee2ec0
fc1004f0fb04f1ee0ced04f61dfe14ff
f4fc06f00721000217e725fefff0b21f
040dfcfef4121240d0070e0b159ce9b2
051401e41bf2fb0811e7fe33bb0de405
ff092e18f8d007f4ecb22111f80af80a
0a2711fcf40c110be8a2f30bdaba1408
fb11f2f2f6fecbbdfdeff41b03f3ebff
efcb28042fd812f614f108f50fecf717
faf9050702f0070809d1f8ffe3fe2107
fbec0dd1e80316e60d1212eb031dfdf2
0eedf6f5e7fc0018dde6f42616ddf80d
b8ef1ae51afef2a81d05ece1afd0fce7
15f2fa0601e3c0f1d907efe1ebdee806
130726effb04e8d607c3fbef02fe09f1
12e4140a1ddfed0923e6f3f3c6e10dfa
e9f2f6ed051df6f62aed01fcedc0f00f
3a1835df11181d0c0d0618e02cdce621
f5fb1501fef2ec0ce7f4ef2d00f707fd
03f1001f20f4fcd59e0ffce0bff5cfe6
ef11e21f091df2ef3714e50c9c16fd16
1cebfffde8f6bf0beefbf616f9e32619
f9f6ff2af51df6f902062218c3faf80a
031b08f3f50aedf517f1e4e1da0d1608
4003071b10a34be1280c2a349628bad7
f22322c1f5b1161d0fdacdfbff280805
01dd64eafbef39c59ed0d0f40528d2f5
1c10270400d9dc2a2d191eecf70f1203
bceaf22beeff02a4bb061f0caa3700fb
e63832ddd9f8e5fedbcc152df7cc1025
d8ee10d026f2f3caefd929062ad1e7d0
0500f427e1fa0f36e5f6f00009cb0908
29f1e315e5b6dfd7e0e9e6d7ab0b890d
113afe0cfd0af035d6390520c34cea08
d7f2fc02e40a07fcf2ed0a2c01581afd
15db28ca17fbc7fe11c634d9171c0fc6
2fbf01c615efeccbb9c7d6d132fc3de6
fb1b1cf541d10eebfbf61da7bd0ecedd
ea07ff01ea42fd02f0c3ca13dc19e4b3
fee6032622e82609f8d9f41c1df0fe09
03309efae91381d7d3dd2dd6d822e91b
e4cbffdffd1df7202b1c1fe206e54505
30c61ce01f20d310e3d819e5450a1d5c
d4ef16c216f016ff2dfdcce8d63aff53
1b07e243dbfffa0bdc0bb627e60ae01c
e9b5f4ed03123201ec2521010232ed3b
fb4631e72b3403310313f514f2061af6
4ed1191b04ffff03fb0eea063ce21a31
14c9e2b6f12322291f28fcf2080a05cc
afbb6b0dc706dbbb1d092f151eb11605
0d27c81204faefffe02617181502e8d6
319fdb15e1f907d2134544bd0adfe794
c121301006f5ed95e82bdec3eecca7be
ac20cd33fcec39e425cb03e30922c023
dbc9e1fdbd2c22131fea06fc0ae0f8fe
eba6bd361031193b1509caddc4df13bc
e31529312df00a00ebf8f4edc4f2eedc
a1d4f6ff1bf8e4f2fb3ffef2edf319fe
f3d7e412e4df0bbcdcc1fd16fbf8fc2e
f8ae1cecdab920e50a031b3842ed12de
ee8115f8aef4011a0905dbe1a7e9fa37
d8e82de1bf08dac81226e7ddc305162d
d8dcd901f502ee94f8f4dcb72ff2f1d5
9c03fd2fdcf3091bbbd61a058b07fce7
d71704d329f1e3050c0e1be6effe02db
caeac58f1631d1fe4312c34ff7260b14
1ddee2fb03deddf0bffffaef90cf0dd0
5089caf70149f92bceed0118cf14e706
2dc8f8f4ed14f1140702181efe352bf0
02d218090601e2d4fb0117e0e11dd7cd
e4e1f7fef3e225def3cf1ad0defdc2c7
02fbf0e65039ba22baff05f901054301
e6e2325ae816f9f31500a413312423fe
18fae806270615cb00131b11f523b9db
ef16d8de04fa97ef30f4afb2a903d723
5124e4fee2d0b53bf7c5eeeef4cf0542
1f0c04ef09ab0aee0af9c4d90d113ada
f2f2d9faf8cb0dfae527ee0efefef3d5
3eb8f806f4bbd6dd18d4fd10161bdbfb
d403eaf1041407e52ff619f5f1ebdcf8
caf5ee118ae9f52aec1300d0c8f0020e
14f230ece41013462b1c36333929e505
d718bccff418d9c422ec2fbe1bf8b7f8
d822cbfbd62225011c093d2ad5eb1d31
f2deffb8d3ea0015fcc00900d4cc13e9
27d11cd20ad629e810100300d029e207
ef26ad36ea02dac2320cbee117130608
d32206ede10b0df225e705f2be111333
f8d4cbfe1a0ade95a0bef4f9b8e2db0b
eff7324e0898e9fdd5d42fda02dd0118
bee5e005f3ef2303f231c7170dde0e02
f3e604fd071bd3f519dcf69af29df120
ab9ab3e227f4f4ae1702b8d7e42efcbe
e5d9010ee2bb05ed28d4a2fb0ade18d1
24e2da23c4e0f5bfcfe9e5f3e2c71dd4
3d1a25d90234c7de0bf2bbd9eebe2f19
e504cbbfadf2d7a5b5c8d6131bae15af
ecedd7e2e3a204b1a1ea97d2e5a6d9a9
ecd6fd0e22d90f1af6a7ffcfc2b9c02a
b2f0f8e2c8dc81e13ae5f303df04cdde
10ebb03802c9121213cb0b15d4dcf1e1
d7eed100e510d2db9ef6c7b7182ef534
ae31aed1c8dfb7aee19fb5e7d12ed8c4
f4c1ff4af80a43efce3aa6f2f4e3cff2
cb01c90a1fccc50fbf90d0bde71d16b6
fcb51b13f1bbc6cf86f7ade7cab7d7bb
e7cd02b9fe1208f5dbdc98ade8c8f421
afc5deb0ed9f39bcaae9e4070ed6e12f
e806e20afacd8a15d2c894ce472adb03
33b0c5e4e7c7dd9dc4f8e8aca22401da
0df732ffd4da0bb20bd604e6c9c4f042
e2db900aefff0eb8219cd0b02bf3d7ff
17c6da290bf9cea3e038bbd821b6e41b
1a06cf1ebad219c4d7ebd7e4b2eb31cf
3ef5f305dc963a08baf7e5db06f1c80b
d2f7b621e1e3e604cdfb179c06b6bc28
210534a1fc13f2f2eb32a2fff0f6a4ef
d9db000c06ee07c814e1f8a2f1bbbc01
0cf714eacadc0627f7bacf25a919d428
d811b744e7baf847bdba0a27d79b2406
15f905caf618f00be41308b605c9c7e9
110b10d6dbcefbef11e8f5e3b50ba504
171400cfb8e4d4e7f120d4eef4eff712
1b3ef4a7d418dee51425055bec1825c8
cb1ef4092102011308c90dde1e11ff11
10cd02e2f4131a09b9daea26dee9d4ff
f42621200af7cee821e59d01eb02e927
1328d8d328cbfc0e1af2e3d505cdfde5
0832f3d6d91ef10616f3dafbfd0b1bf5
0ff2041724cb3e02fdea1016bdf9e706
1c17e9c6f90f1ce528071be7ece3d31e
ef1f21feb6f5f3f8141c3202ec0ffb12
eb0316c72819fce4f1060d2de1caf8d7
dd4027e5f9abeaf0010210e5fd0403ee
eaf8101cecfa1413e600fcfb3d08e6fb
1aff0ae010effcf8fe141b0cf116dd35
e1b0f2bfaf813ab81dffc80a20c3e2ca
07e0ebd503dbd307d6e9faf2d6ee18f6
08d99510ead5a7e811dcbfe3eec5fd03
b5fa1f15b7c810db01012f08c2d52102
070d1610dd250ce52030e7b9d4b9f603
17120ad9e103ee01f6ea12bffe0af208
27f0e8f1c7ccd430e600eedb3f19fee4
0e1d0908c3d40310f4f2e22c001d092a
ea1f1fec35f41c420bc4fa11fc05ea00
21f61c0acb200505e4fe02f6101d23f6
f6d103eaf700fc26edd8110cfdd8ebf8
f708fa15eff9090e06cf05010ad519fd
f7e2fde429bef31cbce20adeffe9f210
022ed821ffdbd4e7ede3b7f701cf1119
e1001f22ea1ac008fc0be2fb0f060c00
270823f902d5f00806f815f826310c04
e2290c17e72321d507dc000209f1fdf2
06dce626df20fe08d40814060bcc18e4
fae803fbb9210ce5d2eebff9cab4f20e
e3972edaedb4f81c0dfb0a1be3f12303
1823e3afc5130ef9f0f406090d11ec1e
0dddfae41a1ea6ea0df401e1f80604b7
03ba1010e9eaf109fa0814e8fbd9ebf0
e8db0701c2d8f20ac3d0cbe7e30be03d
0b17f5e614f6f1f7d9010cf9dfe4f5cc
ee0c0ffbf10df709ecf4e410ccf5e9e4
e40af022d7c90cfb01e9dcf621c2d5ec
d1faf70eee041810120b01a126dbd31c
e207e5e8f3101a2110e52d060d0f0af6
dc130cf8f901020f05f0eb1503d9f906
18f1cf07f1e101d8fcf1f4e5ccbfdfd0
1a15de2520012a11f4e8dbc133121203
0ee101ea0604dc18110fc900faf8f6e7
f203faedecee19fd2cf7f0fe1af2ed00
071029fad9db050f120ef00bdded21f7
f8efc70d0dfdd5ef240ebbf4fbe8f11d
debef0f3070ffd11ed1efb0a03fb0001
eceafad50403fa13e4070407f3d90cde
48170512ecf8eaf7030a0104e3d4ddf8
d502ee20ea101aebfd1511df2b14090e
2500d615e4cbed090d2809f308f5070b
2af12dd7051bf4f49edeecc081f3ec05
ea0b0adc060911fdf0d70c18d80607bc
9308f02234180efe1afcba32d1061830
da1208f1ef1b25ea1f0126b4f60a301c
10080cf101edfbe629e8ebec071a16d3
37fcfa051e0d141c02fcdf06f9fea8a0
fde1f800f7a5fb03d0f9ef000d0dc7d6
02ecf9d013e60ed8beeed806db952be2
3c11091df61dfdf7380efbf9f73919df
11dfe8061a22ed050eef0625ff082018
f9f71081fa1df90cdd04e909a60e10f1
c5010b39c52dd60b1c111fe7cea6ec19
f813000fe2c4f6d0e81de61a050703e0
3ec938f10ccf28e3f7fd0502f7ca1812
01fb05f8faf30fd1011b22ffde16e2e0
d2ddddc9000609f1edc41cfda21decfa
f1fa07cfe7f1f7e609d00ffc0706f3f0
16dffdfff0cdf3f3ff01150df521e0e0
280f14e9ec21f2072f05110fcb1cf30b
0c1de6fbd8fde815ce08ec0cf4c51708
efcc0510cae7fccceafc15120edf0805
f0ff0e121c001c140ee3fefaf7e1c9bb
07fafee81745c0fbfef9c8f8d10ece0a
00e0c7f619cbafe9b3fc0033a4d5c645
0cfbfdf9f007ede8ebebf91bed16fed2
20fa13defde31c330ff918f029f2d2f8
1adcbdf0031319f80ff71ee310f3cfb7
0e072d0ce1fd000cdf2cee0f3032f918
11a3f9fda20d01f101f9ec231412e602
eb27fc331327ff2bf80ef0d9fae900d6
f4d231040ffc1710150de204d7f40cea
de11fdf42af602ef18fb04001207f722
22f0071e0ebbf43619d418000500e502
14fd10f205bac2f1fac5e6fef5e7dcee
16061cf21135eefdd70efe19e6f1f902
f22cc6221abeed40c69dd50618dee9e4
ea2ef9cf03f1d805fa14d61019f6f90b
fded11f11b1d27271dfe0523e2b72a0d
1a12f5e9faf9f6e8ff16e60a911409cc
26dae1f4033315f536f907220cf921f2
01f6e022dafae40704b1fbebfc06f4de
221ed9162dd8f7ea19fb0be6f5f902ea
f1b2ccd5ffb9214400d41519df05d909
9c13bf1807d3200ea9fbc2f7b152fee3
4f42f406ef29f8e8ee0bf4e4dc0dd8e4
18daedf83ebbfe1506dbe532cfcade1f
10e6011c1ce032d505fce9ebf428ffee
e736ea1510050b04300cece9fdd30eeb
0ff6f91043f71e0a16db0ed31581e606
eae5ba060102d0e01516040fd7140115
3032dc2ff51adf28dac83ed7b42a26e4
f20e10bd23021d34d3eacd30c51cecff
da17100704fb27dea8dd201306f8fb13
cddff4f20c0be9dd1e131701f6dd1010
13d51a30e81026e6190d0e050e2c11f9
013bef0dfaf3f40dd2df0dfcfcd4f204
eb35c3fbb326ddd9f72512dbf8efc51b
15333fe9effa0015f9fbca10061810da
1fea481db7dbad19f3b00f031123efef
ed1af2d2ee530113c9f5f5f6322a1dbe
0f222e0f43fcf83700f4e7e7a5ebfffc
ed2bf143f1b4ecdff6fc0afe07fcc0f2
d723ed164c14e7fe1d1d01f1f91be527
f12bd61932c9e804fcf10403fb222df5
fc96d50feadc09dbebe8eb18b1bf0812
d6210805ebe425c50107f6fa191c1908
ba2702fe220cdf05d4fd14ca13f9e8dd
eb0a03f41e2adc06e9fe2de31501db24
c40ec2020be92f240a0c1ab31a2ef10d
11dff6b809060512131f13ec0312ef11
132ae2cf0a212802fcf1dfe62a0df0ec
edfda723f2050a1ee80c2919292dc71c
fcdbe41409ebf9cd1fe8fdcee710f92e
f7e81a34fdedd6fd00071afa1de43110
dd0901fb122a2b15271b02fbf946ccd5
e281fed926c3ed0423080d11f0fcf812
56d631fcfed7fb05f8e0c104fbf805b5
1e11e721d813e122160cf000021b05f2
e9c9fe04abb703f3bd1bfaf1c8210011
120decfff728030d1ed2b50fed17cde0
0bfcf3d105f1fbfa20d8ed09e7e10bfd
f10aefcc0bf1eb061cf6dcf627032908
02fede9cb325e3e2c806fc3eb53ee8dc
f10befedfb01181e101230e725480bc7
07fcc1cf122418f9fbf30d23d2df2ff7
e04f340211eb120a0e0242e11ee0fc0b
feeecffa0de3dde60715abc6f3eebff2
fd1e08340912e0deb8d1e20aeb2221f8
ff11fc2d19f5be0722fbdd04f2e9e325
ff1738ebf31607ebfff2e906111ef90e
21de98efebd125f304fc42f20f044917
20c51ce3e82600e6dae2ffee3bf6ef03
f9e9ee0a01081212b2fe1b0ef81608fe
27fd2102362310f80df5f20d0c041be4
ebe413b8ea13c0010d36c807130ce5e1
ea0debe716335b0ed512dfe0d6d8ffe2
27e6f9dcecf009e0cbf51ec3ebe1dbf2
e6290ad5f1f7110d261501fd331fde09
f55320fc15eeeff70f09e406fed4df02
e3fab00ef9fad411e3f3ef00ee0401f2
0fe106d8faff16001712b5f8f5e3dc2a
facdf9f520f2f4e205f90bebffd41eee
d7301415e2e61a29f10bfff6e7f82121
0929030508fb37eb0cf127e91afcd4fc
dc269a3208fa3201e3defecfdb05f822
adc20e26eae209f5d9ebfb0d0a161809
02bbb3f6faf9e9f9eef201cb08e7e7c1
38291a13f9cffa2206e8d1c6f0e905fd
d90a0fe9e51bf3ebeb2115013b152c1b
d0bbf130fef2b5c5d3f6f3ed0a0fddd5
3d15dae9ac26feae1e2fdcfafb220f0a
05fb0cf013fdc9fa02fd180ed6fdd319
003081d10008f9fcfc0606ec041231f1
05d718f0d810010db003280efb3d0df5
fa2215d4c3f2210a06ed04dbe903d912
04f7a8192115fff111f8db0d1c000f1f
182b15020823143ff7ec0203f8caec22
00f56509e7da17e6adf107e00dcffd11
2727f00d0afaea14f11c0b06b6fbe2e5
ccf3051f0b0dd0ceecdd0f0b0e1222fd
0cea080ce6190e2303ec201607204ce6
edf0cdff1c060a1de9f70cd308f4d3d9
feecb439f7213b15f8d9d01804c1e913
ff0d1cf9f1d902fde6faf2b30a3732e4
1b05062b1500fcfafbee10eef4e21ebf
d1dd11ddf00d21f1050affcccef611fb
17b8051e04fb092e0728c61a0b0c020f
1f1bede41219f7dfcdfafa21e53f1505
1602be29fa1233fc06f5e10abb1e0ee5
fea61718f51af32431e8b4f037d0f22e
f8d6e3f0ef0fcef0e206e8d1badddd26
d8ca45f418d1010807f41d0305ac1526
cec0f0f4ee170fe7ef41110b1304c019
de0ec6150101de26f0e90bd409052c14
d61dfe0221f502ff1930e6fbd5f9fffc
260be5d7ba1b15f0d5fdf4d142afffb2
0ff0f2ca1117f5174b2a1f0e0e25e107
e9fac9c1151ad525e9e526dfbd2bf8db
e90af9dd13eac52e13e41def1bf00dbc
19dbd60b9d01f847f3fae702d92fad2a
fd310bd21fdb04d415f40220dc20012c
813a19a222bc19c5effcdc27ea0009c2
d62702dc0611fe0a16d418f922e51b1e
1af7f1f802faeb01e93aea0ed6d9db93
0ee7eb003c27042805281ff00c060ce6
ecbdc9baf338fe060dea04121edbdce6
41ab17e60dfd2717ffe0e024e1ec4931
0733f1151cebdddb07d70a42fbf636e7
efe0d316f7d4f00d10c32d06d0c002f6
c32afaedddbc2af6e6edf518d1830808
c6fe32b31a03ffdf0ffdf915f900f20e
460b3c36faf9dcf40cdffbb0ea5500f5
202ba919c303d3f9022303c2c3e2f6a9
10eb193f1be3dffad4e5f417f9135e13
cf082a251bf7c9f0f114be1be2d108de
c61dd0fee9c813f9a7dacc920727a6a0
010cae221f24a30f22e7aa08f8b7c7f2
f1ffe71bf3f10bce0418f00a0607f120
06f0d3f306060ef6f24a15f0dca0e915
eee1efe50b28f820362d280f31d1f6ef
0115450bf902f31dde15f5fbec0e14b5
1dee1744aef1e3132617e43c1b2d253d
4ccdd61c06b74aec0c23fc0eab224ef1
d0caffd40ee9033113dbeaf3fbbef202
05da9bf1f3ddd2161306db1dd70ce4ba
a3fac9201d3a3a0a0500f1efdcecf500
221f0234cc0f1a16feebe2e603aed315
fd04f3e6ed2e0bf412fdf105befddf00
07ed132a0ff0dc1df00a1cfafd070cf4
f3cf1b10f321f1e40f0c12dcfdf7ef17
1ddf0bdf1a0cdf18182108180fd8392f
fb12a9f50aef1dcc0cf236f92a1702e3
3ccc00c3ff1a0b1deacf1509a511cfd3
d10308c6430822efc301f709a41a0efd
3503d5fbd31c0c0ed4e801f9fbf6c3ee
030fd6da1bdff80b17e7f4180ff6bfe6
1107f6db10252130e512fc102e1c17e3
1af819efb117fb09eefcf3db0c0b0020
171bd0d2eaff1df9a6e7ddf32bc11d05
09029c16b8071103e1198c023e3918da
d01624e50f1bea00f3161a060fd42537
11d31ff72c102dd3ded9e0f00927ff25
275d1ae818d103bd1b99dce93d3e17ff
d625061f0e1e0a062eee230c1a1612e2
07f103f107e64a02df0e0c0ce3fccfeb
f3ccff01e8021de3fb2ffe0e0112c7e8
faffdbf38dfb38d91bfddb1bda0cde81
33bef2f2b41d090e10e7e813f5eb0d03
b3d21400182511faf105d30505ecc5db
17fdc6d1ef0f28c3ffd41613fef4f235
1b16f9b2ff0a24bcfd130813f0d527f6
240fdef82df19606ebf0dd4709d3f3f3
d42b11fd0b2802cdfbd8f5f50701d415
f9bdea00f506ec1c02af151d0909f024
ec17da090c1e1dd0f4d5fcf43ae4eefa
c211fae5f4d8f70613f0f01bd7d8f5e8
0a3721020b0bd127f909d111de05e5ed
04b2ebf511c7fd0225fb05f7c211fc19
1dc3eff4f4d7c41406e7c2f8d4b417b9
f40457fefe2e01e0102fea0fbb2c1633
153ceafce92014d6f518f0f904c700cf
f3debd27160316ece91b220e16c0d5cb
f31ef7e8fa1e2618f3d523ede2f8e2dc
30fcbfe0e5ff2ee4f6efd0d6f7b3c6e4
da44c310f83ed0fc30c51ab9f7daa5d4
06d9ddf2f0c8e6b151d9f5d1e91a00c8
18e10fe9f4d4ef22f2f3fce00aed1d15
26f8d5dec919e2201fe808f18702b6c7
eae2fdfa242fc81e1af61adc3fc21cdc
def9dc2f0eecd61115cd01f5e7a62ecc
06e10302d919e20716f21d2ed3f038f9
fa0c373a110cde07b91dea3dfef3d91a
edfce7ecf4ebf5edfcf0f227de17f5e9
10010226163ef3ed021615f2e9ff06b7
1219d6151a22d400101f26eef6ef24d9
26eafdd62398dc272205e2f617d20948
e508dd0510cd30faf7d5e612eb1a0efe
120dcbef01042012f2082de6e9090208
f6d63a2dedf6d103fd1f1701fd30d8f9
fac41ebf070afbafe21bf62e0b11ff19
d8ee1010360e051e0e1afa08f2f9d4d3
c931fc36ec1528fffe2bf2032bcacad2
2bf1f5071f192d28e2fd03eae00afcc5
a8d4cbd288e0052ef0eede09f8fd11d5
32fff101130dd012f808f40e23d7efaf
c50effd4ccf9e5fcd6e1e60b30ebdfdc
e403e6570ecd280df919fb1018f40f19
0d292f17e0f6d13bfbe21d1bc61a0611
04f2fe3c0737bdf2f4c7e6d1ff0cf343
c3e2f5bff5231de2d4ea1efd28e98124
32f1232b38f4ee0edfc7f11907110604
04fcf5e1f517f715f3fb00ea12d7ffd9
e60e21ebe4cf1adbe1ee09f2df1328f3
ec1bfecd0bf3edf008ff06caf20c0efe
f7e9f5faedbd171d121a04f53c1bf82e
0df7f9040d05e2f11d1ce325fe130b32
f61f1bf51102fa14160913f8db29fcf1
e1fc251f060fd630e11211f5dc010efe
ea101e13112df1120c1eeb23f9f61e02
22ee021809d7fbf9fcf102fcec19cfff
1e16e915ee00db0c0ce9c8102508bfe8
15f61d0f15d7f01712070f11f3f5e2dd
29181aef080807ed02e9e2f4bbe5c40e
030e0a0201e40b37fb04100ede3ff4e8
f1f3fc05f2e5f606e521e9f003fb00cd
15f224f70903ef09e2c117070315d6ee
06eb08fbf725b4ebf810260beba2dff9
04094b10e61c03e01ce40618eaf74323
090d13e6f8050408f210e0fa29e5190e
00f0c227ddf8f6fdea0214fe110e1a12
06f71d1e0a0ce2eef8d70b1e1a0ffeca
ec300de7f9f5fdf90e0dee080d1af8fb
32e0e8f0fde9e6111bf403051b16f7dd
f90c1efbfe04ef150c1ad1f403f7ea11
1d0328061af2f9e7faf0f80b32fb07d3
0d1203eb0a1be9f8dbe50e11b5050817
f3270ac5f103102ffcfcf32504ecdffa
0a070fd6d1fb04db27e2e4cde1d0fcfe
40cdcc0ac1f800f5f938fb08b7eee8c0
0a07f8a6edff03d4e21404ece0b7183c
050b05e112f2fbcdfbcdedfabffdf708
f1f0f0be06f4fee70c06e8050d0d3c31
13e306c9eae70b81e2d20efafffc2505
c2f7e542194703f20b0f19f2eee7c0ec
0912220e2d02eaee1bddfdd0ebe9f4e8
31140c1e1cf5f501fb0c0cdde00425eb
f2270f17171def12ede4f3eef6dc1fd7
15cc26ddb703faf0eb19dff70effeef4
c429f82bfe0712f406dec908d4ff1932
0fd5f4f126ec010d0419f0f4d8f91cfa
f015f3dcfae90701dc01ffeb41e2ce07
f5e1fbd1d8d0d7020500d6e6fa0ab506
fc100ff12429f8f80d07fd1bdc133106
1ff72dfdf4e4dceaede61c01f20ce9de
11f8d724ea13e516101404180202210a
0114ed0aeefa1119d404d7d0f14d33cf
09e91a19eb09f8cafdd6f8f2ecf8ecf4
0f1225e6fce1f41904f7e7fe0defeb00
e6fc11e60ef5f41df9110b08facdfb25
f405cbd9d6eedeaa11fcff40e804ae02
fe1c0e152cc6fb05e309c2fdfb271ef9
03fefae5fce7f1fddf20f10cfaec011d
03f850f3eacefffd300642e927291af6
ebdf04f6c1ec11ffe704ab0a2c03fb04
0710ed13d200e8d4e528e7041ff6072d
e2f515fe17f0e1eded0af805ec1ef100
0b0e1a09031b26d10420fcd3020a0bf6
ee81e10208fd12eae1dc171beef2bdbc
06321806d9ebf6c9171fe22b280af726
f5fdd7ec0bedfdfdeaec0b0ff0f5101c
21d722fcba3104ec15ec011de22a24db
c931e01b06090910ff03d01d94d7c814
e4df06eff1f4dc14e40df80bd9da0ced
eff7dcd6e713f5172415141d1708eaf9
190dcadaf0f21b11fa1f16e9320dc616
38d81528e31fcd240c160d2117260ed9
d5fbf7bdf6f5d5f9de0b1fe9f1db0fd7
b5eeef1cf004eb1d07f5060ef6ec11de
28fa0528e302eaefdcfed8f01dd6e512
f11314e5cdd6f81edd2af9183918d7f5
9ad3c3feeb1f091610bfcaf4f3f9e8ff
e80ae5da2dcef10feac6d80526eded01
e6fb18d3e60604d52de3fbe149030de0
d6fccc81e807fff3baf6d93eed30dd11
01f400fcf03905e015e103031adc06e8
2bfa0dfbe01be9fced1326ede60110fe
e43113b4dbfb31e70402f4ebf9e916b6
fe01373303e2e521cc23ccbddff20c2d
f4fbb70b1f06d7e3e50dfd1ff1ce1813
1a259a1a0c21e8f908fbff041ffee6ec
1fffdd18d116edec0e0914c720f53610
1ae85717e3f25cfb09b20b11a9dee212
07150d01021ba107ff04cd31fd210c13
262b17f803f5100510102d04212adf25
fcfceaf749e5f003e8c528e918871c16
0d1fd718f15ede371c29c41a31a3fac6
16bff507ffd6c9f0cbf501f1b1e30bf9
bdefc110fd0bc81af01efa0cf2d0f50e
04f706ff204cdc170b0229f9511ef018
28d40efd163113e802fd00befa2f32fa
23d60d4c25290fc606a9de0e1ad60a45
3bdbfe07d1fd0c04c81a01aef023e521
2c48360711dd0104df182eb518ff35e3
0afe3aed07e3350d03de03bbfdff04ca
db181d25eabaee15ee05f5f32a15fadf
fbeb0232e2142eecde0ef44c06120c34
f20de3f821de09201519e2c2ddd70b03
1d040f0109fd361823e8f1f6f3000804
e5cbe040f7c7da04f10e02e21f16d301
c6d82f02e8ca07d4f41306ba03c506ba
3701190d0fe140b8c6cefac9f2e3d5ce
0699d8ecdeb0f40e1927db15f1daff0d
171e001a9eff030fa62bfdfafe071a11
f6aaabdf0409a51c26eb22f1f9c7c7be
eddb05350eac371aa20de8eb4a0820e5
f742ee17290d2f110d22fd15ce22fac8
df41e71d0f172dd6e015fc241222e11f
f7daf909f52525d000bbcdfee1f10b2e
00a6f63bcf1e0ac9ffd7eadfcf380fc1
ef04dec714f709c606f6d7ed0efaf7fb
c23800f7f011ddf6fddc12f900de1fea
fcfc1bb7e00b29f30efec7f6f83bb1ff
d6ee40060b0e02161123cc13f51ef41f
f41cf912f411161512e7fdc9fd2d23f4
19ead9cef629b311e322d79cede8e6e6
cfcecbfc1211d8ec08119412e5e0e7f0
e1fdf2fb08fb562d01eab8f5f7085422
e9060423cbe8e5f0f3f415f7f81124f8
f223ccd3cd01f50de3f1f0010123f4c6
d3e4dec62cf9fff024e8f7e902fae3ff
17d9dd042a381612da2219f11031c403
ea36e7fae61207fbe8420b4eb901ea3a
151ef3391a0bef3217daf7fa18f4f3d2
fcff3be8d12bf51c12e1ff1bd9eff213
dbff39d18705d7d1db0796b94feafb1c
ad0115f8061aeef9f1230b2ce1f3f22a
81f1f1de2a2000010d0eead7f0eadc22
ec22ed1be5fce117dbd0fd0d12f31021
3928fff1dc290ad6ffe8f10408c72831
ea1d0dbe0511fdf7f902f0f70fe81204
f80807c107f21f19e5e1ded9eb06fc09
dff92ebbf80bfb121fecf603fcfeec00
2a0d2e18d409250815d4f1ae03eae1ee
05f10bed15ecedffbd0c08f5e3dd08da
3302ee0bdccb060bc9ed0df6f1f30011
23b8ecfe341803b9e4e6eaedcbe61216
1421003513461626d3f6cf0c14ff3428
0b14f421cefbf2010513ff0ad5020f11
1a131df2ecf6fee712eff3020402e410
21ffd1be08d717e7e619d4f601e6f005
eafc02eacdf8e8fe252d193201ff1018
073b1be8f7fafd1201df1f0f1102f813
e7f009f7111b0512fa2ce6eb090cdc19
f5032fcf031b280dce0fc4e0ed210c17
ed08e3ef29e1bdeeeafc1af6e4f5cef5
05f2f71805f0ef0a032f020be72404e9
f3dd03f9300cf81b2718ca0aee0a0be2
06a4ef0e1207dfedd8ed0d0d17ef14f9
f2fb81f1ce2400c7ecf3df0413e50c16
f61df90d201003ff0cd70d03f5e7e1f8
0826f90306f31411efe417f8ccf723f0
f30bbbfdd2ae04120af5021316e600f8
f6f616ad1d0b29ffd617eaf63126fe12
edebf1eef4e0fd03c506ff130b0124f2
17d30e13d7e6d0ede8ff08f9afffefca
da03dbf5d1f9c9f7cfdcf60f0c11e4ec
ee511913cae8fc0921c7d935182a02f8
fffef6fb00eef2fadae01eea2b011af8
0937ddc9faf1e50de1d920fff50603bc
07fcd2faff17f20ad5f208f0f005cdc9
f026ec0c19fd15d9d8f21113d2f00707
be21fbfc18d3bbf0e505e6d0cbf91a2b
9eb81618070af8c60d02fcc4f5fde5d0
18e442b4e911df1817efe6f2f20d35e7
ef14f0f8d6d618f20dda2c02e6240720
b22013072e2ad0d5fe39f02238e9122a
f0d62af0d7e21422f40d0403dedb0315
f0eec6ddb1fb001207e7eee9dc0108d4
00d602b5d4d101f5f60218f12b08d9fb
db06f612fc09c5ddf20981f6d812cd1e
150900cc00ed1cd5f329010715c10701
e0203204e7d9f50d12b00c2617170754
f603caea05eff4190f05ff172e12eefc
d302f708162fd5c62c2b0de1ee18d1ea
fff82e1122c335d9cbf82bfe05e107f5
e8ffe217ed0d36f1ee151b06011a10f6
c9d7c8f40cf9f522c6e8fcc3fedde315
050af82606e4150f0f04ecf5f2fcf0ef
f6f3d1d801240b0e00fde3cec405f921
2421271af8fe033c12c9c40e0821f0fe
dbd8102bec211f0910e5be8ae0e11ddb
f947dfe3f5d7d7e00c02e10e041c14fa
152129dbead208fb03c7ff06f018f907
dfeac9dbc705f213e41f0fe304201103
05fad25ce2f5eaf0beef0d05f0aaf00a
b6282e370fd30ef3def8d8120fc41333
27dccd251209f8effc01111326080236
1d8d08fbd41219f224e6b9f0ef06ea3e
2a0deae2f6f2593e1fea1ad6eefb37e5
ea16080ed1a9afccded8c32ae800cdd5
02f62e26ef2ae72123f1f80bfe0cfd1a
d6072d0204d11ee6f0fc0722eeddf62e
d7d3abf5d6ffe958e2ecd8f325f00203
2ef3f52316162012011940fbf0efddcd
0bfc07000e3f11080ebe02edfedc1bff
daed0818fe26f0effe23ece906fffa13
070cffba01cd11ded5f1161adff111c8
bde2feb50825ffcb160be3f50df20705
2af0f910f40be3f1e820f10c1bd9ecd4
f002050ffefef907d6feb70be7f315f6
15f610ee19eefa1cd1f50f18dd07f916
011c00d6fdf2ebfd07f92103d9edf0f6
11f6fbfef310cb16f9f62111e9fb07f7
d8f91e0e24eb2cf9ccf2d2f919d32806
fb0a15fa2c231e04eaddf9fafbfefbd3
08fbf52a00ebf7ef24d304040bfede36
e90aef1b02230bece4021a0ee71911da
f711e5f3d90c130415e00b03e60305b8
fbf037e8f50fdc00f325e0d5ff110715
fddfff02efe639eeef0df7dee3d9f41e
ee0103e9d006fc1600030f1cc8f702ff
c70a01ebbce217fdef16d62123ebd9f7
f2d7f6c927ce0ef9fdfe41f51226dfe3
12142e2afc00fc03e7fbf2fa04fcde0c
fefa1a06ffdc3dedff12cf10e000f9e0
ef02100df4e9eb0afde2ed00002d13ba
f4fcf822fdeafafd00c601fce4060ded
81f618bfe7101d0bf50405e00213f01a
d105f704f1d8f9dce51e04cbf10e0ee5
db161dc40ff524f80d2719cf0c08ff29
eaf9f61620d63007c6ecdcc81909e72e
0bd32ce0e0e1032907f1e8fbfde7bd10
fefae3f407e3f6f9f7dee3cce309f4f1
081af2250724dd0cf90cd806e2de132c
14ece9dc0bfb0515f2fa15f8f317e6fc
ccbe0151fdd629eff25806fae1e1d03a
eadcfae317ce88fadac4ecb61adf49d7
ba2bccc7f7f8e9270afa121ade1b5a00
da1209cb14caf8d5e82c3b9315fec006
eb2b013907f121fdf9da260ddf341d0c
a8e33b18251d11f6e0ebfed93f081c20
0033f5b8cd2d02d104f1160c3f2002ed
3c3621cac0a2caef4ffdb6151d1b1de1
07583b02d8bfe71229f9c80df6d6f2f6
fbd3fccabcdbbaf8d2e79fe33b0cf828
02e3d1fef9172b12ed2c23d8c4492dda
eae8fc22030fede1021cb4e91cfff11e
4d0c04e3c51737d9f4f5f4120001ef2b
460b09e620fcd01d2333d9e5cf0413bb
ea0c0ef4261bd018f7b135a405e24119
21d83e3accc7f916ff091cf8f70f3627
e9f404e12d1ee3e50ece03051ce3032d
07ede3f52d10f9da15e6171cdef7fa16
0fd81539d51bc63dcbe8dd18ffd705ee
3ae00edcfa921307a2fce61f01d8ec14
2a2626db04ede8f119c51202e9e118ee
bd01ad1005a80ad3dfc7f50206f2f0d5
ed270dd70bfbf51b1ffa349feabffc06
4a140bfad03cb2f523ebbfe7cef7e903
35cafdfbf31bfa21f103eafed8ea0048
171a312e1ace0a2a0813f9bef30acee5
06c60afcfd2bed6b2314fdee0419fc09
a7ea1c17c327070413500515de0cfbe2
0d3043ffdbf110250eee38b735e4574e
ed4df233fbcfdb98d0d905181311bc1f
81523109efd9f604adcfd63516d6d50e
1dc31de8defe35fbb8f2059e0ce5ede2
bdef15faff07f710fa02e3f6e61be80c
06f9bbe80d1c0e0c0011fdfe26e10ceb
ede3ee0e08e80e35f0e70ff6debe201a
d4d4e91a151ef5eaf6140204e035f00a
03811c0efe3af3030720ee1302d7caf5
f6fc3005ebf2f108fa10e9f6e21e1ada
2424ff0b1d011c0adff3ff1602181700
d505e01b14ea08fd02032003d504d6fd
fd10e9cbedf6ea0b05d809e520080ac4
ff060001fe0209001aeef6f411d8020c
1223d1f1bff801f80d08f2000a211700
fc061f06dbe91210ebd1f0c711fd110f
d7fbd0f9e6f310f2d8ee0000ffbafaf2
0b181ec6281e27ffe0ee0019f218fbf0
00040bf81710f4cfe81c1000edd8ddda
1003e4fc0004fa0bec07fc0c0adbc225
e7ea370ef928eaccf006ff271cd721fd
e3040228010dce0f0d0cebf40004f0f1
07eff515f2f095ff14000928f80015f2
2d153d150cf3e61313f7d9f121e50005
efb6e822eefdf605efe2f7f805c0f606
26f01106ec14f62ce7f6fc06fef2ec10
0905e3fccb14fcf71b0d09e70bf9180e
23e1151121d80df1f5e3f50920f310cd
11d61414f515091bfbdd08fade16f6f9
05d61dec3509ec21ea02c4eb26030711
fad1cf010cdbe707e6e90be21306fdec
f605201215e20cec00191a024afbf803
fbe3ee29f5fceed6e720df1ddae7dbe8
01f11a241b0f03fe05de140edffaf30e
e6dd0b10ff14fc32f2f4f9bedc050931
030b13d4ed070d08000707150608f7fa
eab505f1db03f41f12f6da15e9f3391b
1ceef806ecfb161805e601ebfddbf9f5
feee0315d00b0d0efff112e704e5141a
06e9fe0c04fd03e5f9e21a02f216fe16
1205f2261ff9de190de2071fcbfa0205
14c70027e0e2fbe31f2009150f1e1704
ec0c0b1ff3f30d15e208f90f1ff1fcd5
2718d1fcd5d5f02420fbf20912ff1202
d1e30aeaf91bfcb6fef004140dda1202
e9d1060c02f8f5eb0ce010fef607dd03
e9cbe0dff72727f7ded7f329f1eff414
3af2f8f5f6021a0f11e021f22e47f502
23f333fff7f40721c60321bf12fafc02
f9fc32f3eefbf109feed0209db1c3fea
05ced70ffb0715f9f911f9e5d5cf0a00
f629fc0d0b04d81d2ed72a11ecd92504
f013ef091a0deffb0d1d12de1e17e924
fd0cfad6ece028071c0d04f7dad4eec7
1900db01faf1b208f2e9ef041103f509
08370005dbf7fa1606f83a08e6b5332f
0a34cdd913feefefe2cb30e5df05f50c
fff91c18cbe8efed11e4ed07000305dd
e0c2f9d6211bf9fcf8faf204efd1d016
f8ecfb0de511f9f4ed210701f827d3f1
bfec08c6f2e9f01efdee08160d0c0116
f01206fdfa16430fec0df021f817f6d6
cad9ee2c02fcf8f80ffb02f703d20021
81e19de9c318c7fbd9defc131911fb14
0117e501d907200bf1022aebdefa2421
30e401e910ebe409e503f7f5e9f1de1c
f210effefa00dc00fb0cf3001a16e9f3
f503fee7e80a0d0dece20fe1f8fde692
ccfbff2808f30df214bb05da1fd7e3c6
e7f91117e7f105f12beaf8fee60ed904
bbf1e3f410eff6f2f9d831d138f609f0
eaf214112e9320e9ce0706ecf6e810fc
10a6dcc7011c050a16f9f107f5d81002
460b0c11e0d6d6f0ec04f8f416e4f220
f6fedf12d3180c0f1118e107fee9e703
e50e1111d5ebe2efed04ed0b02122310
e7130aeef3c2e6071a0e18d0001fc4fa
f40cccf0efcbccf600f7b10902ddfb23
250007fa112818001af8de1e002a30d5
1c19f5190c1fd600f0110fe903f9f80e
1c02f1001ed6d70e1505c7fa0c1e0d35
f41d0df2ed9d37dbd1fdd2e0041acef7
e6f5d0e6fce8ecf1f421fbf91ae6bc2e
ef0e2ed6d218c129dec302fa06fa12e3
ed1711ecf1a00ef5f709d9d70be82af9
e82706d7f30f00c8fc0a0ed3a0231951
01fc07e3eddc00dbd5f8cc1305fa0d02
030c0015ede5c8ede9e51813e7e0db0d
e4333506f22206c2d211f50b2309070d
1d0f0be0f6ea09eeef161a0004fbed00
07b3fffcf1dcddf0dcff052efd09f9ec
19ffe61df637abf50deb02de11efebe6
e7cf05198811f91109f605f8f8e82ade
b819150fed39001e0fe50bea14e421f1
39faed18ec1db02117f1eff5da1e1400
35380bfa09ede4812a002d01f412179c
d3ff21e813e2c9ef04ea24f7eb1c2915
e61ddb0308e0f31ddaccebf5f4f0edca
fbc103e311e907e8dc17f60afa050bb7
1202f61e090acec8fde1f021f5bf050c
fdeaf1f6d1fa084428f5fe360de2f6d1
3d0de42f1826cb1114d514e3101a00e8
db292d9619e6f3f217e8e7e633030512
f70919bbf2e3ec81e419fecd093c2bf0
09d7e6261a19ef2d170a08268311bd17
fcd0091d0329cdede8f5bcdfcec850fd
3721c5382503e118f22210cba8e907b9
ccd40f9c06f3f4ea24f92000d6ce26d3
1e143c27cb070217f0ebb429dbdbd314
e8f207fc0920101dddeb03e600311df2
ee48ded72d0d29db03fad0d917130efe
07daace3f5f60ffc52e23a24dcbcd9c6
22f9e0f1b62396e4d606aff3340cfdba
02c6ffcc15f93b0feaf51b1744dfd90d
edef12e923e93c18f4e53902e40403de
bae308015e2de51404f9e84828c425f9
18f1ecee13de20e2f2250c0af406f80a
01f2af1eedf1261ae510e546ce141d3c
2ac9221a2200c5edf936f8b721bc10d0
0df31ae4bf153adcd903fb0f171cd221
e7b4ed1031f410f5dc2b09e5ebfef1f8
e2de05ee2cd4e9211a19ee1827f2e6e0
ad2aee3cf301e4112cfd1ecef110d0f8
2beffd0a2f07faef20f621dda2cd230b
d9df1fffee2728d80c0d1bb5cb0fc8e5
edefbe07d5fedc13ce0803c7d8044013
3a320d3e2dfaf2d90aef17f220d11706
1bfc250adddf1b031dee11f728e6290a
29f72d13fd0e09f7ea042dd4ff002ee8
f2f43c282feefae8f014ee02f50d17fd
f8f2280be9e0ee390de221011ff723fa
f6f7f04d02fc24cedd28f9fae9cb10d4
fb0419cdfdfbf8e5c1cf02dffc130ff1
0ffe160b091ef321f316e7040639cb10
090316fe1703f31814ebd9fe0ef71a03
14190622fcebf6e1c8eff514d701d6da
1332fe021526e2fce310cbfbc6ff1b02
f2020afa030efe2ceb09f618b0efe0f7
12dffbfb1be6f405d10c17e3cb01fae3
e51c0200f4fcfdf60fdcd91ed5ddf7eb
1efec0d4fdf7eef2ff0afd01fd12c9ce
f6332889e8f9ffe4dd0802f81ef5f8f5
fb080dec1403fcf7e6d2000029f6ecd2
00cd1df300ef071ce0ee00e605ede8e6
f5ff81f61d0c19fc01db05f71afc0505
f2f806fd17d70103dcfbfbe9e3f42de5
14f7c93315d909eb13f1ee192500392a
cfca2b24e5eddf05f40af0f304fcd111
2dfd21e41ff3fbfcf3c0f5fe01eece26
0c121620e307051df8da0a1dd4071937
fced0be3ecd720f609d916e60dec2b00
fccbf328072011f0f003f8de2e20df0d
e58bfe0916ecfe091dee09de2e0b0902
1bf6b8f42abfeae92901f61222f50914
170df7ebe1e4f604de09ea280dca1d06
3bb5fae3fbea02181500d4f7fdecf536
0414e8eadd452b00d808d1d7fce1f5f3
0c07f710f3180fba100c04ca091f0efb
dc16de1a0efafcfeeb01fa19ddd8d8fc
c7efece5e61d0ff5c6f6fec91304d90e
d927f8eb1e17f913cff8dff2b2062efe
f6ed0009fb12e8fcdffafad9ead5f80b
ed20fff319fc0321f4cff914f8172206
f41503e72010fc0c181ef8040ff20bf1
49c5d7be0a12c9d9eedee60e13f6073c
c8bdd5e915f7f0ebf10ffbf7fa01131c
e3f1e1fbf6de1c08f1fdec09bfedcb21
110915f10520f7d12e05bb2acacbf9f1
28d006fffce41e22f316d7ea1de6e0bc
210adbe1e3dad60bf7e7f900040207f3
2dffeeeb2b0e07e2bdfbf913201be239
de3b34fce20625fdfdf630c22b21811f
d408c7a2d3dae5ccf1e3291831001113
4605c1e01dcd19d5c3fce0eca9f318c1
f6dab91cdb03dc21dce2c12eff02d201
a21a4e0e02353af2da120eede58fdc9a
f03a39df05e9df3037e6f6e1bab5fe2c
e2c6d42a211e180f020cdcf6f8b70ae5
09e106e400e6230dd72ce27408015e39
d6f5cde3fe1b56cc03c2fc161117cdf1
d7ebc21429c2ddf7fb2602091300220d
e21d002e07fdc5de19af25e3da091bd9
2dfde922ec081808aadd17defaeb06f8
dbcaebf4ea04fafefdd8e3c60cfee70d
c602ee0e0bf120fb0f1745f0f934e7f6
dde514efddfe171416f9eef0f313f21f
4340120420070f23c0dbfcede7c728e8
55f3421d14270e1e1d3000c8a022ddcb
00e9c0fe50b5c843d91615082ed02c15
38d2ea03ed11ebf2cf182c2b26ab1dd6
c6c6b25ff107fc49ff31e5c6f4dbf62d
d4ec0e2e2b014ef7de08debbeae5af09
990e5de7f6c90302b71d0939f0dc4314
15f4f90224eaee0c01fff433053506fa
f0ff24f0f6d5e712001103fc092935f5
301e1b0c0cf20cbf02f2e9001df81f0d
ec1aefcaf80f3216f1ee110d51420bf5
11131c1efaded7060506eb0ee21a41f4
29d8eefe22f707dafca7f117d8e1eefb
430bcfbb15230107ee21dcf7d29334c7
f3cafec7204223f8e8151520fcd0fdef
122006191809e71ff9e6da08e32be822
10f9f6e4d940062e06f0ee14e00b1c1e
f00843e8dde4f8d700ec16f421c8f61d
ec3427f3152014d1a5ece7f3a808d9d8
f5f100d8d3f8e8eae6e2fef10e1ffeba
3a2e25f40b2ffa02ff010dfaedf7f400
18f9c4f5f50bfaf30afcfa2b32d92e01
361df5131edcf3eae3f8dd1826ddfa1d
1724db1411e4feec16e50b02fa450fb1
04dee89a02e2cd1a1706fe3bed10fcf8
db2534f2091217efe6e01f2824254908
e3e34306da2a1816f3eccee3edc40e1d
e7ede8c4122304e508fc29fac4f131af
0cefca11100f001bec3f27ff25f1def3
f3f7234b04ef13ebe5d737f10ddc3a0a
3a13f5e9ffc71fbd21e4f8b90af8edbe
e9b306f223b8eb0de916febae5e408a3
e81202f5f80bf013e225eee5010dfe0e
f7ddf909e7c6f4cff0ea06f50a2ef81b
e9f84114d4f529e8110312e8c40f39f6
df8cffe1a6fad001ec0c2218210b38d4
24e0f3121ef2f51e39fb21d9ff110d01
f7e708eed1faef1e17fd21d1f1c41518
fd4c372405e22515261b0834fe100304
eed9f3e8ee05cd2df720cccf2a2981ec
d21bd33f020c05eaedf3f82cf822e91d
d5b207f515ce22ffeec01e0113f80511
18000bd52917f8e128111d0827130b21
f114021527fc1d19f1e934feefd8dd17
96c5edcce31be1f3ca13474bf997defd
2689e80800fbf5fee81a2f0aa1f8e4cc
fad7200b2721be0be8c834eddddf120f
00f50b0ffc0dfd31e3220a0d17281505
e3f7aff9501ac0ea1635cadc0506fc07
45f3dafd06cd27d43af925eea6f019f6
c61c09c61dee06f3e42507ef03fd13e1
37c0e74009f1f81308c6f6e200221924
cf06400123fcf5df1304ee09f809f50a
dafff7c561ff33fecef61affe519f91c
fde6040cf611ede80ac9ed0af25afffb
0321ff2a2e1605fefbdedbf5081be6fa
1cf2f9cf13f1cc18a6f4da111ba2f834
62090232f9c2f9fcf7f7d6090a22ecde
8c812123d511321007f20db821dbf2fd
2331e0d925f5cb05e2e0c204ff0d022c
0ada053b05d21c071b2ef6f607e0002e
2e02eb21210f34104fe3eae60408190c
13d6add7fd0fec15db08d7c8edfdff0b
eaebf2ded54beefce1d021100f26f0fa
1dd9e2dad52d10fba0fc1ce4e207f5fb
c7e5e81afffe05080d0915f5e60e2512
f7fc2c0df8e3d31be3ec0ed0d01d1bc9
212e874bf3f01c08d2ee08ced705fe27
eabdaf2cc111f617eef7c7d3b140e8cd
31f51fe2b615ead5b613f6edf92e323a
22f1cc6bfbf9df31e909ededf0e5e8af
33f23316fa20050ad823d9cd2230fe30
b50bc41eeee7dcf9d2fb090f12e52d1d
d5e62702071c0fc3c2f10c10f2f2e5ea
07090e16150a2c21ef27383dffd60930
d00afcf72bc60ee7cf290f11ffccfa0f
08eef7d9ee0ffff51edde94103f41dfa
1d00e8d8a807edebf7c03a05cb34ef2e
c92f0304f229d80ec70ef5ede0e15601
b81cf8e80319ed0ae4d81713ecba080a
0f39f2202b18251fdcd6180bfbf91cfe
50cdcdefdb31eeceaa2fee1032ffdf01
0ad1d5f7f6ef25fbf9120e0061d2e719
f90dc3cf28e3e803f607011824cafff2
08ed0aabf216ff27d0220116070d2c3b
2bcabce3d3200e0b02fc3fec042111fa
f3fcfff5e6eb11fefea92b041806e71a
07ebf5ed273521b4fded03ebf50a112a
e21bd8090f10e5d8f12adf1e0f18cfc3
e0c111e2d1e4f7e5f0fc2b25f6e3fb28
40f715075f11e008f9daf00fc8d2e2fe
1cda06edf5ec1a281e2043abd403cdfb
44d7fe1f08e2e8d701fbe2e3fff1a20d
18da9c1d12f3e100fdfc95cc0bf1f309
19b3f9f1042af213e751071fee0eeaf9
e9270fc3f5f407efffbe19ece703dbe7
2502f81922fbc446fb0fd603f703e3eb
2c14edf1c0f2f6d1fe37caf12e00dbe7
02e1f347f0dae2080fff0cdb81cef300
0fe6ee2bfaef0e01ef10ddb4fbbed7d6
102e1ae5f4031dfd38d40fd81b19ede4
1f00d011ee2b00fbc12feabc1635f705
0c04cff6b81b192ff6db06dde3be1a07
aafef604fcfec41a1af4d9ed0aea192f
fef0fae32af1de1cfd001214ed050d11
cdf5e4c9e8e7ea21d23ccfd5e41a1025
2c0b1f24d327e903b00b50eddefbc804
ecceff0e0c2108f7fe19e512f30d3ade
0dff2f0621f8ffc807bb24c51e27fed4
f2f82d1105fef140eb1b04200ca80edf
04220f00bdadefc1f90cd0fff9eaeafd
ef15232cf5eb2730b909f71f07160af4
470620f8f61c090fea10fbf9deff20f7
5ce82cfd1e0fbc07eb04b4041c2e14ef
fbd800c7f1fb0da4f805ebf3f108ea17
d133cb00c130f439ebbcfe091211ed10
e9fafdc7fcef01122a0b0c0ef21f07df
dc1106071ee3e20c17f0d3f2dce13135
0a2694093f120c05edee17ef14f3c238
cee8082b02fb07e8d6171fd6e5772df3
140da014cf19d952e135271a191bf1f9
fbd9f8c91cf3b7fbf7e0fd05e0081805
34f5ff1d021d38c409c7fec2972625d3
f3ccd7ffed0b20f5f3dd26aaf80b310b
fd18544f0d2905eb19f0e3e60b09f0f0
16168dfc30bef822fa0b700bf61f041b
26daddc3293cffe200ec03003230b4fb
12eef226eabc04f9f71d1311f88103f6
292f26fcf7e80eecc2fc00f5cd1c1008
0fe6ef4011181ef4f6fcd1e630e3e006
df600cc1fa3330ed27d63617d03db4ef
dbb01211100c2008f4a6f5f6ce22fb05
15f2d54a4301b45de2f21ee23ac2f009
08fc2b0bea2219edd9be20c9d2020d06
c6000e1fe0fc1313e71df2ca3a1b15cd
31e8c9300304b1291309a6b411fa080d
1d1be933ccf7fbf4f9e908010705f410
d0e4d0de1abdf526f79d28040fed16cf
e821ebd8f5e4e8f2b7d808fb0f2007d5
d10efccf09010a21eefae8eceefcfb12
0d28eda0eff2ed1efe193d1223c909ce
412f0919f8fe071432d6f8f6f637182b
06ede3f30c0dc9f2190037d512e00907
f840e7e542fd0212091712ea1b01ce11
fbce16181b220a25f8f30e24f6fdedf4
1cda0fd012fccae222ffeff40bf538dd
10c5182113fd10faf5f9ed07e5ebec0b
28f2e805ea09fad610defcef1e020206
e00b05090a0f10140efcfbf10504f30e
db1f18f1fef5f6e8d9041931e3091fe8
db02eb1a2609ff0711f9b909130a1323
05121007063529ffe838f802f207f108
ff0ede12e91409d5efcafb0ad7f6fbf4
2e2f2016e4d7f60dcdecf031ea073309
f0ebfbea24f4afe0f7d623059f13eb18
e0f3fe1807dad520f8fb04028ffaf2dc
bae3e40f08e1dbf61411dbd38112dc0e
03e7fa0ed00bf2f107f8e5fdf50c1203
dcffe6d53bd0f817e30d0d02fe99f71c
30f1d5e2f80cebffe41b1914e81ce407
0c0fcbea02e2c9ec0623f0efe70dcae3
fce3ddf214fcd614faf3e614fd39ebf9
15fbfeeefbffb9030ad1e9fcd602cf17
012df71635e8dbfcd8f7000f2f2ae9fe
fb0b1822f9fd0005f3f6e61601102706
0cf20838f823e214fdf812e4caee071d
4fffccefc3121eedc4ace106000cc8cb
c12113eee700f7f9fd12e21df502e70c
2bf52e20060508f3ebf81313f0120910
e7c11028fb14e037ee23e7000109f109
cd16fa111dfa08f92fe4dff7be0218f9
e6080412f306991a05ff00e213160ad5
15f654facc25fc010cfc05b924e4e2cd
fc000515f2374cd846dfe6040a010cc9
09e3242927d4f704c50941fb62ece214
e8da252bf4f6f9d8a4f30b161c2ca800
4a0cf3e3d8f00902f3d8eef1f121db21
d785a6df171f1a1d1e1d1c31f0ad1e02
d52c06321821fa18eaf307480de2e4e8
f72524060028f820dee3f60818f404ad
0f1df4dccfc8e6090300120316f4b0fe
40fdaf02e63d0935dbf606d003be15ce
f30906e4ebf7080527fedcf70fca193b
0ac716e9f9edded8caff2001d7e51df9
ccf1e31006dd05f02cc022e70af8ef3b
14f41a2b1b13ca061819d8e4e706d62e
09dc16f7ed19fb1009fc33cbf1f2c612
be0b128fde06093bda34f3e60215e706
e605dafc0a19260cde07b6f1dce5bcdd
ea0b810cfdb703e027a60e201132e1fa
1628ff43f3d9fe2403c9abe2d80d17f1
d2f5d50a2023e3fbfc13de1b98e9cbe9
22ba031017001713eabc1ec0fdf71e28
e30d0d690befffdb030b07c0e4ea0af5
fa02cdbdfed5b40bd41721f4ffd5b20f
04eb13d41aefe3f1fe110bdc030d1ec4
2e2a11f9f5ff1a09db0a00211008161a
f30ffa542bed030fdb0028a15ced05f2
273ae8cd3cfe20f5e1cd170908d0f712
2affdb1d0ddb1a1cdd13f51a11e5c405
42ef0c01c7f81c030a001ac8eb2cd109
bbf7e1d8b02a0def03fd0eff0615e4ed
1cf9d8d8e9f3efd5f20f09cedfe02d0e
0bf5010a08e2f018effbccf6bae4f7eb
fdd9f2dffb14f2dc000100e522eef9e6
0031e9d5be1f05c9100afce1fb201456
f8ff10080215def9b92f01c8ef1bff0a
f7061de1cdd5f3cd460415fe28e1caf3
faf2dbed1d0bf6d4e7e0fad112431611
02eae7d6ce0afb0ff90ad01c1bf6faf3
11551704f033f10c02f2ed040613d609
07f7df132f1d0000f2eae7e0fc0b0603
10cde23e59d4f9070feed823e8e210d7
f10f0fe5071421efd0dded15170b07d9
2f15e8aee105f9fe1e15cdfcfbff15e5
efecf3e6f3fcf613fb100b18f50102ef
cc0d0c12cf0d21e1fef1fa0d0a000a22
17d834ebd20eee1a2dfaf8e4e830ec0b
cd08e9162107e1fb1adad50ff8efdafa
b3f51f35e9e917f816e81217dfec0904
d4080af0e1e324190e16f017f4eb11d5
f2cce93cde11df04e9081efdc6ef0dc1
c0c9e70901ebfef3effbf902f810cd07
0f02bc2bfc33081c2b1ce9350623f0fe
1938062925e6e118deda090a24d3299c
c6d73ed83000df0b09e2e5e80ae6feee
b6172a19d5f9f0290a23fc0b3fc51ab3
00f718cb0f0bbef60f00edf21be9172b
f7feecd70ae98131bedbda3c0cd1011b
e817eccf170df51aa71c23eff115dbf4
ddfdd3e5d50b2c1ff3f1dd080fd0c8ff
02180b06e7e1ed00c2f4feffdd080af5
cde2f5f5cdc7d52ee6ef12f5f50a151b
1133e611271c0a0af91dc9a90fcab4cd
13bcf204ecce271fedd518060c12fb11
b4a4eb1d201611f6fdba14ccbaba1cfb
cfaadfea250beadafad0d5d9fae1c134
c0fcfdd61dc82edd1a2e1bc5e3e4e527
0a26d0fbf41ab8f709b4cd1ebbbb0027
f015e22e23b5e012f2cbbaed18bc11bb
e20ad3f409cfbde850d309ff0bbddaf1
0e0115df05b70a0aeffbd12ecea3f6e7
e89447ba162cf61ac90f0794cdcd170f
d8c18bd5d5d9b421d8c0cacebcf5d898
3915dce2ffb9fbe9ff0efcfaedfdf8b8
dee5fa001407b18b22a220e7b91503d1
02a0ddfdc608210decd7bb1acfc9d0e5
abc2c0bb9607c9e09eeddcf0f1199dc9
15d3e3bcb5fde5fe171f1fccc3f8cb11
badb22c8e9b521dee6d1e8f1ebe84b34
dec72c1e0017c2a51c2af4f3dad209f4
0ec6f8eaf1c92d81a4afd894fcab20c3
f7bac2d5e3dadefe0cf8d3e9d02e1cfa
c20d12d0c0de24c0b4ded7b1fcc2382a
04cb28090716cccedde7c5d2d304d01a
d2c904c4e2d0d2ffc5ce11f01d44b8a9
fbe7ca08f4f8b91ba9e9b8030a30f7e4
a7edcddf1ae1f09f07c5b58f27ccf8f3
e4f8c71518bf1cf5f1efd0e8301de40a
262900f61ab1d5d01daff28f06d29e4f
b60511df49f613ef030417170cd7d3b6
2f2cfedaddf0d601efd9fadab00d11b3
13cc0ef11e051ac61e35f9a9d9d4d8e5
d7dda901f1ac07dcd2eef7e3c68e0417
c9fce2fa2df6f7d410b496fdf721f91a
f3c6dac2ced99cf6c5cfdfe0f89ccea7
c421db1f16dcf212bee0f9e70eeff516
21e915eae8370219f411f9eac8fef7e3
1f0025f607211bf1f718d60304d50735
1affd9e2f9fce624c0050fc1b7fa1cbd
f8fee2220306fd35beedfde4b30206e3
fcf3fc0ae1ce2500c00dcf0201f6bd1c
e920301e1a13dee627eb1eda051214dd
1cfee8140ffdc2120dd7b92ff8ee06d6
24f742e9f4f9d70c0ab8e11606f40aed
f22929e61b08d6f11231f31407ff1002
f7d30bf802eec8fc05d803fe1d1ffc14
37dc0ecef2f8262c03b9d0f80aff4301
01e30e05e4e81e04cb04f44b0afc0535
12f2081a1ef52ae4f7fdf90cb302e9f2
ecc627e82ef638182af7eb0609e1e70e
1316f431f80fe30ecaf23f0a28e7dbd4
e30d2cdde0e4e5dc0dfa07d5f50714ef
0bf9cfee082735190c04de0faa022127
bff4bcc01b08fee4dc105305d0fb31fa
f0fcdb21110eec1eea0c262e160bc4f8
24f3f3e5c22beef9ee280a13ef39e817
e081e5f4f50e0c08c623ff25141ccc14
33ba2603e9110403f31b06e9d4f40efa
b7bff7e610d81d000fe3eb013eecefee
e2ec07efd1053aead5e6f307fc041bfc
e01a25f90d28ff02d929cf242e0f16cf
df162e11d7fa16ed8a0208e1eecbea20
07c0f62917e9ec1efbeff8f027e8f2f8
16f42a36ecd30be3f4c0c7fb239ddf45
2200fb101034fe27fdf809ece2dbe714
04c205220af60408e306e1f90a2c14de
f4e0d00ac5400d2304f9d4e5e286ef1d
addee52c1fe4f5812681ddf3fcdbdf08
0be3e21dc3e61402e90af102fe17f61e
f0e4e4b8f136c413070ecc210e1fdef1
2d0614b6eefa2846f2f820d321fe0d11
de1ffd5def19071deff1e905e14d1616
3bd8cc31e2e9d8fb029ceed42adb08f4
e0f2f6fffc2dfdccfef907f9ee18fbee
0940eac0ca2a04c8f5f70540ebeefae6
e5c12f94a5ff0b10a503e8f1969afaa0
08e1d256fc0c1f101f0d06182a0d1a17
fe0bfd22fd2a06020121011d0107ed24
f908d50217e62bf0fc15c8e6cbdefa22
2d9fe896e0442bcc1de4d94e05c1003a
0f1fe72a038b2cfb3011e4f607fcf8e5
2307c61ad1c2f808e70cf9cfe5cad1eb
e4b9ee1dc90be7e1e2dde1fbd7ff1309
f5e9b3b8f7e60d20d9eec9324499fde8
2aac160dec39fec9d50b11fac2131a26
0afcd2dedc21f88d04f8af2d1514c0f2
270ffa1414f128df0503040eefe91b1a
0c1adbcafcbdbe0cd71916e5b70615de
16dbf4e62f1fd4e5e3eae5dcd211f702
0cbcd709d7b1233b160612f4ffece3f9
f1eddbe60f11f90aff18e815f3f536c6
fbdfd1f4c0071318ae1dedd2e1ffd7f5
0da82d1d03d6e506e10416a5c80005e3
f4f04c28f712b6fffb21f9e1f1e91a06
0e25b2f9f8e81809e22209170711daf8
83917af9d4deb00109bdc5b72cccdcf2
31eb15dbf2c7e23b37f0041e3f25f0f7
b119faf50917c80716f9201b1c0e30f4
13dcec54fc06f6eb10110322fee4def5
14ddcf020a27361d1a0f090cdfb20a4f
2f2db00d3515ccebea1cf6e4c7080d2b
04f1fcf30f220cb9e80ed7c2e5c9d11c
133edaf20f161ff90ff8cf00f438be1c
d50f0934e2e2fc2c09230dc0cafb8134
0bc50d1efad31de717fef709f237dbf5
c9ff15384119df17b2f11dfed70b21ee
33d7f908ade207f6e1e6ef241becd709
131a190beff3d015f5f33100f12e08e0
c94fe2ee28dfd50b1fdde91ef9dbcb26
fb05aaedf01813dff4a9d5e0f39a02d2
220c1f2527e6e4e80ceeff106010b4d9
24c5e3bef20a0c2a140619451a36d7fc
02fd0da2f1182520caf6080eec14ba05
00bc0b06fbe5ce1d1c06f321dbca22eb
fff2c910e1d3fcbfe31fcdcb06e813ae
2032d1eae1c416cf00da1fb41a0be408
df2a25e7ac1afd260a0cfee822ff1e1b
0cee09efcef8221ef9eedf2de42b2efc
201fe13e20342113e01e3a19fdfe33c9
ecdbdd14f8d903bc0fd1d2fd0ed6f212
eae1edf7dedb2ac2f3f825d53dfafd19
dfdceb130610f701143defe801101822
0440f52fd8ffd9e92ae4e0c0351cd38d
e228eedbb3ebfb1003f822220517ccfa
eb2140e0c5c9c9d11cec16f40f13310e
0fbe2f01d306beee022b0cac1af700c6
07e32d0e0c290429f102ebd347d545f2
22140434111bfcd3f60cec040aa71b0e
fb05b3f5fb00e2fa29ceeeccf6d615fb
d5cedb0b1ae107fb45d8f512dfcef903
a2060b0e09032ad4f4ed16b7fecef16c
f51dd42c0701b304ccb2eec3d0e0180d
ca063c1b0b11c115ef0ef08af1480109
fd34114f00fbcdeb12dbd6d421f422f0
2001ee1f20fe01000037e2dae817e932
a42b02ccef0cf6f618fce50ce6101f19
e1def0d6161b0be20af805fb2aedf6f7
47b6051ac809113126e713f23d191906
c7e8f2ea1e17e6143821111dce101504
08e9fcc63af9082106ef3002bbfcebb8
1b241631f3cf1afbfbe1c004bafff2fa
01eb0b24ffcb0b1717f614ebf1e9eef8
f4fc23381a14edffcaf40f1bd717bae9
2df1d119e6e5e4ce212ffd022ef10b0f
0412fb08e118e11610fc14150af812fd
f9122109fe0210b90a121cff1033f8f8
0404d91feed8ddeade0106ebcbf2ebed
0d1f120c0c04fbb1d328ba2f102b32f8
da1855eb06fbfc12ca138125060f0de7
2000363114d60209ece2cfd0d0dfef06
13f5061cddf9c7eab1e897faf1250708
0ef413140cdce308fc02c8fd25420b03
eceafc0c35e2f9ff06d903e108df05ce
08f5e106d6e4e0d1cad30cf802d206e8
2c52e11205f7f80c0dedfbebf638fd01
e72618f9e123ff27ee06e0e41e18e11b
3dd4461a16c71615ec011efb040606f6
0af303f2f90f122a10ea02cf04cc1c2b
1c1f9e1df107dc3bfde4b708f5f9de4a
48bdf111eff0470e1b24e4e518cbe43f
dae408b9e99ef3f7f4c1cdd11b1fe408
ee16b71028e7e6e0370207f4ffe6faf9
270011bbe9e02513f5f8ff39f842e61e
d7f50fdfe32110120c01ec09f5e911e6
e10af4e2d41f1cf708e426ff0de0f40a
21180526f51ff98110fc11e0ceba0213
2020f901d4dd0f06080fdf070514c7da
b5e7dbfee530bef8c8071bac1de612f4
cbdd1b05efd7e81bddfb1012f3002df9
33ed1bee361426231c0b07be20fb01fa
41dcfc04140105dfedf21ed00206e325
ddfb17f004f1e0b1e4ea23d8e9edf42b
dbf32918190616f803dc0207fd13222f
1c04dc07ff0d200529f43113d71fe7ce
fde316f2f30de3de0f0900cc39dcca09
f70f16ecfea50f37d7e02bffc623ce34
10f0031809082eeec9ff05f4321de1cc
0aff02f3f8d2050ae0e1f7f9d211ffcd
193105c30cf5fbdbde0fd20fe113500b
06431b0f31fc04e622d308b7f4ceff0d
eeddf1e32807e80c06f60105fdff15f7
0e0331eff001dfebf220fe11feed0fe1
0b03fc450e274aea2c1a19f8f321eb0f
f7daff4f08fa0bf2d4a713eef20ff1ef
091a07c5d1ec0fa7cbf1f9eb0d1bd110
17fa130c1909cc1624210e1cefd6d9fe
242002f409c531ddf5be27f0ee0515fc
efe90c2ef3f40c10f2f802eb31f50a37
30dfecddedf3d81704d8e30d27f1ffb2
2cd9e833fcdddad5f4f014ffaef0fad5
0dd20d3a2902f1fde0050b02e4100e14
e831e3cfafe4e7f5e7fa43e5ec030c12
0ff9da05fbecfde4f407190ce938e51c
f8d21418e11ff41a0c13cfda12f1b806
3733f807dd1cc61aebf104dee4b32145
022e2a14c106e5ffcef3fec6f5ed0384
f6f0def7fef910efeb10fbf00ce3d3ee
f20110d4d9071df11c29060ffdef1730
04f7fc0192f3f3adf1f7fd14d9f712f7
e3edec9ce5f617eafb1beba21b24d419
3713e1cce81027290105100422dd00fa
e4ec042adbff1710e914ea25eae8eb25
171d16fb101fd0e5b3f51be63319030c
250b1e15ef0ef9271708091d1ff9fce6
2be4d134e6edd00601fee8f731def02e
fcfc0b0dfefbef0bfe06bfeff6030be2
0efb0d1af40708ff16edfb12f5ff2304
ed0105f616110319cd811a08250dfefa
c10708e31e040801d52a1be3e905f708
240803eaf1f91c030b1aece9fde90eef
fff8e8d5f8e11a0f08fbfa110630eb00
eb0316382403dd07b2e5cde5ca13fb0c
cdec38f9deff1000f81b16cbe91907cb
01fd101ce002c6220fdffa040dec190d
edd81d31fdc8ef20031913161eeb41f6
131204f41908e9ee0de8efc919ead0f0
0aee06d51311e0e5f61413fee9fff3f6
ec06100f19ef0dedf404ea01d210faf2
1be4f6df091de5f50f1cdc12d5ffebed
0fe11254faf3fb0d0100fcf321f9fefb
1012cb0fd802e00de3d70efff4fd120e
04202e3ae7e623e200d8161e0c11f3fe
17ebfbfada25121c02ec0c2821120b0d
82e3c52df7fc15ebcff1f6a108f1f5f7
e8e504f808c4f0fed609f1cfef8ef707
47ffd64440211fdfde15f0e408010406
05d210f9f6190ffc0cb4feda1c0c0400
0611dff6060bd61db103e0e2dee008fa
b312d32e0ff90d17e2f9e0090d300420
ceccc5baebe3d215370002fd0707df02
eb41f40b1f09f9e01ced30ebf60926fc
19e4eff8fe189fe619031121f61f4e11
532704013715ed1663fffc1e320815bc
4afcfd35f50ca5039a1915b42f1d15c7
d2082a17ceececfcfb2e0500e3f3fb05
ccf5f40a132b0f0bfc21f9e1c9fcdf81
00ebc7edc7c5ebee041490d71ef3c3f0
e703e927c7f4c611f40c0df9fbe60105
19132cfbf808e3e208f82505faf5e5fa
f9d4dde2c91703fd01d22ce232e92330
e2f7e8e0041f2412eaff070e02ffbe06
06f2edbcdedc19320de60dfeef02cfe6
f924c3d2ff09e6050f06b010fe1905e2
3207f123e8fdd600c816d90edff80f1c
0ef1fbfe1200f31fc8d8fdd7121e03fb
0e20c40d0df001d7f60016e70ddc17d9
b80fde1a11f42fd118b807fa00eb36ea
f4f1f23ce8e9dc1b0ce701f91dcdcaf5
05d1ed16ee180ec10208f5941e8e1df2
f738103c9a280fe601f6fffdfa310505
e8aaeada2236fbea12170fbcdc060eef
1837e4def312f1fbea1e0c0acd0bc432
8fe20913d057f9050936fd11ce2304ef
15f112f6e7e1d009f5d9f113e009cf4e
221ff8f3defe041faffdd2068403f018
be0517fd0cf33d0cf9ee0819090afef4
aafefd05ec10110afc39f7feffcb1e00
35f4f1f0fc05e004ed0d28f61225100a
eed5c7082adbc5c9d518d2eef50d15f3
184f2404aa25d80b151bdefdf1cdf716
08d810bbe614c6f40cd6090ef9d405f9
05fc1bf80825eb1ee9eabc02f6e932eb
f9cfecca2434ffe715e5c50f0dd3b9eb
0e0cf936f1eb0ee1e7f113381dd635db
1e0b28f930dad019e6f0f9fedbdf1704
ddf8120c0a0915d4e9ff071e1bfbefc5
401bec2d0ff51e14f9d11cf349f3230b
04eaf31d2229ef0c071e00ee2f13d003
0103d51de1f4dffddfff00ee0709cc06
bedad334f3160ad6e708f1eae2e7e604
dcdf2013dbe21fdeb1dbedbacfe9fe03
0b05f8c40f2605ec441507090afd07da
e80bfa160103ffe2cfea10d00b9cb0dd
250efbfde8e815ed2805f0450d3316e3
04fe53e416e1cb07ee0503021f371a2c
32ae190ce8e509fef1114de2101b14e8
c6d0edacf5f5d61b0aeccd20e93c3221
ddff14080738d213efc93623fce2f1b2
25f3461c064812c4e52b2ef3ee22fa0b
12efdcde2628dd1723e0f02504ccfff9
421bf20a0d000721fbee1a03cbf40c2f
040ccb08ecead9d311400c16032301fa
3d06f90d3908eaf217e903f4fdf4fcd6
0f02fd280dfcdbfef6ed0b25ae1211ce
d8fb01c80bf513e103eefef71ff921da
dc01fee805fe0fdffdf81e1211d22eeb
020418ca24fa2cdae30da6d2b131fef3
d9fbc228f3f0c81ce00ee7d321c801f1
f6ddfafcfcff1afb170ae00e81070202
15f1c72c151cedd1f009f3e000000623
200925dc26ee07fe03972405cb31ee25
ed18151ddbe92709f8cd2f1eb6162e01
49ec2b41f918fb0ef8d0181bfadb232e
a1c7c238fb1bceebefc4081f22c92ed0
2331cf312b19fce6c70b1df1df0aeebd
ecebfcfe05d30013c4c3df02f30ceb1e
e92347dff73113f128dceaf9d7e8b812
88caff1af75802f1bcfef20faade2d0f
15dbd800c7d9a3f228f9050fbb2216dd
08110b0c42b11633c2f3f90bfe0be9fa
f70fcaefde0d29d7c72802fb2cde1cf9
00c6f28a0b2c09bee20be4bef5fffdeb
d9d883cb1fdea8defff403b9ead5aacf
f815fccb022d0be0ed0012f6fde618ea
e9fd212ef125001303f4c401d1d2e108
13bc2723d1f1d509d2be04d314e4210b
0fe84c0f35fe2024dffcf32fff10fd10
03272af705ca0120fc1efedc29d8f116
da18f516f7d8d9f2fa190ee91ae132e7
1d05f71e1211feeb0d01c81912e48a37
05efefe3ce2435e6dbd3d700ddb7f916
afab18c60a18d50523bc0be2f11b1532
10a507f0e5f3ef18d111f9fd33f41d0d
d44314e71915e7f9f8d9f8f0ecb52aee
00e606c51423de192209f3f2e80c1ceb
bedd411a11f30141161323f7051bf51d
f7f0c9e1e4f0c32702eefeea3912f304
e82bc7b02116e10f1848fbe9f107eee9
cfdd0141d6d9fa38ebfdfb15c9268be6
e4f92517ee25eec71e0d1a3df326273c
c54206e902210c0e0dfed4e9001ffd16
d3f9cc81150bad2edafc05a2dee41d1f
3623fac8edd304b7bcf232060731ea3f
2a1cf6f2ef0706e9e82addc6c4272402
0cf4ff13d83211f4cffafaeb0c1b3dfd
e4f4c475f6f528f90e343ac6d9ff0afa
18660afb0000021e0b03fcec1d0e1ad8
dbb5d09a72bc12ced2e807c4d6cff8f8
ec400750ed48bfe62a1e23023c1f210b
ee0ad2f02037dc1a2ddce9f8f7cde9f9
34f7311cefb1c52efd9cc5dd13e8a2e5
1205f4b2a511561f9f17255121ffffed
11f8eafefced1108f60d0c011006f704
02fd26d60fd61303dbca1fc52ae9f5d3
831c084fed3f25c8f50619a5c71a3009
02eb1214ebc4f20f383113cfd09811f2
cfe8de02d4e3e4e3c5d8f5d3e9d4c9b1
1c0bc90919fce21ae11a391ffe325b42
f300c807f6f013fb0e08220cde1f0d43
ee13cdee17cc27ed1433c4d2ecb2460e
eeedc5d90b14ec1ab7eb0316e0ab1ae8
e20f640ef4f9ed4be82af5111ddada09
dd122c0fe4bc02274ce18cfb174703fc
e61beceed9f0c7c0283ad80d3ac4be0a
0c8df4dc0c1300e41e0443d4cfe40b3a
4a3bd8d910e936fea7f317a9f4cd29b4
23f326feba29e1c8d623d6e3d20a0401
fb13f1fc21d523f00cfe21f531d61557
34d8ed30010bb4fadad9daf5c8c9dd10
1a04dc35dc01f15526bd024da7ff063a
344f15c0fd132e36dcc5f9d2f62c171d
0825e031fff48112d0061214d21101f0
0d1d1d0821d1d63939cafbf7faf837ad
50c717fcf6b1000008e3ef2133ede234
e95b051ffedfd32eb40af33214351308
03ee03e90d17f10bfeeaeff408ea34fb
e2eae015052826f80b1f27120a0b120c
ea280e060f091108f5c311011f3c001b
d0f70be60712f5f4ebdffb03f9cc19e0
d0eee801ecdd0ffbe8fdf80fca14dbd1
1fd7f50501111af700f019e5f0ffff86
f7ace723f1030ffc17f3e7f3f4ec1f0b
ff0aff1febdfd626da12dd17ec1e160a
0b21e50bde0ef5100af110fbe8c0e6c7
fbf3eb12000d09e6f4130b18f0d6cbf9
a6122efd1d120df91cf7f701bbf011f0
f709e017efbf09e0d1a0a1e00afe0fe4
ec120afe0febfa131de5ec05eed4f00a
16fdfd0c02f5fc1701df0ee6c1fa040d
09072bc0d412fef3c816e9f6eef3bf33
19e316db0c11251423febefe17f92417
fd06d21b11dd22272f17101018db0b00
e507fde01bf90faef2f210fcfff5108d
e2def3121e142ddad2daeddf1e280208
fa10c5f6e4ef06090c05041610dc490d
0ce1d50e0a15fcfaf008dff3c8b6ed00
170feef40dc521d209cb03c9f4f206ed
08060def1a1315d1e9ece8ddbb111d06
172ad5f4f80adde4d51bf622da1cf0f4
f80b0617e9cef7f6011cf81c24f1f0fa
fcfbc2311bf31105f5e7cc0e17c62413
1eff0be7f3f6ebdf0a04f503e9ec1be0
e730cce181ccfa1abfe1cfef01e82912
d7f34118f80420ff0b060af5c61a05f3
e4c118f311d7f3e2f300f7fbdecdddf1
083bc900deea0b8606f3d7e617e6f9ea
1dd809c7d2f0022601180a0ee5d4ec0f
0ad20df7d0f51b16e7fb160522e3d524
1af70ae1f20d0903e2ef12e8f40cfd39
01150ee5e3fd21ff16d5edd3e0f0d314
dcfef91d09ee3b1adde807fb2818fdea
2ae72c4413f6ede5f0fbe9d6f1fb1cc1
3713cae3290cf7ff0af608f106f70d08
f600f1eddf16f1f7e61543ea2fe8c109
f31af40d23bcd029071e1d1eab1af11e
d90a23e409fd0a1e0a3cf80601111d03
0403e206f71317ecf8f4e0030b08e0d9
e2200eda10f4e8e90fdad1f8fc0e07ec
eefa01f7f6ff0bf0f806f607f70833f4
ef1811fa29e30007a90704fe01c5ee11
daec2a1eea003317fcd109f2f60a26ef
e519eb00f51717130d22e3220213baf4
f6de26f41918ecd2e106e60cf4b4f828
24c0211f2bf608e4fcce22e220f1fe09
b72206f00b08011ae1e704d40df01701
fcf509052709db19e7f8e1002aeae518
cb0530100a0e18f80903f903d9c79c17
d6e9350a101afb0809f0e4ebfb2c07cb
410ed508e5e8e201f7fdf1efd8e61706
f6e9c3180611190203f3e7040c1fd505
dd03138dd0091b2e0b0518f7dde0eee9
f7f121050508021d3346edd9242e032d
e21b01fd07091dfeecea0ed5f400ece1
05fb07dddef5e904f5fa0f34fe14bceb
29fe1305e00f120dfc21db05120201f7
17e7ec23c305f4edb4eeafecfb17ec08
e7ac2b04040910f410ecd8f610e1810f
e0ecdbf2eaed30f6ede70a03f21fc515
1029c9f714f4d132e60b04c5f0cff0ca
21ca1a9df4de2befd80e1df5ae45dc21
2afe1dc709f514ecf0bbe8def10604d7
18054caf25f339f92bce0022271be6cd
38eef2ccd320e702f1ef40d4391bfdcb
0805f9de16c6fdc7ebd70c27dbf631db
4c29fab8b622e4d3fb07f7be0dffef22
06e7b9e7110bd70cfc121504fedcda11
7cd51ed6edee0e12211cd6de3307f436
d415c6e7164be71706bf0f08e8f7cf09
fff2ecf4ebec171ffe98f7b4f4c105da
24fe1b110406eb1d28c70fdec8f0cb12
e028e3fed5f603e4cbf507342800ddfb
c4f2201dd21a1b1b001402f3102cc6d4
f8f42311f0ff120ec6000f2810344cd9
ec10e8be0b260a02ecf0303aeb16fdd6
fc130fbfc31a12f711f305f1ec300341
ead1e3f124efd0e5201718e31d0e1d39
c33f3b0916d2ee03d4ead6f6b6013c09
d925a3dfe2e0100f040ee4be38d902f4
d11e81e5340c15cce7e7dadf27df520c
bd2705c2f20fffdb1a0035f50bf61606
0b05e702d224001df70be1ef2ebbf2fa
d4d830f14f1445e4eee6e30430ae272e
fbd81cdd0af3f4d41439ba55043f0326
db1131df38d5019ff9231a0fd5f203ed
fa313a1812d9d9bfa9b71afa0a07e710
41cede2b141c071dfabe47eebf270b17
fc03d70942f7abf612fcd5e005131620
0adbc9dec52cd0c50ae445f1c2265d0e
16e32536f310f1ac091a17effd16e421
f5df12123cf80646d7e006d514b90004
c6ff1239d5190cffcdffd7d307b7e921
18ee101e17fef508011afd0bd9c819d1
f809c6f3f202edf9f40bdef5300911f2
f9f8fef712e1e1f2dff8e5eebb071b05
13fde4d92f00e80a2316f3009ef3fa0a
db2ae81204f9e619ebbffcfa11c81bc4
10e4f9e404f9f9e3f71dca0b2e1efdd6
ea01e0e9c5e7c415fdf1e104f60e060c
f2131e0513f523f5f7e41b0ad711e92b
13f3cd220006f704e302efe3c0c9d5bc
f1df0bf61c0a05e00fe300f2fbddf9f0
f40129120820e6e012f2f6102eafe902
07e112e7ee1a0616fa05091917f1fbe0
d124f40c0d1808eff4d0102928d7b725
eeeae917fb04e610eb120be6da23f903
e100f315f5edfb0fd7faf70edbc139fe
eb02dc000f11042c060ddb0bd0bf02cf
f1eb20ec0ff40c1e1a1a29f205b50730
070e1313f209faf7f30c080c01ea0608
f7eed90bfcfd0a08f9fcca1615d5e005
0c050af702f7a9f7e2f11304e3fe1303
17fa08100c12f6fbe51c11d681112ec2
bfffd401f926081100e910fb14f4def9
0dfffa1ef5e5dce21afbdfecf01ce4ea
f0212513e9ea161b240ce3100aeb0bf5
2be2fc2c10c0f61fecd72ae5f5e5d1d5
07f7fe05e7e1120afef7f8fb00e4e7fd
fc0df0f6f02ce5fdfc02ee11fc171622
ecf0fd0e1308ec03fcf825eded00fbfa
0404170a0e080cfa1c0d0cdd0dedf100
040cdf0e1206d80814f3301402e9f20b
f511fb00da010908e1fcf416f5ec8e0a
dffb121efb110f0cf30927fe0326e604
0bd5f314d5ea0210fa0c30f3f7f30df1
04020af7d715020af51ceb0ce9dada03
ecc6b2f1fff5ef200a2bf9dadaf4f1e2
11ddef000a231acc1b25e9f30f2ddf0a
def01c1f1ad40cf507bcf0f0151ffe04
1a0c0de8d01618ebe9fc1dfee105f6bd
e7f4f3bb08f60410e2fcdff3e914e102
d418f3fb19e91309b1e6fceadae18f0f
070ec1140031fdfbf3191eda0d16ef14
fdef0619fb100df7083add031619e8f6
19fffb07d31005e6f2e4f809fb01f127
c904fa040af6ee2e01f0eafe04eb32cc
fd05e2fff6fef0c01df6fe1df0022e06
eef012120705100def16d719e2fbfd07
1508f1e726060000d2e6f30ddced18e6
e0fd290d0001212700f71b00f8e8d522
0cc8ece708fb220cfd1de61834ff08ed
1a09f3df010006fb081419e633f919fa
16db8120dbe246f4f8f0ec2bfdd3a03c
fd0834080ebca608fb062afe07dde90c
e7d328070ce4da24f1efeadbeab90400
28f91b070b0c0f0e010b09c1e8d603d1
fbfb0814fff8fee3dfda1722d2eafff5
15faeb14f6f7121a17090a13be2e0dfa
fb051f301511fddd1010eae40ee10057
2a02c7dbca15173be809e5d5e5f0f4cf
0612e120f711dcfd0b1bf4c924eeeaf4
2811050cc2090201e4121dabefc9e723
08d2f01bc608fb07f9200205f3020815
16fef52a2cfd050cf2ecd8fa04050c15
f3f91ffc0a050afdfb10dc09e506e4e6
f9f5fff8fdf40d0ef406f324f0381bfe
07b4b1e51bcd052a120ef5f7f9e2cae0
0614e502e6f116032ed5e21e26040e31
1ef7f7ebfeece9e31ee5df2a1b0e2731
f7f602f803f62a1b1231fedb25fbee1d
81e012040fc32f09040cb3f7cdf4e90f
283ce90f11c4eafc11cb1228f7d2e60c
11dafbe6e503fee123faebf6131529f0
ffe7211cecd1fdf81ceef81af3dc2315
fdfef824f70bf2fab3cfe0f6c20dca11
3a0ae110f9eb3208e9f0e7d500edfbe8
0d11fd0b0901040cfdfde9fefde1f5ea
ff081af60fd60e0806211a1b0ffa210a
0e01fad8fa1c1f9a1e09d7b6ae11fddc
e20e0112defd0df310d9280c070d0601
c2e3e801f6e7fafdfde20cc422f5f822
1100090eeff3e726e5ecff1bf10bf219
f705d908e910a7f427fdd8a2faedc3ed
eff42905d62df10edffadde02504f32a
21ebf3fcee13d003c2c8f7f6e2bdeb10
ee210b34013a070ff4c405f5eaf0fb29
21b7e8e80913e1e0f510f907bcf3fa09
05cf0301fdebe11a1609ffca0207fb12
fee6fa07f7ee1726dffe29fffdd5b7cc
d0fef2de16ff02201724fb1cf1eafaec
1cfadb0fcfd63bd416ff4f33c223fb25
0ae9f61ae2e8cc39ca05fcf2970502ee
23fc211ee30009e7c8071a121afbfcb4
17f212f2feed05e5170507f41009fded
efff5fb92024f5f2f1f5f2faed231a13
eceeec402204fbf9f60404d6eef6323e
f6043110e6e804ecfaee05c117f20e2f
07f5f1cefe12c00605e108151403dee8
2532efebc5022c171a0a41c8c5e203c5
fa2401fb89c1cefab4c7daeaafa30af9
bb31c0edc0ffda1a38f5cff7fff6cced
0a003302c3fcfefcef0e17c1b7b5dab6
29381e08c7d4dafb0da6c6f6e6c5ca0a
3ad0a108d507a9ed0716e5fed2b1bd26
33cbd42a29d634bf34e4c928d723dac5
ec04f12803d0b825d3cdf32314e8a512
d3d2b6fc9da8a0d622152dc9b8ff0817
bfbb2eb6e0caeff68a17da0d20d2fbd4
06f444f5be0410f2b8a3d3e406982f11
07fcfea427d2efd7f688f1f90014c29d
011133131fc513dacebf9f26cf11afa8
13d4c303e9fed4d5dfd49cfbd1c4dcdc
e6d5d4e812d71e3497d1a5cfefbdfa29
d1befc2500f2c60bd2d9b118bf092dbe
c8282bc4cdfe0ec2e7e7e7b816e3cbe6
b029d534b0fb14df01bef3dc03e107c3
0d0fc82edfa32bf29deb1803c70fbc31
3707dbbee6e41cfae0c909ed3cf4e50d
2dd40bfd0a3dcceaddfdc4d1ced3cf24
e4d223b9fe92c2a4b8e1fcc0b7d6a301
d51ef1ceb1cf0fd68101f6eafecf00d0
c7c614f0ec180529e027d9efe5c2a7cd
fdcf06fc1c03050c3fbcda38dc0c2801
33d3a90002e9bcb7d61409ee2de4f7e3
ddeff90fb2c1281dbdc1fbb5df150d09
cb1ed6f422a9301ec51006b9f6d4f3bd
be0ff51db4faf8a713f946c21aee020d
32afb2362db1ecd017e0acd7cd10ec0d
29fae22dc5c1d226fa82daddcdbad7e4
f439d5d5f6e9d8d4d1cbc13ee3c7c8f2
cbff00c1ca96f2e8eb043105f31123f8
0bdd09f9d6feb7162002caea1824fff8
e2e9c2254d161c04ef07020a0ae600cb
2a0bfef9adfb21d0cbf9c4de021a1415
c98108b9d4cfc8f12514b6a2efe5f506
1c30e1c718ffe1de2bd80bdb00e20bdd
faf005feefd0e90d0e110be3fdfd241f
c7ffeb04b9fd9f16112b0af433c3ffda
19f409dfe71418240aebd9a9f6ecebf9
e407e9210816e3f30beaf8fb38e8f60c
e2f0192816f2200df72def12fdffeedd
ecdef503272bf5efffcf0807f00dcaea
e20331323131e210f72ffefae10bc815
eb1210d30b201009d5d80df4fd0b2e0a
1e07ffebe91f09cdfc0101cf143ff013
17fb0cd5d5e51b1bcad3bc1021ff0d0b
e9d5ec1df8f6f70adadbf9ff2ef2d0f6
2efbf4f102f10aa1e9c830c5d0fc32f9
0307f1b99de1e90bbadbfcdf32072812
11f6c52af01e0a9d1a10332b22eb10ed
0515022f1c062ed6d90ee91dd60e0206
edf4013ac40931e200f9f2e00933cde3
de26fc1debf1050cf71794da37030f24
0b17f80bf20a320915060ecc16c3fef3
cd36ea1ad9efeae0eefcaffaf9d929d4
3031f30f162a0e0a140719e207e6ee17
15bb1cfb07d50ee9f4da070bdd07f2ec
d2c7d12a0b02203befeffffd0524f529
e340c0cef4c1f9b2d5d3e6eaf9f7fb01
28dbe1fe0f0ed1c7dbe59eee08ff1f28
d6090afe0dd29a0308eed2e403f4f105
084c322908e00c1f06fd14f0fb08e5ec
ec11b0c301c42ce3e7fa0a0923e10922
08372336e5de12d8f09bf5c981fa62fb
33eef83f45fbe50f04c4d6d2f3d30c16
f806550513f1d919f0e9b606335bec29
f200f01711e7ea1e9013d51a2ee23d12
bd06013d11d1dff815ffce4418cf25c6
2ccf531302d404ea260df3d602e01312
5bd6b1ddb7effd12fe3e24cfc8dd3bfd
e8e9caf30f331ae5fdc8e4da0609c4cd
e218233dd01800f1c70d4939c411d4fe
c24516210925cdeaffe654cca30019fa
dc0a23d9fdf9f1db1ade9a19aeef0409
e208b738fd20e7203ee00440c004f51e
d319f514e50a1323f90cfc09f92eaffc
242fee143317d3fffff716101b2efef5
f607cc18e1f00d58e0bf02df1bdfd8b1
dcffaff8d410c0f6f71cd5ba4dd81bcc
1714e1f81a07c800ef19f02607ef060f
18e612b3f8e5fcd1fbf0d7f4c918eec1
44f2ed5ada12109b1e1753b5fef8d2b2
dd3de439bfa3e7a6cc0430f8ef97f1ce
f1d10712e5fa0517170cf33325f71331
ecfcf712fc0425e5030e99fbd8f0e6cb
19141be3b33e241626381b040cf8eb0c
fddddda4f217012519e9f1fa2b06040b
2c311ce0282402b4f40bc11007230b08
06ff0bc2f4b62e3506cbf8bf84d0e3a6
16d5df14f1d2552f050e1bf56b1fa3c0
de2dd3b8d000f11e34b7e6ffc8b81835
041b2609c30e090ae2260ceea319e9ec
0ae80b33fad22505f80aecaeeefbe0ad
d8f03ae0ea1cff37cb32eedd3bfdb7fb
23e431b6e9e434c4cfe025bc1d00271e
1141e9010a0bd3b9ffe220f7f3bb1123
0a4622492f1415c3d8feeaf90a3e200f
c611b5f72885e6e6cc03222b390b454a
bfb90b971de70dc5e3fee908f1fb37f3
6e922521ce12131cc5d50bf8b2f016ff
241ff5d80eda5ef51610ea1ae95306d9
2c2cb92c91d92905c9e6f406e62739c6
130e81fa0df5e821b4ffd8f01ec9f217
061af9cafe2016263f11ea1443ffffd3
1f0d28c9090d0216f90b133124fdf1b1
e8eee6dcc622d7e1eac12f220116d124
df12251814ebc22af904e028e6e7bcc6
cc00f22707202cbdf6fef4d0222be80c
9be71210022f2ff7f1dff3c6b4922c21
24c4db21e31856eaad0121ff85ef1d07
17d4d52638ef3332f3e6cd0108ee06fa
01c20b49e109072df026e208c502ffeb
40c862ece20dce04d61422c00fe5e0d0
2f0e386a10e5f7dcf4de1308d40bdb38
faaa0de6fff18c0f9bda20041c2527eb
e545c3f112d2fb2b25f9eefdd64790e3
ead4eee21526d5fc23142d1af51b1b0b
e1fdf328fce626f00ba5d317e0bfcb35
c79ba501dcff29f3d0d7111ae1ced8ae
afa81ed814ed1a09e30d2aaab6b8cd02
ea8a17f91210d84f11e21d4720d21606
c6fcbf08e7f41ee7f4c5e01f0409e5fa
e2061ddae9d5ef221ccbf6e73fe704da
0ffd24061002fd51c6cd0db2f3180aeb
2faef0e429f632021f2b1fd5061cf10c
1eec942cee19da08d401f3c42bcb002e
ff25cfbf1a98fe13bcf3eeeddf1afa20
01edfceb37e13208f209f104130b06f3
052801fcd048ebc306f42b21f8079311
f3d6fd1018bbf640002e02b6f0fe0baf
fcf5ec508417fbcdc7b9e4cbe2e42900
1e0d04f0e41f2807aec5f82b3c22efe0
38073fa70e00f8f0fefef7e2f703db2e
1c3222fbf80307fdf208e4fab207d902
1648edde1cdf0ce20ae80cd5f0deb7d9
fc18ebc20d1ee435f8090df1e203ede4
f8180d201dca21fde0fbccd6d9190900
e4fe06fcbd0ced21d6e5190fff0a230a
eec3f01bccc0dd3426d2c3dd0fc93625
203a04143a37dae03de8ecf4e1fae3c9
facc45b5dec2010ef7211000c6f1f88c
d2172702e6200f310540c8fdfdcc1538
df15f21905edcb1fdbc8232434de07f7
f40f00f8f6c91b3f23e2c7fa0efebac5
2ef705f8e6e120e0fdf5e01501fc06e4
2b41210ed2fd17fdfafa14fdcffd02e9
1aeae8ebda0d0702e23212c04fd0e2d6
1afc010900ef0af7470f09dce4dbdbd9
f583fc0ee427f1d1ef09db04fffc0b1a
e9e3090ede2d06dbf9f4e8fdcf0cf9db
23c13525ef14bae82405f105f5220d02
29e811d2f0460115231f1c2b04f21c0a
130805b72837f20433f03ef50fdefcec
d203103a3438c9810dfb0c08cfd2d203
fdf907ebe1fc0c43ee10f4090a0e1d1f
e4bff4d3e2e3f9a706eb1ce219061013
a311b20830e1d4cbb919c81d1c273feb
d6271123432a1f98f7fe05d0b02c0302
