# Dense Kernel Weights (int8) - Keras Layer Order. Stored row-major flattened, one hex byte per line
# Tensor Name (TFLite): tfl.pseudo_qconst3
# Original Shape: [np.int32(64), np.int32(256)]
# Dtype: <class 'numpy.int8'>
# Scales: [0.00418683 0.00146066 0.00398074 0.00359358 0.00424731 0.0033308
 0.00341608 0.00176714 0.00353379 0.00249113 0.00446941 0.0013962
 0.00387221 0.00416088 0.00502292 0.00349037 0.00148466 0.00171128
 0.00300219 0.00161657 0.00334108 0.00411625 0.00162524 0.00154494
 0.00351598 0.0035761  0.00409655 0.00362238 0.0014043  0.00325018
 0.00431305 0.00470994 0.00134248 0.00145095 0.00365859 0.00417934
 0.00458168 0.0025266  0.0015063  0.00405301 0.00515924 0.00485947
 0.00375259 0.00386345 0.00357539 0.00165998 0.00328857 0.00278938
 0.00420734 0.00306811 0.00372053 0.00151517 0.0015481  0.00375641
 0.00166056 0.00356132 0.00403648 0.00196724 0.00165212 0.00354232
 0.00190726 0.00362574 0.00359218 0.00148219]
# Zero Points: [0 0 0 0 0 0 0 0 0 0 0 0 0 0 0 0 0 0 0 0 0 0 0 0 0 0 0 0 0 0 0 0 0 0 0 0 0
 0 0 0 0 0 0 0 0 0 0 0 0 0 0 0 0 0 0 0 0 0 0 0 0 0 0 0]
29
d4
c6
e2
24
19
e5
e9
d2
d6
13
fc
15
ea
f5
fd
24
d0
0b
05
f2
4a
f9
0a
14
e2
f5
fe
0b
24
0c
ec
d7
f2
ff
6d
0e
fa
09
d1
46
f7
32
13
0f
b7
fd
2b
2e
2d
32
0c
12
13
00
09
4b
19
2e
06
17
26
12
d7
ef
fb
e3
b6
1e
0d
1f
1f
c7
df
14
18
14
0b
f5
15
2c
17
f3
c8
ed
19
16
25
ca
5b
45
0f
f0
ef
fa
08
d6
ee
24
ba
6b
10
07
e4
18
13
d4
fc
e9
d7
f0
f0
d3
3d
f3
f2
33
e0
dd
0c
38
41
11
e7
c6
34
52
81
15
1d
e3
fc
e7
f9
37
c6
1c
68
2a
fa
e3
ef
f1
fc
bf
30
0b
cf
04
c3
13
e4
f2
fa
d4
d0
3c
1a
d9
02
2f
f9
2c
e9
32
f2
f9
11
db
1a
03
24
04
38
25
ee
0c
eb
4d
e9
24
1c
f5
fa
f1
04
d1
fb
f8
e3
cd
9d
f3
0d
4e
fc
d6
ff
f5
bf
06
1d
ec
0e
05
17
f2
d7
03
f0
11
3d
e2
3a
fa
f6
ec
40
f8
ec
ff
22
fc
ee
fa
00
cf
f9
f2
e0
ea
23
e5
07
0f
ed
23
04
d5
e9
1b
f4
0c
ef
fa
f7
f9
a1
25
ec
94
ee
f1
e4
ba
44
96
c9
0e
3e
1f
99
a4
9f
e2
c5
17
39
eb
ea
42
27
a7
fe
42
b5
f5
af
15
f2
0d
be
3e
38
0e
ed
e0
c6
8e
af
08
ee
d2
e4
f8
1a
e4
03
2d
24
c1
d9
c5
aa
b7
ca
20
2f
d9
af
d1
f5
ad
d9
4a
ed
b8
22
d0
a3
bd
0b
f5
18
39
d6
05
ea
b8
ef
ed
dc
c1
bf
f0
52
cf
eb
3e
d5
42
ea
c8
0e
08
9e
f0
ff
49
34
d3
e1
b0
3e
ae
89
e9
fa
49
d3
00
0d
c0
41
c8
d2
1d
8f
13
08
d9
45
85
52
a6
f1
0c
e2
ff
a6
a9
54
b2
ed
21
44
be
a6
ad
ed
c0
0b
1c
22
bc
52
dc
4b
51
b1
8e
f9
d9
13
f0
dc
a8
08
c0
e8
c0
9e
9f
c0
e8
14
33
e5
35
42
38
07
a6
04
99
24
2c
b0
a3
be
f3
3b
2e
2f
94
3e
03
49
c8
30
3f
e0
0d
c6
fc
0c
12
f0
e8
29
81
f1
94
35
c2
25
0d
f8
1a
ac
e6
15
53
29
34
87
ef
b9
56
e7
86
1c
a9
b2
de
1d
95
3c
aa
3f
cb
1c
45
bb
07
ff
2f
c6
b5
91
2b
c0
f5
bf
33
33
0a
1b
ed
50
f3
b0
b7
50
ed
cb
f3
3b
3b
b9
2b
19
0a
15
e6
27
d4
f1
d8
14
be
b7
1d
ef
3a
fc
1c
bd
c1
e8
10
de
f9
ea
07
d2
1e
e6
f2
3d
d5
0c
ea
e6
01
26
3b
13
2b
ee
e7
29
e1
10
33
cc
e4
05
2e
44
ed
1b
34
40
5a
10
19
c9
1e
b6
06
0d
19
e8
0d
a8
0c
e8
d5
f1
07
ff
ee
35
13
06
02
ee
e2
e8
fc
f1
ee
cc
2c
f9
1e
44
35
75
d8
0e
42
ec
2a
d2
d9
f0
d9
f6
fc
dc
3e
0a
e4
24
00
b7
d9
1d
00
d6
30
f5
d7
2a
ec
e6
07
33
f9
10
cb
2b
e7
f0
e8
eb
ca
af
41
25
ef
0e
25
06
f8
f5
ff
7f
12
00
e6
09
e4
bc
2d
20
1d
e2
f7
d9
c5
d6
d4
dc
cb
b5
0d
35
ea
12
27
c3
1a
24
09
ed
f0
eb
db
0f
06
11
f0
fa
36
ce
d9
bb
f4
f7
ef
d9
00
ec
da
14
9e
e7
3f
0c
b8
b7
c0
c6
14
44
ed
12
db
05
46
54
2d
f6
1b
06
fd
2d
34
11
25
02
16
63
e3
24
f9
1f
fb
33
db
26
1f
04
fa
f5
c2
08
fe
06
07
07
03
29
fa
f4
e3
24
cf
19
17
d0
46
09
d0
d0
1f
cb
03
f7
ce
fd
ff
17
c3
16
39
c7
de
17
fc
fe
1e
39
eb
b1
43
f2
db
09
f5
f5
2b
10
44
32
ea
f5
34
d5
14
00
c2
c9
5b
cb
90
f0
12
06
0b
c0
01
f8
1d
c2
0d
33
1b
e2
11
1f
3c
19
3c
0a
be
1b
d5
43
9a
1f
c3
fa
16
dc
16
e7
29
2e
c6
fd
35
3d
c2
02
53
31
19
d9
d0
ea
1c
24
13
44
27
fe
34
51
1f
53
26
79
21
f1
17
f9
db
1d
f6
ed
26
3a
06
22
e2
08
1e
ba
56
cf
bf
43
e7
21
d6
e8
ea
30
12
f7
dc
3f
c7
1a
e3
0b
f2
18
01
d4
db
0d
0a
f0
e9
10
2a
11
e3
d1
09
4b
e2
00
ce
eb
d8
d1
14
cd
f9
fa
14
c6
3f
f9
ab
d0
ca
f3
2b
1a
42
10
14
da
d8
e0
d7
e8
09
3c
13
1a
c8
7f
f8
1c
0b
14
e7
15
90
01
f5
75
30
92
c7
18
11
1b
e4
0e
f8
fc
91
b2
cf
f0
ed
21
34
ed
03
06
da
27
ff
1e
05
da
d4
27
1b
c3
02
db
28
2d
30
2b
37
2c
26
60
18
23
f8
9b
12
e7
fc
ef
e3
c2
df
24
47
27
23
d2
b8
0a
08
38
18
f2
19
21
1d
ff
ea
e4
16
e1
16
d8
16
f5
c8
f4
e0
59
d3
cb
eb
27
15
00
e7
e8
12
0b
11
09
c0
56
ec
fc
13
ee
b5
c4
64
e9
07
3f
17
4b
bd
1a
e0
d5
40
e8
36
f7
f9
ec
2d
e1
07
2d
1e
d5
2e
d5
a2
0d
23
14
04
0c
06
20
25
15
e0
f6
e6
ff
21
fb
9b
ea
55
74
04
1f
19
22
1b
ed
03
d6
1a
fe
06
43
0a
f4
3c
17
fe
7f
00
27
6c
03
35
4e
e5
25
11
06
fb
2a
15
27
ea
01
0f
37
d3
d3
cd
f6
21
f1
04
dd
cf
ec
ed
00
e1
f2
c5
f0
f1
c2
19
eb
02
e7
07
bc
28
18
3d
b8
19
12
e0
ea
21
53
15
e6
0b
1c
ec
29
07
03
17
0c
e2
23
e6
1e
e7
f4
26
16
e5
df
ca
01
11
02
04
f4
fc
e6
ee
02
d3
1f
16
e4
e2
b8
37
1d
34
fa
c4
15
f8
24
29
f9
cd
03
59
f0
21
22
e4
1a
e3
e3
04
f2
1b
f7
3c
0b
f1
30
21
0b
05
f8
f4
28
f4
26
04
0e
09
07
2e
0e
47
d7
28
0d
01
fc
f5
19
0d
d5
f7
31
ef
18
f9
06
02
14
fe
1c
1c
2c
35
17
4a
26
fc
fb
ff
02
de
2e
d4
f9
d5
0c
10
b5
d7
f4
c7
f1
1a
fa
0b
e6
ee
2d
e7
22
df
d9
34
09
0e
e8
1d
ff
dc
f1
f7
ab
ce
c9
2e
41
f1
d3
43
38
e2
e5
fd
e5
af
9e
ce
0a
0f
9f
10
eb
0e
0f
09
ee
07
30
ba
a1
1d
c0
ec
f4
ed
0a
e1
f8
08
d7
e7
30
07
e3
d9
db
20
f9
26
30
ca
39
c8
fd
13
e8
0d
d7
01
aa
1c
28
1f
21
21
05
0c
c1
f8
e1
01
bc
0b
49
f2
dd
5b
ef
ce
41
e2
e3
0f
e3
2b
1d
ee
ca
06
db
10
16
d7
b3
47
03
ef
cd
3c
e3
cf
8f
ba
fc
01
1c
e1
3f
3a
38
e0
da
dd
1e
1b
40
d7
04
1d
12
04
e1
13
c9
36
ec
eb
b8
03
ec
26
13
fc
ed
db
ab
e9
eb
21
df
3c
c5
02
12
13
db
08
db
1f
0a
2b
0f
13
c2
9c
f4
33
f4
1b
0a
e3
51
35
f5
7f
24
d1
0c
cb
28
36
6e
73
1b
d2
f7
5e
cb
13
03
fd
fc
44
fb
f6
f1
08
9b
a9
b4
df
ce
e5
04
b8
91
1c
b9
5c
d6
d2
17
21
d8
fb
e1
b8
e3
f6
06
dd
13
dd
01
22
26
05
d1
02
df
e3
2d
d7
e1
f2
ca
4c
42
0f
2b
c1
0f
10
00
18
c7
fd
02
2b
db
33
13
e2
02
31
7d
19
31
e9
25
f0
21
f8
d8
e1
41
18
04
cd
28
02
2d
43
97
3d
f4
3d
27
ec
05
d4
a1
08
ec
dc
fc
0e
c2
f5
2e
f2
46
fb
2f
fb
d6
ab
f4
bc
fb
31
25
81
ad
2b
04
27
ff
b2
62
ca
ea
be
ed
4e
1e
12
f9
55
34
3d
c8
e2
17
ed
fd
13
46
09
d1
1f
99
23
e1
f6
f8
0f
e5
a1
ef
25
e2
07
b3
a1
28
cf
0d
02
27
58
fd
23
df
fa
2f
ac
06
54
f4
26
25
e4
db
24
0d
0d
e6
5d
df
05
ec
18
50
ad
8b
18
ea
d5
25
57
4b
e8
fb
f7
d3
08
1f
ee
e4
d2
ef
1b
23
1f
1b
19
16
2a
b1
d5
fa
60
16
ee
ec
de
d5
d9
a3
bf
07
2a
0b
e2
f8
b8
dd
e1
21
11
4d
05
fd
e9
07
fc
2f
31
3d
81
08
e5
12
f7
43
39
1b
e6
0a
ed
24
f3
0e
ea
f0
d0
3b
ca
25
1f
f9
e8
d1
1c
14
c0
cd
d2
08
ce
bd
16
1c
60
c4
37
00
a3
19
11
f7
5a
ce
f6
e5
2d
97
f2
22
2b
de
f3
14
19
f2
ef
0a
18
11
3d
fc
f7
22
00
29
ef
09
23
db
33
d2
ce
c0
e1
35
f7
9f
c3
ea
f7
bc
f4
1c
ba
d7
e2
29
2f
ce
bd
97
1d
fc
11
09
46
1c
fd
2e
bf
c1
c3
ce
1c
c1
b6
b0
2d
21
f8
19
ed
ba
04
fb
d0
21
2a
14
d0
cb
0d
ef
cb
06
c2
49
27
e6
1f
47
f7
24
da
d6
b9
fd
22
04
bb
de
9c
08
ce
09
2a
44
16
cd
d6
f6
a8
fc
36
e2
3e
06
25
c1
ef
a4
18
22
aa
ba
fa
dc
bc
a8
b3
d3
0c
1b
04
be
c7
cf
27
f5
e7
ee
ba
3f
d4
c1
b6
e9
d9
1f
ab
42
ca
28
10
ca
eb
15
e1
35
e6
12
a7
f0
28
c9
b8
e5
ea
bc
b4
e3
d3
ee
ef
d3
23
b5
a9
c1
1c
eb
e4
f5
21
c9
1e
af
b6
ee
b7
f9
d9
cf
03
27
de
35
40
33
d5
ad
c8
fb
3a
b1
e9
06
d5
b9
f9
35
35
f9
1a
ec
fe
e4
e5
25
a6
46
12
15
d9
c9
bf
b4
33
0b
c8
0d
be
a7
e3
f7
95
1e
48
34
9b
1a
09
e9
cf
3a
81
bb
d5
b2
22
1e
ef
ec
0c
08
ea
92
2d
af
b7
37
f1
1e
29
c4
ef
26
ca
d3
a3
30
21
e0
a9
35
13
a2
37
35
05
fb
2e
d7
f7
16
c7
2e
17
32
39
04
36
3a
f7
09
10
05
15
d0
48
f8
0c
b1
ff
1a
06
b8
f6
56
0b
40
ad
e9
ff
c2
b6
0c
32
df
4b
24
d0
3c
f8
04
f1
24
01
f5
52
14
f1
bc
de
3d
d9
33
f1
0b
f3
ba
f1
08
1d
10
6a
f7
a2
1a
f5
ca
ec
04
f2
c9
e5
d1
27
50
10
26
22
64
ed
04
e6
ef
14
c3
9c
b8
e6
ab
d0
22
f9
f5
dd
0a
16
0a
38
00
dd
ee
e2
8e
f1
f5
26
1b
bc
68
20
20
12
f0
0b
f5
f3
31
f5
08
f9
ec
0e
c7
44
f1
4e
e5
f9
fa
02
a1
2f
15
f4
10
02
1e
dc
15
fe
ff
24
04
10
f1
02
bc
e4
2a
07
fe
e9
c6
16
20
2d
dd
1f
ef
e6
d5
bb
17
3a
10
03
0a
61
e7
db
9f
eb
bc
47
10
1b
16
d3
f3
48
ed
2f
ea
3b
43
b8
c9
07
fd
a0
e0
eb
f8
1e
f7
7f
08
17
ad
25
27
ef
c4
f2
16
13
16
22
f0
fe
fe
19
e4
28
c6
f3
e2
27
f4
e2
04
ef
0f
eb
ff
b5
21
ff
d9
cb
d0
c4
0e
09
a4
30
da
28
b9
cf
f6
dc
f3
1e
fb
f4
00
2f
32
e8
ce
ff
2e
f3
10
1d
04
ae
5b
20
f9
45
df
ee
ce
03
e6
cd
10
17
07
02
1e
d5
db
05
f0
40
be
2c
f8
14
24
08
d1
20
d7
00
f5
30
f7
62
e9
f1
02
fd
39
39
64
f3
d9
5e
ae
ee
26
00
03
3b
5c
d1
1f
d2
bc
fb
fd
d2
f2
49
f1
f3
32
31
3e
2a
37
e2
13
17
f0
f5
fc
d5
b1
49
9e
cd
0d
08
c6
23
31
e1
e3
dd
36
e6
e1
97
27
b7
a4
f7
dc
cb
fc
2f
33
ce
8c
ee
cb
e9
c0
c5
03
f1
49
e1
04
0f
00
eb
39
1f
1d
17
23
02
05
13
12
de
15
26
eb
e1
b0
e5
8e
a2
0e
1a
90
ee
c8
f3
06
38
f9
d7
e7
cd
2b
c9
2d
0d
db
de
03
d6
16
d8
ea
2b
93
d1
d7
ea
25
1a
d2
f6
bd
0a
d8
ed
ea
00
b1
7f
0b
c7
0d
d3
ce
bf
d0
26
d7
ec
e4
95
1a
c1
07
bd
f2
ee
f0
9f
e7
d3
bc
0a
d6
b8
26
e2
08
0d
3b
cc
2c
4c
c7
2c
71
0c
e2
bb
22
fa
c9
bb
4d
db
2d
2d
c4
a6
3a
f4
df
27
a0
b8
b2
ac
31
06
ef
50
da
0e
0e
03
15
d3
17
fe
12
d4
29
ec
e1
e0
1a
e3
08
e2
e7
39
3c
4e
e9
eb
2c
15
de
ca
25
39
f7
33
bb
5d
fd
00
14
f1
f5
f1
17
de
fb
04
f9
f3
01
1e
0b
d8
e6
e9
18
d4
ea
49
d0
e2
b5
25
1c
13
60
de
f6
e1
14
f3
d3
0e
b8
01
19
f1
ec
e9
09
b9
dc
d1
55
00
ea
f9
e1
07
5c
17
22
3e
f8
f3
ec
2e
17
31
a8
21
5f
04
08
1d
17
e5
09
cd
f7
18
02
e6
bd
20
94
1a
be
d0
0d
d4
1f
1c
fb
29
e2
1d
12
01
be
0e
20
39
24
0f
fc
c7
e9
06
ef
d0
ed
dd
be
0b
f6
f6
fb
13
15
0b
34
e7
e7
ca
d1
1b
f3
09
e1
d9
47
d7
c7
22
19
fc
ef
fc
21
00
15
e9
ef
ed
fc
fa
1f
53
01
54
f4
f1
c4
ca
12
f2
0e
0d
d8
0a
16
18
dc
4f
e1
4d
97
ee
3e
f1
16
00
31
98
e8
e5
02
df
d4
ee
fe
dc
15
fd
01
05
c5
ab
cc
15
19
25
b2
f4
e4
0d
c1
b6
26
e1
fa
12
56
bb
22
0f
f4
07
fe
44
12
4d
dd
2c
c9
c7
f1
df
ff
f7
0c
cb
cb
d6
fb
df
e8
de
c9
da
04
0e
37
4f
12
ed
1a
d7
03
23
a8
c7
ea
81
20
d0
08
14
e0
33
f9
81
b4
02
14
e7
b3
34
ad
e8
b5
da
ad
e0
06
f4
2d
ff
a7
11
f1
46
de
8d
0d
19
ba
e2
d9
31
ed
dc
33
1b
e5
e4
00
bc
25
c7
b7
36
16
ba
d7
ea
f6
ed
d0
eb
f4
e3
19
c4
2d
2c
e1
ac
c3
54
2c
b4
3a
b3
bb
d6
26
4e
06
08
a5
a9
43
a1
4c
c8
b1
94
c7
3b
e3
01
cf
9c
d5
1b
59
3e
f8
e4
4a
57
df
13
b9
02
42
3a
37
2c
e0
38
68
50
a7
3d
31
41
19
59
98
2b
a3
fd
fa
cd
e3
1e
b2
1b
a9
e8
e1
aa
40
d7
f9
40
54
f2
29
c6
f5
0c
d7
e7
c9
8c
17
b9
4d
f5
f5
49
43
9f
e7
25
cf
fb
ce
23
0d
d4
e6
3d
97
35
27
1d
fd
c9
d0
0b
09
d9
4e
b3
fd
ce
b4
fa
d4
e9
54
43
04
fa
13
fb
5d
dc
b8
e1
46
ec
e6
31
e4
a2
df
b0
28
13
e5
b5
d9
f3
cb
25
2f
47
c7
a1
ad
89
da
5e
c8
a2
85
db
99
b6
01
87
09
26
04
bf
be
41
08
c4
17
2f
61
2f
d2
55
27
ca
17
ad
8a
b9
b9
34
e5
2d
f9
23
3e
31
4a
ba
2b
8f
bb
0f
dd
26
ef
ea
5b
37
b2
0a
2f
c7
19
e7
b8
ed
cc
e5
0f
cd
04
16
ee
17
4e
55
e1
08
3f
12
da
c6
ed
d2
b9
4f
e5
19
d4
33
ed
2f
1e
d4
20
12
06
f7
09
04
d1
02
02
23
30
e5
02
dd
f9
f0
d5
d9
ad
15
05
29
e5
de
15
07
02
31
3c
ff
34
df
03
27
e0
d2
cb
e2
32
02
0c
07
ec
10
1e
07
07
38
f7
f7
ee
d3
d6
36
cc
c7
c6
07
f3
c4
f9
40
27
17
36
e2
de
f2
d6
06
f7
37
c8
ff
11
c9
ae
2e
bf
09
04
10
b6
06
24
08
e1
30
e6
e6
ed
05
9f
c6
f4
16
5b
08
16
3c
1a
0a
8f
f7
d6
26
fe
1c
26
19
35
0f
59
eb
7f
10
03
20
43
15
2d
10
20
16
14
f5
25
02
b3
b5
e2
0b
b6
1c
26
1c
93
f2
fe
d8
1c
13
fe
f0
1f
dd
ac
16
3b
f9
07
dd
01
d4
15
e7
ae
62
01
c7
db
fc
58
e8
26
d5
d1
07
fe
03
05
f9
b1
ee
01
f7
0c
f1
0a
e3
3d
a3
0b
06
af
1f
fd
fc
ea
e0
14
30
40
59
e1
18
40
07
e3
da
33
f4
ae
4a
a2
c3
2f
da
25
e8
0d
e8
f5
f4
06
fb
00
2e
e3
51
99
fa
43
4c
ee
28
fd
24
fa
0a
2f
e6
da
24
e5
ef
0a
33
ed
f6
23
e4
05
32
0b
b0
0b
18
17
d9
f4
e1
02
39
d4
cf
ed
11
19
fe
2c
d5
10
f4
23
e3
24
06
fb
d1
2b
db
19
0e
13
18
d5
1f
fa
f6
fe
0d
fc
0d
e3
55
dd
ca
be
25
fe
ff
c2
17
ea
f1
c6
f7
e1
fd
39
07
ef
17
0a
fa
c6
14
e4
e4
08
10
c0
34
1e
16
ef
00
f2
e9
c7
be
01
ed
33
d7
00
1f
e8
e6
e5
2d
ec
67
f9
ee
07
03
30
41
27
0a
1b
f7
0f
06
17
f6
21
13
f2
2e
1f
1c
38
e9
fa
cf
cc
ea
f7
2c
e7
1b
1c
cd
e1
10
de
0b
12
36
e5
42
eb
0e
00
e1
07
0b
ef
d7
02
51
f0
05
07
e7
bc
fd
81
02
c9
e6
e0
0a
f1
a1
e6
f9
f8
cf
d6
14
70
11
fb
dd
ff
b0
f6
24
f2
2d
ef
fd
dc
27
15
29
18
d3
dc
24
f4
fb
da
e1
31
f1
27
f5
f7
e3
14
23
14
b4
f5
11
b4
ee
d5
f0
ef
b2
1c
21
ff
98
f8
09
58
f7
ca
cb
f1
f6
f0
ef
f0
ab
f3
2e
06
de
e5
eb
22
27
e9
ff
15
f2
0e
01
19
e5
02
05
25
c1
c6
ee
02
e4
cb
2c
0b
14
e8
f4
1e
16
f2
38
ed
13
00
f3
16
30
15
0b
d9
12
d9
f9
fa
f1
39
ee
cb
28
f6
f6
c8
e3
23
4a
b6
e8
15
e6
0c
f3
dd
1c
f0
07
b4
ff
11
fd
d9
f0
ea
12
e8
01
d7
09
07
56
08
be
ef
03
e8
db
bd
fe
e1
e4
0e
01
0c
17
d0
01
3e
fa
f0
15
46
e0
cf
fd
ea
c6
fa
d3
12
4e
d3
2e
01
e2
15
04
22
3c
d9
e7
fc
02
0d
fb
1d
ae
27
7f
f2
f8
c7
f6
e4
c3
06
ca
e5
ff
e8
fa
f5
07
e2
d5
0c
0b
e8
fc
e8
d9
fa
f8
20
b0
09
df
24
f6
21
ef
e1
15
d9
ec
c3
b2
18
eb
31
f0
b0
f5
f5
00
c9
19
13
15
13
0b
15
05
d1
fa
ce
f8
27
01
e4
28
f0
c0
f4
1d
fe
21
39
a0
30
9a
e6
0b
15
1e
ba
0d
fe
1d
e8
fa
c8
f5
d6
30
eb
11
fb
12
1b
eb
60
dc
01
16
f3
ed
12
e7
f8
19
ef
0a
47
f5
00
1b
e6
f5
f4
fd
e0
1f
02
0d
d9
14
1f
a4
16
f2
1a
8e
ff
30
2f
18
ef
d4
ca
fb
dc
d4
e0
07
07
13
0f
02
e6
d3
43
10
2f
04
cd
c1
59
f8
22
e0
35
1a
0b
01
37
01
38
8e
59
e8
26
26
ec
bb
02
38
bb
2a
e6
00
1a
b8
0b
3d
be
71
10
e5
81
ff
e8
e3
4d
19
1d
f9
d7
42
f6
85
1e
cb
17
a2
dd
ef
c7
31
03
58
e3
f8
3a
0a
2d
2a
2e
ed
d8
4d
4d
e5
da
e3
fb
d8
ff
00
e2
c2
3c
3d
32
24
df
d5
2a
11
0b
2a
3f
b0
1c
12
18
8b
0c
30
10
ed
0e
fe
0f
fc
d7
3d
24
f5
46
09
ca
14
05
4c
06
27
d4
14
eb
e9
19
4b
1d
4c
01
21
1e
d8
b8
fd
d2
cb
ff
02
fa
28
42
e9
25
fa
00
ca
09
1f
27
3e
4d
fc
e1
d2
e2
ea
eb
f3
1d
25
1a
f3
20
0d
20
fc
10
d4
dc
e7
d0
a8
28
c6
10
0c
38
55
cd
b3
43
13
17
fc
e7
fa
55
cc
f4
0c
1f
0a
e9
23
32
c7
c1
0f
28
0a
1e
fe
1d
34
2a
0f
dc
13
19
10
bf
46
e4
26
f8
fd
ef
29
01
02
f8
39
34
37
0c
18
1c
35
d5
2e
ec
03
22
2b
fc
16
24
de
04
0d
d9
de
62
e8
d8
4a
f0
0d
d2
37
19
fa
f5
00
0e
34
2c
ef
29
f7
c1
20
d3
8c
af
17
3b
a2
dd
2f
e0
f4
b0
ce
47
b7
ed
12
07
af
25
c8
30
aa
c4
b4
08
d0
65
e6
21
fd
f1
cf
ae
f7
f4
d8
4a
d3
ff
4f
09
f8
dc
e6
a1
9c
1b
c8
af
af
f0
2b
1b
c0
09
0f
de
b9
c4
d4
fe
88
d7
ee
b0
15
02
cf
0c
06
43
38
eb
aa
d5
02
e7
e6
9e
04
ee
cb
d1
2e
44
92
1e
ed
ea
fa
fc
ad
de
c3
b4
af
0a
40
03
d3
f8
a5
dc
e0
cd
0f
1f
a1
03
ba
c4
e6
13
bb
39
94
ec
81
2a
11
a0
a2
e7
09
c4
20
25
fb
95
2c
b0
d2
e0
41
27
87
1a
fe
0c
c0
fe
2f
c1
97
f4
bd
e1
d2
c4
f0
04
f4
a1
97
1d
03
3e
0d
ab
e2
9c
62
e0
e0
2b
02
a6
19
b6
25
ae
e4
bf
b6
ed
af
47
a6
2e
e3
a9
20
17
d0
b5
c4
32
35
1f
52
a0
5f
f6
a2
d1
26
c7
f2
c7
f0
49
f8
d7
37
a8
1f
ab
c1
bb
29
ba
c4
27
e6
cd
b1
f0
1e
a6
b6
c9
23
ce
f8
e9
f1
17
08
b1
2f
c5
5b
35
b6
ad
37
bd
da
d2
d8
35
f8
c3
27
15
32
2f
17
b7
bb
bc
3e
d9
ef
e3
95
19
ea
cf
d9
93
81
0e
20
d3
25
4f
3a
ee
c2
c4
29
d5
b2
c0
cd
a2
11
e0
f3
c2
1f
15
9d
fb
ac
ee
fc
d5
aa
44
de
9c
c3
30
26
c1
4a
e6
c6
f0
fa
b2
fc
09
bb
e1
c6
e0
ec
d4
bf
cf
ec
c5
d5
c5
3a
aa
33
ff
dd
08
3a
28
3a
e9
25
2a
a0
c0
c7
00
2c
a4
fc
0f
08
fa
bf
b6
13
9d
ea
e3
f5
c3
98
b2
e1
05
1b
62
d9
f1
b3
36
f6
02
1e
00
1c
e5
34
35
98
f2
27
c1
f2
de
25
4d
df
ca
0f
39
ec
47
2f
fd
f1
f5
c6
21
d8
f1
b0
d6
e6
84
ea
38
bc
c9
f4
b7
c5
c4
8f
39
b6
a3
18
f8
f8
e7
1d
cb
8a
0f
20
13
bf
cf
29
5e
33
34
bf
c5
83
ec
34
c7
e2
06
13
d3
06
ce
b7
b6
19
0d
ad
e4
0b
c5
c0
01
db
ce
ff
1c
b2
0f
41
ea
3c
0d
2d
18
1b
07
c0
dc
c2
08
d0
0f
ce
ae
f5
b9
e2
a1
ce
21
ab
16
47
16
c3
cf
f4
c1
8d
fb
16
5c
fe
d0
28
bd
e8
a1
dd
ca
d6
dc
f2
c2
a0
2c
a9
45
eb
2b
b7
08
2e
c9
d3
24
d3
13
14
f5
f6
fe
d8
f2
f0
2d
3f
0e
08
0c
ba
0a
bb
e1
fc
09
be
1f
b3
d9
02
f2
20
e2
f0
f8
bc
c9
1f
f2
bf
e7
df
e9
ca
34
0f
fa
f3
fe
40
05
c6
24
cd
f8
47
c5
12
c7
0f
e9
be
40
0e
e4
dc
13
c2
26
fc
01
d9
75
fb
d7
22
ce
4f
d5
eb
74
36
e3
e8
19
a8
f5
d6
f3
ea
19
06
fa
ed
f9
23
be
db
c5
1e
81
d0
06
df
00
0f
2a
b8
16
c4
f5
0d
c4
2a
d5
d7
2e
ce
0c
db
08
d1
ec
19
16
1a
d6
f3
24
b8
fc
1e
e8
29
f3
f7
ec
14
08
ec
b5
f6
cf
e9
df
2f
48
d2
e2
37
07
20
ef
dc
05
ec
9a
de
d6
9d
e5
b3
cf
d0
0e
ca
d4
ff
e1
d2
ae
e2
f3
ae
dc
1a
21
5a
be
cf
19
e8
1f
a1
18
d2
19
59
e2
4d
2b
2f
02
10
5b
72
0f
ee
2a
e3
23
2b
bb
af
2a
22
0b
02
0c
13
fc
e3
38
38
e1
2d
fc
25
ee
06
dd
f0
ed
ce
ed
b1
af
e4
ec
36
2a
1d
e2
00
28
3b
df
f6
ed
e7
c2
e3
38
f4
18
d4
14
f7
17
f1
06
15
15
59
04
05
65
d4
3e
06
1f
4c
db
ee
c7
8f
e0
f8
13
a4
38
2a
27
16
2e
fd
d5
14
e9
f0
19
d6
3d
0d
cb
07
bc
bb
b8
13
0e
23
a1
b7
cb
dc
27
db
1d
d2
4d
b2
e6
cd
9e
b8
e0
18
9a
32
04
07
ff
d0
ca
b0
e2
9b
14
3c
3f
b4
c8
f6
14
20
45
2d
2d
b4
04
06
0b
ed
20
b5
1d
21
00
4a
fe
c7
3e
f9
20
18
56
19
b6
00
3e
a9
b2
25
ac
ae
35
17
09
24
ca
c3
ce
31
c6
c2
af
52
e0
0b
e3
dc
f5
38
96
d3
04
0e
d3
26
ad
03
03
cb
ef
cb
94
eb
aa
1f
4e
e3
24
17
81
b0
ba
11
88
9e
ac
d6
cf
a4
03
38
1d
f6
bc
a4
37
bd
aa
17
f6
d6
32
02
2d
9f
34
21
cd
e6
ae
0a
bf
fa
f6
38
04
3d
36
d6
fb
32
b5
17
2a
20
d7
db
f9
b4
36
14
cf
d9
c2
0e
bb
d2
f8
02
eb
fa
2a
da
25
bf
cc
e3
02
11
a4
d7
b4
f7
d0
bd
ad
16
15
fe
23
08
e9
d4
02
23
c2
cd
0e
e1
3f
81
bd
e2
2f
1a
f4
cc
d1
55
dc
2c
e3
2f
a5
4d
93
3b
d9
c2
0f
14
2c
fb
3f
b6
8c
1e
b8
c4
a5
c9
c5
aa
3c
3b
1e
ef
19
24
2e
64
aa
cd
20
82
b8
fd
01
f9
22
db
1a
05
e6
ff
2c
24
60
30
dc
31
c1
fa
f4
0d
b4
05
03
15
c3
e2
27
e0
25
e0
27
f1
da
ef
a9
fd
6c
f9
41
30
5b
37
0b
ad
bc
b8
23
fa
29
e1
1c
37
27
44
16
ce
4f
e9
d6
14
0a
e1
29
e8
27
14
fd
f6
eb
1f
54
25
d2
30
ee
d9
e5
14
ff
ec
ad
d2
a6
cc
f0
0e
15
0d
3c
4e
e2
43
15
de
20
b5
ff
ef
18
ff
37
b4
fd
5a
db
eb
ef
cf
9d
32
f7
13
e3
2b
06
eb
2d
e2
9d
92
ec
eb
cc
d5
f9
f1
27
9f
e1
27
0a
2a
f7
20
ca
f1
6f
14
fe
e0
04
0b
ed
12
20
cb
a6
56
22
16
14
81
d7
f7
ca
c2
25
25
e4
f0
12
1e
cc
19
d0
18
f7
2e
ca
6e
2c
a3
d5
0e
f9
ed
cf
f2
27
23
cc
5d
32
3a
36
c5
00
ea
00
f6
32
26
ef
03
1e
ee
e0
ea
cc
c6
12
ca
ec
13
00
c9
24
2e
06
4c
13
d4
07
d5
2a
0b
37
ee
e1
da
e0
fb
2c
1c
69
a6
3f
d7
e4
17
25
fa
cc
db
20
02
fb
2a
e2
b1
95
bf
f5
22
fa
2a
be
0b
24
09
3e
fe
c6
bc
a5
13
7f
aa
ca
47
06
f1
1e
f8
41
ee
15
1e
b0
f8
f4
0b
22
f2
1c
0b
18
ec
08
45
3c
3d
b3
3c
08
e0
0f
16
0f
13
18
f0
1e
1a
c1
ad
c6
da
da
e2
16
2b
21
09
c6
2b
0e
2f
0e
f3
a8
18
e6
9f
f5
19
2d
da
fd
17
09
2d
cb
19
1d
f9
ee
2f
ff
e7
05
e8
17
0f
c7
3f
c8
1c
40
c7
15
0b
1e
37
36
d7
56
e1
e4
11
61
c6
29
43
c4
db
37
ef
f2
23
dc
fc
e9
df
f0
42
1e
e3
c1
1b
e1
f1
f8
d6
25
2b
03
09
de
06
e4
21
38
12
ce
d3
ea
06
ec
fc
48
03
e9
e2
43
eb
18
0d
53
f9
21
ee
f8
0a
05
00
e8
df
09
ef
d6
26
f0
fe
f8
0a
08
e2
f3
fb
e8
05
2e
2e
09
c9
f4
d4
16
4c
46
eb
3b
ec
ee
2b
40
b2
0f
3e
f2
f3
12
12
27
12
22
17
fd
25
1e
e0
e4
d2
c3
f3
dc
04
2d
0a
29
a1
d0
02
ce
14
5c
d7
dd
f6
fb
d7
22
fb
5f
fe
1c
11
fa
11
04
00
43
14
d6
13
09
14
f3
b7
d8
18
07
f9
4b
ef
f5
37
0c
1a
e8
0e
c4
00
bb
b9
e2
cf
d3
81
b4
bc
24
2f
36
f9
0a
06
0d
a9
d1
f8
1e
f5
f1
d7
06
2b
38
f7
17
0e
f3
2b
ce
12
ca
3c
d0
c0
0b
d2
04
b8
0e
e3
e6
d1
13
cf
c0
e0
d2
db
fc
d5
f9
8d
49
ac
c4
16
ec
ba
34
e5
37
06
11
c9
21
ee
b0
02
d7
aa
31
cc
b1
01
06
30
e2
24
1a
b0
ec
e9
f5
10
f0
2e
b3
c3
a9
96
bb
9c
0b
9b
0e
99
03
b2
d6
d7
38
a4
b1
f0
33
fe
9c
cc
ab
2a
a4
d1
bc
eb
8f
09
46
bf
98
85
e2
e2
3d
ad
49
a4
e4
47
48
f3
f3
f2
15
e9
04
e2
03
f2
28
33
c3
aa
1e
33
f2
b8
86
11
b1
df
c0
11
b1
dd
ca
1a
25
ab
c6
b7
e1
2c
54
39
c9
98
c7
d0
a0
dd
f2
1e
13
f1
01
33
33
1a
91
af
cc
1e
14
36
e5
d3
4d
c0
d0
aa
d8
ea
ff
cf
09
0b
b8
a7
bd
ab
53
8f
12
44
10
df
cc
30
bb
25
3a
14
ad
dc
97
19
23
d5
0f
20
16
0e
da
3a
b2
e7
1d
f0
1a
92
f9
e3
15
e7
ec
08
b5
ad
e7
33
18
d1
c0
19
c2
de
01
23
09
f8
4c
ce
84
00
e2
44
41
b0
30
12
1d
41
ec
a2
54
af
28
e0
2c
e4
2d
cd
ac
27
f7
2e
ab
e9
ff
e8
10
19
05
40
3b
03
94
13
fd
2d
d9
27
b8
d3
9a
0c
a7
c0
e1
e7
fd
02
b3
2f
c9
9d
da
05
13
b5
bb
45
4c
c9
ae
ed
52
06
9b
23
2b
d4
ff
bd
e6
0d
ea
b2
e3
bc
42
31
3a
a0
a3
bb
17
2d
0b
b9
a1
09
a6
0b
fc
fc
06
bf
2a
be
29
b4
22
b8
06
58
f1
b0
f1
24
36
3a
df
c0
c0
2d
c5
bf
1e
8d
2a
df
fb
41
31
b5
f9
0d
d0
d1
d4
bd
27
13
e6
29
c6
ae
de
28
00
81
58
0e
b7
ea
2d
b4
c4
97
3b
03
ec
11
c3
1f
e4
1e
17
e1
1e
aa
53
f0
d4
d8
b7
f5
52
cb
15
b3
3e
d1
c6
29
3a
d3
f2
9e
b0
35
d0
9f
a4
d8
dc
a6
3c
17
eb
b4
ed
27
00
3d
32
ab
1d
01
d5
af
c1
ff
bc
f7
30
0e
ad
c4
d6
12
e6
b6
e4
d3
06
41
0c
33
01
a2
e4
f6
33
ce
0f
c0
b7
1e
16
34
35
cc
36
41
d4
c7
cc
f1
bd
2a
3a
d1
dc
fb
c1
ad
2b
19
51
f6
19
04
23
a4
f6
f4
ca
d2
c8
21
fb
de
27
14
fb
15
eb
08
ff
d7
ed
f3
a5
fd
18
02
ef
04
9f
f8
f8
5b
fb
be
20
c0
54
b0
f0
12
cd
4e
01
e4
de
02
26
d9
e4
b6
ea
f3
de
d2
b1
f5
ef
37
05
37
6e
ce
2e
fe
7f
ed
f6
eb
fb
c2
ed
f3
14
34
1d
bc
f3
1f
e2
1b
d8
cb
39
15
ef
ed
2f
0c
0a
15
ff
fb
30
29
1f
0c
25
28
1b
2e
35
13
05
d9
d5
d9
e0
46
23
1f
23
ff
d5
02
0f
ee
c2
58
1e
d1
08
f3
fa
e4
47
da
45
e5
e6
f8
fc
0a
da
33
eb
52
0b
58
1f
3d
c5
df
2e
ee
ed
3a
e8
2e
1f
0b
24
13
ef
ff
e7
00
1a
10
e5
fc
1f
6e
03
fa
cc
e6
f7
36
2e
33
3d
36
0c
0a
02
f3
f1
1c
f7
03
fb
fa
1b
f3
41
22
0e
f9
ef
23
b0
1a
d2
17
0f
24
03
d7
00
e1
c8
2c
18
fa
e2
25
12
01
00
03
03
11
05
ea
60
f3
0c
09
e4
19
1a
2b
04
2f
d3
d9
f1
f3
14
25
0b
ee
e3
f8
2d
de
e3
e0
11
0c
14
01
25
ea
1c
37
d8
12
4a
ee
09
1e
f8
47
11
e1
e3
d0
1f
b6
ef
28
f7
ce
26
43
66
01
26
1d
2a
34
de
16
0f
3b
f2
ea
c9
e7
52
03
be
1c
75
c6
05
f1
24
00
17
bd
52
2d
f3
12
da
2d
27
08
ee
0b
36
f4
f4
17
1d
07
0e
02
fe
d9
31
19
f3
ff
da
14
1b
2e
2f
d3
15
d3
f2
f7
10
d3
fe
17
34
23
01
0c
e5
30
04
49
37
e7
13
22
18
06
13
bd
08
13
ee
b6
d0
27
d9
d2
c8
1c
04
2c
d5
0a
fe
d1
ec
11
e5
f3
31
9b
12
e8
35
35
d4
4b
2d
f0
e7
b8
fc
cf
e5
34
e5
0e
dd
03
22
d6
0b
f9
d3
40
2f
31
cd
26
33
cd
23
dc
f0
e0
d6
1b
08
0f
2e
3b
10
00
db
07
0d
06
c7
63
f7
65
ff
f8
cf
c6
e9
e8
03
64
f9
51
16
fa
e6
04
13
79
e2
0b
ed
e5
15
40
f4
17
0a
18
fe
db
97
1e
e4
16
e1
0c
d2
04
40
0a
03
15
c2
32
df
15
e0
1d
f5
03
f8
16
f2
e4
6c
17
0d
03
df
0b
42
61
27
44
a8
19
f6
06
ed
ef
21
d8
ff
de
db
d0
1f
24
d1
02
c5
f7
d8
e9
33
4e
23
2d
41
0f
ed
e6
49
df
1c
d5
f4
04
eb
1d
03
81
1c
df
43
e0
c7
d9
f8
cc
11
e4
27
a5
fd
f7
ee
ed
1b
e9
10
b6
21
05
c3
0b
3b
e8
d5
54
18
0f
c6
11
17
d0
0e
1d
37
fc
e9
12
a9
d4
fb
26
e9
21
1c
2f
2d
2a
b6
fd
09
1a
08
01
dd
eb
0d
f8
0e
3d
de
1f
3e
52
10
03
d7
a6
fd
d0
f4
ca
f2
ef
1e
02
08
f4
0e
f8
2a
dc
48
f7
d0
2b
1a
b8
d5
27
cd
09
ff
fc
1d
d8
0e
1f
14
0c
0e
e9
c1
0b
f7
2a
f5
e7
1e
55
ed
b7
cb
3b
03
34
2b
f0
f6
d2
0d
f2
1a
ef
17
7f
05
09
2c
17
4c
99
05
15
90
e8
37
05
00
c7
18
f3
2b
00
cf
ec
0b
e3
06
ea
c9
91
0d
ea
0d
08
cd
d3
ea
e8
f4
0d
1c
26
e6
08
03
1a
06
84
db
e7
37
df
ed
12
f3
df
21
25
1b
e9
e3
ef
48
f5
f7
ec
f7
06
f1
f6
ff
e2
28
fd
e5
d3
18
c9
36
1d
c8
0c
0b
15
01
1b
ec
1d
50
ee
9a
43
f0
a8
06
15
fb
0b
e9
16
19
13
f9
1e
be
ee
f2
12
e6
de
1f
b5
0d
fd
0b
13
eb
f0
0a
0d
30
ed
ff
27
0f
e2
0a
2c
12
14
e6
41
b6
21
dd
fc
e4
25
e4
3c
fa
c3
29
da
01
f0
d5
00
38
54
cc
5d
de
17
4a
0a
98
de
16
ed
ed
09
3d
b2
1c
10
c5
e4
1b
9f
e4
e2
be
44
e8
24
cd
17
04
cc
00
0f
08
58
e1
e3
e0
f3
08
1d
6b
29
09
d3
06
23
44
04
36
3b
23
00
17
1a
ef
49
3b
1a
ce
01
0a
14
44
2c
43
f9
f6
1a
3e
20
eb
d9
42
f6
1e
eb
ed
c7
21
42
fe
28
ef
2e
1e
1b
de
48
3a
0d
bf
24
0d
9e
1e
03
ce
83
29
32
24
db
cc
22
ff
1b
f9
d8
08
3a
d3
1a
f5
18
f7
25
d2
28
f2
fa
f1
1a
eb
30
20
0b
aa
ad
18
d3
eb
02
5e
40
36
15
19
11
03
33
bd
08
16
0b
fa
93
ea
09
1a
f4
5b
f5
d7
ea
53
ef
20
ef
00
13
19
fa
eb
d1
24
3d
20
f9
0e
1f
1d
a6
33
82
e2
c4
f5
1d
fc
d8
e7
2c
ea
c3
06
24
74
2d
f7
df
b7
c1
f5
fb
0e
12
10
f6
08
13
f6
25
d3
e7
28
37
f0
f3
dd
ea
d0
e0
21
ff
33
0b
f9
7f
07
f6
f1
d0
9a
e7
0f
da
27
06
0d
1b
dc
c4
d8
c7
e8
de
ba
3c
ba
d4
35
a4
1e
df
c4
0a
d8
cf
d3
41
47
ce
3d
aa
f7
99
05
88
d6
0d
41
12
d9
b7
a2
b5
bc
2f
37
ff
e8
d5
12
bb
e6
c0
e9
aa
ea
c9
d5
06
18
39
da
9a
3f
92
05
5b
0e
2a
12
1b
f2
b3
ac
44
3a
b1
a1
3c
ac
07
0a
40
06
36
d1
2c
fe
c2
b0
35
bf
06
01
19
ec
0e
ae
9b
10
f0
ec
1c
f8
e8
a5
f8
02
d0
9a
96
f7
2d
ed
d7
ae
8a
3d
3b
d1
ab
e7
03
ba
36
08
f9
c4
48
84
f6
2c
9a
ef
c6
b6
9f
83
a5
46
e2
d9
8d
bb
b3
c0
05
2d
e5
35
14
a2
c2
c6
19
ee
bc
c0
bf
30
b5
0e
ba
38
b5
92
81
b7
ee
18
ab
30
02
f7
b5
05
af
dd
33
51
37
df
ce
bf
ce
d1
ea
c5
4e
d7
b5
24
ee
38
29
3e
e1
e9
b0
dc
0d
d8
c8
60
d0
45
a0
32
a8
28
4b
d6
d3
10
e9
28
97
d6
dc
34
8f
ca
cf
d5
f1
cf
ec
d5
de
cc
eb
3f
ca
ee
ed
08
0f
bb
1e
e0
0d
fa
60
c6
2f
d7
e5
35
8a
1b
f7
bd
03
e7
b1
cf
1a
95
d2
55
9b
97
a8
44
df
a6
0d
5e
4b
b4
5e
21
b3
f3
0c
ee
0e
af
f3
17
e6
49
03
dd
14
03
11
c7
02
17
09
cd
10
04
0b
ca
8b
20
f4
fe
2f
a5
d7
1a
cb
0e
d7
ba
5d
2a
12
0f
11
f3
2c
f4
21
d7
37
cb
cb
f9
2f
25
23
28
c6
e5
21
47
f6
08
ef
f7
99
3e
cc
2d
ae
c1
f5
0d
25
fc
c2
de
c3
e5
c3
e4
1a
ef
08
e0
43
81
e5
e6
f9
ca
dd
e0
56
37
22
fb
dc
0e
10
de
c8
08
1e
10
1d
0b
cd
06
cf
03
f4
f9
0a
c7
01
b6
dd
16
e1
dd
f8
50
18
c0
0b
d6
fa
41
ff
01
e1
38
e4
f8
f2
37
07
1a
ee
5b
ce
08
1f
db
ef
d8
f6
0a
1f
23
eb
fb
f9
a0
bf
01
1f
13
f2
0d
27
d6
13
0e
03
fc
fa
e8
f7
bc
15
ee
04
e6
e3
c7
f5
d4
d5
14
13
30
12
de
03
3d
1d
10
f6
21
eb
f4
e9
1b
52
e1
d6
57
e0
ec
b5
ed
4b
47
35
ed
3e
0e
1f
1a
d1
e7
45
d3
0a
45
db
ec
23
ae
e3
fd
04
23
ff
09
f1
fe
b5
d1
bb
11
20
fb
0d
01
3e
28
e1
ed
b9
4f
f1
cb
fc
ff
eb
14
43
ab
1e
cd
04
ff
9c
cf
53
c5
17
e5
d7
14
fa
1a
f8
48
f3
c7
08
ed
20
10
18
d8
0c
e9
ee
e1
ee
26
34
45
33
b3
03
25
e4
33
f1
e9
f6
81
09
4d
e1
09
ea
16
01
94
2c
05
dd
d1
02
29
e7
11
29
28
fc
11
3b
f6
22
a9
07
e8
03
eb
11
4a
fc
1e
42
39
fe
f7
d6
d0
c1
13
fb
22
17
e2
19
33
fc
40
29
37
fe
0a
0b
4b
48
f0
25
d9
e8
f9
2d
fa
cd
ef
04
cc
02
06
04
e1
01
da
c8
bd
f9
1b
fd
ff
0b
38
eb
ed
1b
05
d1
18
13
cb
0b
ee
df
ce
f5
e1
f9
e6
ed
e9
fc
10
20
13
f7
2e
e0
1f
cf
ef
fb
ec
e3
34
03
de
ff
0d
f0
f9
d7
d5
28
0a
11
b4
d6
13
f6
2d
08
05
0e
e0
e8
10
c2
d1
ea
22
f4
0a
0d
e5
e2
04
f2
fb
fa
fb
23
dc
af
19
0a
17
f9
1c
d4
f1
bc
ec
18
15
f5
e6
fe
d8
ac
30
db
27
d4
04
1d
fb
00
ed
ec
f2
fb
64
ba
12
16
15
32
bc
1e
05
a4
00
d4
f6
f5
d8
1e
f3
eb
d2
cc
d1
2a
fc
06
0b
f8
f8
28
db
f0
07
f8
ff
e5
1f
30
e3
b3
00
fc
e9
bc
20
e1
e5
0d
21
15
e3
cc
25
20
16
22
13
21
07
0a
28
d4
ef
2f
eb
f1
f3
16
ee
22
fe
ff
f0
d4
0c
19
f2
27
59
25
1a
e4
18
15
fe
1f
05
11
f2
23
1e
43
9f
f4
0c
f5
fc
c4
12
04
16
25
e3
dd
16
f3
fa
b7
c1
bd
ec
f9
f0
37
0a
0f
e3
24
d4
0b
f6
08
01
f1
02
f8
1a
02
c7
00
f1
fb
04
18
30
2c
fe
c6
f6
2b
ef
e4
f3
0c
01
f9
17
05
02
28
ee
ca
c2
e0
15
a5
01
e2
d3
ea
fa
09
89
04
2d
f2
d6
0a
03
e6
e7
f4
1b
2a
21
c3
fc
2c
f3
11
ba
16
0b
ba
ff
d2
f9
09
c3
cb
00
fd
f4
12
bd
d2
d9
30
00
0d
c0
fb
38
0f
09
b6
e6
33
c8
e3
0d
f3
46
ec
e2
d9
f5
ef
e9
0d
ea
08
f9
0b
03
00
1f
cd
fd
2e
ef
d2
09
15
19
12
eb
f2
29
1d
4f
14
db
e2
bd
fa
e1
c9
fd
3d
05
03
fb
15
07
c0
d5
12
54
e2
f7
14
10
fe
fa
d0
2d
2d
f0
eb
c5
42
ff
fa
18
e1
ba
31
dd
31
0f
02
e7
b7
1c
19
b2
7f
08
17
da
bf
bc
3f
1c
b7
00
9f
0e
00
34
d9
90
c1
b5
1a
d3
8d
04
35
ad
f5
f1
a5
b0
45
9b
0b
e1
f0
20
44
47
49
8b
2b
b6
cc
0a
a9
3d
25
d1
15
29
e2
cf
a9
35
01
f7
e5
c0
e1
1a
a6
31
2b
47
87
f8
bd
60
ad
8f
12
fc
42
bb
e2
3e
05
ac
01
21
54
2d
a6
d9
33
f5
0e
93
be
ae
c1
2f
2e
d0
db
ef
ed
0a
18
17
be
dd
e5
af
b7
8b
37
c5
ea
b6
f5
03
50
9b
f1
ef
eb
9e
9a
e8
25
e8
d2
34
a3
32
a0
f8
b4
0a
26
1d
9e
a0
b2
2c
c3
e4
32
da
31
9f
24
be
28
23
f0
b7
b5
9e
97
ec
b9
d4
0a
c3
1e
9b
53
d0
09
94
28
86
5a
b4
3b
3c
fb
ad
24
b0
e4
ae
d3
3f
39
97
ef
1a
03
44
d4
9c
11
24
5d
20
29
fe
47
ab
d6
91
a7
d1
08
9d
2e
60
2a
96
35
b5
ac
33
88
10
01
e4
99
01
94
c7
ea
3d
3a
d1
84
c3
d3
b8
a3
a5
44
b9
d0
d6
a8
62
b2
91
bd
83
dc
fb
3d
43
22
9d
34
8e
e4
9d
e3
0e
a8
b3
0c
a8
44
90
ef
b3
14
ed
9f
06
e4
42
df
bc
d2
c0
4d
81
14
bc
32
37
a4
45
9b
9a
db
ec
e3
b5
86
b0
0f
35
ae
26
ea
cc
f1
cf
ec
8c
2e
04
c7
d5
93
41
34
fc
d5
f8
f8
fd
24
f0
b1
bc
94
c8
ab
b7
a6
fc
ab
1d
d2
81
25
fc
23
eb
9f
1e
f0
a0
1a
0e
fb
16
e0
a7
3e
d5
b4
ed
db
bc
3c
db
c5
e8
fc
0c
2f
c3
41
25
02
cf
e6
c2
33
fc
e2
c3
02
40
1d
0e
d5
b5
e2
08
b1
bb
13
0c
37
01
cf
ee
43
b9
09
b9
57
ba
2c
ce
e9
96
32
f4
b6
08
d8
b2
fe
e8
c6
26
8d
16
07
a6
ba
ea
ed
c2
87
ac
d0
98
be
0d
e3
d7
98
c6
fd
3e
0b
ed
a8
55
c0
3b
eb
df
28
fe
30
3f
a9
ac
22
c6
db
e8
fa
49
b5
53
c2
8c
bf
1e
cb
f4
fe
a0
21
93
fb
ad
c6
f4
07
bf
a3
12
dc
c6
ea
3f
98
43
b4
f6
a1
e8
53
f5
be
0b
0d
32
2b
a4
e6
f3
cd
cf
c0
b7
f0
ad
c0
3e
ba
40
d7
11
c9
f4
3a
fb
ff
e3
a9
fb
d8
b4
0e
33
94
fd
b8
b2
44
c6
fa
52
c8
bd
da
21
f3
3b
3a
34
bf
43
b4
9b
1c
17
21
22
02
c3
f6
0a
1a
fb
42
57
b4
ff
bb
4b
05
f5
be
02
40
7b
2b
e6
55
10
03
eb
07
2f
de
df
d9
0b
e5
05
57
5b
df
04
d1
ab
ed
81
28
ec
2a
f2
f5
f9
32
da
ff
25
e6
17
f4
20
ef
fa
e6
fe
3f
2e
cf
fb
24
17
e8
e2
b9
e1
df
0b
60
e3
f6
02
25
38
3c
3c
c3
c1
05
32
21
b5
09
08
cc
22
0a
c3
d7
15
2a
1f
e0
bf
c8
08
1c
e5
eb
b7
47
17
34
e9
d2
fa
2e
f9
b9
0d
f6
0d
e7
e0
08
50
1c
3d
31
00
ff
06
1b
17
1e
f1
27
d3
d3
26
fe
1a
68
fa
cb
48
ff
cc
f3
17
f5
00
d9
ee
30
fd
c0
ea
f1
de
09
03
0f
26
2a
04
08
c6
f4
1a
11
f3
4a
31
1c
07
f1
ec
20
09
da
ff
ca
e1
dc
a2
28
21
17
09
1d
03
1c
dd
e0
38
00
f3
2a
fe
ad
1a
3a
b2
02
15
eb
b8
34
38
a0
ed
0a
f4
e5
3c
32
48
2d
ee
c8
9b
22
ee
f6
26
16
60
a6
b7
07
f6
37
29
10
1b
20
fd
f5
19
f8
f8
e9
f7
33
b3
be
f3
21
fe
31
dd
c4
f3
20
1f
19
1f
04
17
44
f2
fe
c0
12
1f
ff
0d
e7
e8
cf
53
04
24
d6
08
1a
62
da
d7
de
06
45
09
be
db
eb
e2
e7
a4
ff
49
af
fe
0a
1f
b0
c0
3b
1c
e8
3d
f9
2f
d4
f7
22
0f
2f
e1
f9
0f
0a
a4
20
f6
c1
3e
01
f9
14
b3
81
e8
ba
35
09
1a
e9
d9
af
b3
f7
f6
32
e9
c1
ee
cb
d7
e2
f9
06
3e
e7
33
33
0e
1e
f8
f4
0f
09
d9
eb
01
24
f7
1c
26
10
27
58
f0
19
14
f8
2f
cd
18
08
2e
d7
03
eb
1f
fb
1c
a6
ec
02
13
e0
20
01
2b
fa
a8
c3
f7
bd
02
fa
26
f0
b1
ea
02
11
10
d8
ff
23
11
ff
cd
25
d8
dd
2f
0f
a1
05
26
0e
e2
de
03
fc
bf
1d
19
22
fe
ea
44
e1
d3
06
f7
2e
cb
e6
02
29
f3
a6
fd
23
f7
fd
eb
e4
ee
d7
b7
05
bd
0f
41
e9
0d
fb
df
f9
d3
20
fa
da
c7
00
f7
1b
11
cd
ce
32
d7
fe
1f
22
d8
30
06
3a
13
f4
c3
f8
21
ef
02
27
c8
26
39
ec
10
c8
bf
14
b3
ea
53
fc
c2
da
01
40
f3
e2
ef
1f
02
fb
d2
ec
f2
10
dd
fd
32
10
25
1c
a8
ec
17
1b
e6
10
dd
d1
d2
f1
fe
36
ee
04
d9
13
1a
08
09
ca
2d
ec
e5
06
12
4a
17
12
0e
04
03
29
f7
1d
33
08
44
e5
ee
27
f3
46
3e
f5
1b
26
0e
ce
15
0e
17
1b
eb
06
05
27
c5
f3
2a
1d
f6
c2
17
f5
06
fb
0f
eb
06
09
03
03
1c
ef
09
eb
e0
f1
14
09
fb
1a
17
f2
ef
e5
f7
f7
d3
16
52
2b
08
16
f3
ef
2f
cf
03
e3
0a
ad
f5
e2
d8
ff
ea
ee
f6
03
25
06
00
28
b8
20
e6
19
d7
ce
fc
e1
e9
ee
ec
31
22
ed
c4
29
f3
13
f6
0f
ed
12
cf
fa
fa
07
0c
3a
ec
fe
07
fd
13
02
17
f1
2a
f9
fb
1c
04
f6
fa
f6
22
d0
3d
1b
18
09
b4
f4
cb
fb
0a
1e
d2
38
05
12
10
b7
05
29
4c
22
f0
ec
02
f2
cf
bb
f0
1e
e8
e8
cf
f2
1e
25
06
f5
20
f9
d1
50
e6
02
f6
16
fe
f6
7f
2a
39
08
29
09
b9
ec
01
ee
20
17
de
06
10
11
44
f9
e7
04
fd
e8
00
49
e9
2f
1a
29
d0
fb
fd
03
10
00
d1
1a
d2
e2
f7
fa
fa
da
ec
c1
fc
0d
24
1a
e5
12
e1
e5
24
f9
01
f9
c5
ff
01
df
ec
20
00
ec
2f
08
f0
d1
bb
d0
d8
0e
f7
00
dd
0c
ee
e2
15
d9
f6
3c
d5
1b
b6
1f
fd
49
9c
fb
e8
2a
44
d8
ee
bc
f2
2c
01
f6
3b
ea
2a
2b
16
f5
14
e4
1f
28
ca
d6
c2
f1
d1
11
dd
c8
33
9c
16
f1
0a
2c
e5
db
f2
e3
45
dd
23
e5
d5
e3
b9
3a
ed
02
33
3a
ee
fd
08
22
51
d4
e8
23
1a
d3
ed
f3
20
e2
01
33
e1
0e
e5
a4
cf
1d
05
da
bf
14
df
f2
2a
e8
2e
c5
1c
18
de
d8
b3
cd
ba
ca
32
9e
e6
c1
f4
b7
fb
0e
dc
10
15
24
ff
0d
2d
41
eb
ea
04
13
26
25
0b
d5
f2
f6
db
06
bc
fe
df
d9
fa
24
1b
f2
dc
0c
29
21
0d
da
c8
41
d8
c1
ec
e5
dd
08
38
d6
14
c4
eb
03
f5
d9
f4
d7
fd
13
f7
e7
dc
be
f8
05
e3
3b
ee
d6
e5
81
43
b7
f4
2f
d7
a0
ce
07
cd
35
34
de
21
0f
02
10
1b
12
fc
dc
d2
ea
17
eb
49
f2
0e
c4
00
35
b0
e3
f8
eb
05
a2
e4
0a
dc
d0
eb
28
08
dd
22
38
c8
da
2c
e0
c9
e7
ce
35
10
ff
b6
df
36
2f
15
2e
cf
ec
c2
30
fd
10
09
15
2f
2c
8d
ba
dc
be
03
f8
c5
1e
f0
c6
18
3f
1c
c8
ac
20
24
d3
35
fc
8e
c0
a3
c0
94
b1
32
92
c8
fe
41
de
5a
fc
35
09
1c
ca
28
07
a9
92
cb
07
c0
41
c3
1f
b3
93
4d
95
de
e0
c3
41
e0
f1
12
9f
a5
00
1c
e1
33
92
8c
ab
0c
3c
3d
e4
e6
e6
55
9b
a6
c0
e3
ab
29
a9
d9
93
e0
00
46
05
d5
f7
a8
32
f2
c7
d0
b5
43
03
35
05
c2
ea
d5
29
b5
90
a6
2c
0a
f4
46
1d
e5
aa
11
cd
a7
e3
1a
91
af
f0
dd
99
fe
81
c2
0c
b2
ff
e0
04
ad
22
f0
f9
b4
1d
00
02
e4
cd
b6
40
f8
aa
b4
f0
00
c0
a3
c6
b4
a6
5a
05
ec
a0
c5
f3
2e
4b
2f
36
2a
9e
ca
41
02
22
f4
0e
2b
04
0b
24
c3
a4
02
39
3d
aa
03
fd
cf
4d
a6
cf
91
a8
00
0d
07
89
2f
b7
e0
cc
d0
fc
33
4d
b4
9e
d4
cb
24
a8
92
b3
07
39
f2
9c
11
cf
05
b5
41
b8
a0
e2
09
1f
2f
23
b5
2e
3b
c9
c8
00
0e
af
15
f7
18
2c
fb
a0
ad
d8
2e
bd
8b
e2
02
bf
ca
2f
c5
e2
fd
23
3e
00
b6
d9
fb
e4
ed
02
f8
bc
13
1d
27
d2
0c
2e
0c
f6
08
48
16
4d
cb
11
cc
3b
02
0b
1d
e5
d7
ca
a6
f8
08
09
e7
1e
c3
13
f2
ea
e7
fa
ef
2c
eb
f2
20
02
2c
16
f5
1a
2f
04
ff
30
18
06
fc
e9
11
16
03
35
10
f9
e1
17
17
f8
43
23
03
1f
60
cd
16
21
00
e6
f5
1d
6b
f2
c1
3a
f0
ed
11
f6
e0
e3
e0
47
14
f5
01
03
10
01
c2
19
17
f8
03
cc
22
e1
ab
f3
f0
e7
2c
48
25
f9
e5
05
ee
30
ee
fb
d1
f4
07
df
fe
ec
dd
1a
a7
fb
07
d4
d7
01
01
1e
dd
eb
0b
c9
ec
f4
25
ad
e8
1a
b0
81
01
4f
3c
57
f9
e9
bc
10
0a
d7
1e
0b
d0
9c
f9
ce
21
df
1a
fd
ff
e9
de
2f
1a
e9
f5
f4
0d
d5
10
2e
f9
18
06
10
1c
ee
14
b1
01
eb
07
c2
46
f0
e9
e4
d6
07
08
ef
31
00
fb
da
f9
22
17
bf
e1
0d
bc
20
0c
d0
46
48
df
26
03
43
00
3e
09
1c
be
cd
f3
5d
f9
f4
ef
d4
e0
0b
ea
2e
e6
fe
c2
ee
1b
f8
d2
14
10
e1
3d
03
f5
f5
e9
24
0e
cb
2f
3a
e5
1a
02
38
0c
29
00
18
2d
e8
04
f4
2f
fb
bb
0a
35
3a
30
36
1b
0e
f3
1d
f5
1d
0e
24
2e
17
12
0d
18
df
08
ba
e7
18
f2
e0
fb
17
d3
04
fe
14
f6
30
01
ef
1a
a0
07
23
e6
fe
fa
3f
0f
22
06
1c
f5
d8
eb
07
e8
f9
fb
fc
ef
1a
c8
e7
38
dd
0d
fe
24
ec
d0
0b
d3
d2
c8
18
2f
11
03
1c
e8
3f
0e
16
ec
ef
1f
fb
f0
3e
2c
f5
10
38
fb
13
be
2f
ee
ff
06
0d
e2
0c
fc
d4
12
14
14
23
51
e0
1e
3f
fb
11
24
de
33
d8
e9
f0
f5
12
f3
e8
32
ff
10
08
1c
ea
10
ea
dd
f9
05
0c
2f
fb
2e
2d
0d
e6
22
04
0d
e5
12
e8
d6
23
2c
fb
a2
08
e7
e9
fa
f6
3f
e9
0c
fa
05
e2
d5
42
f7
3b
f7
f3
e4
3a
27
10
17
16
21
d4
e3
e9
3a
f0
18
01
fb
e2
f9
00
f1
19
09
e5
e0
f0
1b
33
ec
0d
20
e7
f8
01
dd
ee
fb
0e
20
2c
e5
d6
ee
f6
01
d5
f0
81
f8
21
20
38
fe
e1
12
e8
1e
dd
11
e7
eb
0b
11
0a
f4
10
f5
15
23
e4
f1
f9
c2
14
f2
0f
05
e2
e1
d5
16
db
f7
f4
17
e9
e3
d6
d7
15
cc
11
f6
fb
1f
cb
fa
16
21
bd
f7
04
1a
99
f8
de
f1
06
eb
c5
1f
f6
25
f9
ca
e4
05
0e
e4
c7
ee
a1
1c
e9
fa
e9
dc
1a
e6
f4
0c
21
0f
bf
db
15
bf
10
ce
20
25
f2
eb
34
1e
a8
17
10
c2
e2
f9
a4
11
1c
ed
fb
f3
f2
0f
da
1d
d7
f4
fb
19
09
f0
03
05
f1
04
f9
39
0e
fa
01
dd
0c
07
d3
0e
1b
0e
f5
10
ea
e3
fb
e1
b8
12
01
e8
27
f0
cd
d5
f5
c5
0b
a9
04
db
f1
13
20
0f
ff
f1
f7
f0
ef
d3
e3
e1
ed
d7
f7
96
20
30
ea
fb
fc
fd
ff
07
dd
0b
f6
d9
fc
1b
d7
ea
15
02
f4
e2
11
f3
e5
bc
fa
fd
1b
06
eb
f0
a7
0a
29
21
d7
0b
ee
02
d2
e2
1d
20
37
e0
c2
e3
0d
dc
2f
e8
f8
f8
21
0b
01
17
f7
cd
eb
e8
dd
bd
e7
fa
26
17
d4
d3
18
29
08
c7
f2
f5
bb
d8
bd
01
0d
16
ea
f5
15
06
b9
0b
21
0c
c7
fa
1c
1a
f1
e5
f4
d3
29
0a
21
fc
f2
ef
81
0d
09
1f
2a
06
08
df
50
3e
46
26
18
ff
2e
09
19
db
ea
04
2a
0d
31
e6
10
48
12
13
d5
0a
21
dd
e0
0d
1c
e1
29
01
e5
20
d5
0b
1f
24
b9
0d
2c
24
07
f2
a6
24
0d
36
1a
e2
00
bf
0c
00
ed
4b
5b
0a
df
14
e2
2c
f4
43
d3
e7
be
f5
11
d1
2b
41
21
32
2c
e2
0e
4b
1d
31
be
07
fb
b5
f2
0c
ba
ec
fe
e4
dd
0d
28
07
2c
e0
dd
91
18
0b
23
a4
19
4c
e5
ed
06
ee
dd
25
ea
19
f0
02
05
10
1d
0b
2f
1c
3b
e7
03
01
fd
98
df
ee
d5
19
d9
00
fc
ef
b3
b2
2b
1c
fa
e9
12
08
d2
33
d8
a2
1d
e7
56
15
7f
d6
17
ec
13
ca
f6
06
34
d3
f5
fe
01
e9
f5
2d
02
f2
2e
2d
24
25
bf
37
18
28
01
ed
22
17
ff
92
f9
15
c7
0c
9c
ef
03
fc
32
08
01
bf
0f
e8
ef
dc
8d
fe
e6
44
f1
1e
0a
40
de
cf
12
c5
0a
ea
3b
34
10
32
f4
de
15
3a
ca
0a
16
18
e2
86
29
18
18
0c
45
e4
34
e9
f3
30
e3
d2
d3
12
a8
21
17
05
f8
06
f0
f7
b1
f7
1d
00
18
20
21
24
30
f7
38
2b
11
bc
3a
40
be
09
24
e5
f8
e4
43
fa
d2
1c
1e
12
f6
0b
37
0c
6f
3f
ac
07
32
f1
11
ce
45
2b
dd
0c
23
e7
33
f3
cf
0d
06
e1
9b
d3
1b
fd
37
ee
6e
2f
d5
07
16
24
39
e3
f6
f0
d0
26
63
40
b0
d3
da
1f
00
0f
ca
2b
f9
18
39
11
ec
df
12
1c
e0
cc
1b
13
2e
92
01
e2
28
5f
7a
1f
33
0d
e4
d6
fc
3d
45
1b
0e
2e
30
e0
56
0b
fe
ce
40
05
08
cb
04
ff
4e
1d
3a
bf
47
4c
43
e5
26
f9
7f
35
ec
50
3d
47
1b
b8
14
40
e4
d5
2b
fc
4e
fa
2d
39
11
ee
19
51
15
10
08
0b
b7
09
15
10
3b
06
00
f0
10
20
2a
49
0d
11
eb
18
07
32
09
ae
f0
f7
36
40
f6
3e
2a
33
00
b6
0c
30
09
19
f8
25
37
de
26
01
fe
37
69
38
e2
d2
e0
77
dc
2c
10
f0
0c
f3
fa
ad
2a
d5
21
2b
f0
0b
07
05
dc
02
e6
e9
25
e2
ed
eb
03
21
03
21
fc
00
16
31
3f
0a
fd
d6
0c
34
57
fc
ef
f0
00
1b
11
1f
2c
db
2a
18
8e
06
22
e2
f2
e0
fd
1d
0a
f3
03
87
c9
fd
f2
27
f8
cf
fd
f1
15
2d
c6
9e
f3
0d
1f
33
08
1e
2d
cb
22
d9
0d
e4
3c
ea
eb
de
d7
dc
02
de
df
3d
3c
04
32
fc
0e
02
1d
28
d2
ff
d3
0e
b9
00
38
13
23
d2
ff
12
f0
06
0c
09
f8
d6
f1
e3
20
14
a5
f6
bc
06
0b
32
1a
05
18
eb
fc
e0
f8
01
de
41
f5
e5
e6
ee
29
14
03
b4
05
df
f5
b7
cd
2e
05
f8
11
4a
f6
e9
fc
06
2a
a6
db
19
b8
bb
14
e9
d5
d2
39
07
0a
21
4d
19
35
ee
42
1b
03
0c
08
b6
c2
eb
fb
b7
12
b4
bf
e0
dc
fb
05
f0
16
c3
00
65
24
9c
26
e6
f9
c8
81
c7
48
33
09
13
46
e2
da
e1
c8
e6
1b
0b
e8
1b
fa
fc
13
0a
c6
d8
fb
0d
10
2f
f0
48
11
36
08
31
2e
e5
48
07
fe
19
23
33
fd
18
fa
e0
d7
16
ce
e3
10
0e
1f
04
e6
ff
d8
cf
0b
4e
ed
d9
f4
d6
d1
fc
2d
10
e8
f0
03
f4
12
4e
f2
02
17
05
1a
f6
f7
00
f9
19
22
1b
ef
14
c8
aa
f8
11
2b
e4
94
76
cd
e9
12
f8
3f
e7
ac
00
0b
1e
d4
ce
ab
c4
0a
d5
31
f7
01
22
10
e0
13
9c
c9
c4
ae
ab
3e
20
ff
93
18
02
9f
cb
88
ac
be
df
c0
ad
89
de
8f
30
d6
f3
bf
d2
27
42
f2
dd
f5
0a
01
0c
03
f9
ca
c7
bd
fd
ef
23
cb
dd
15
bd
b0
56
a7
e9
28
d7
05
ee
d4
99
c5
3d
20
d7
c4
fe
de
17
b9
ff
24
a5
f5
d6
c2
2f
b4
ec
0b
28
4f
c4
ff
ae
b3
f9
27
f2
c5
3b
be
05
fe
16
2c
04
d0
aa
16
96
23
a1
06
db
b9
a8
fe
d2
05
22
e1
0c
22
1d
d0
e7
da
17
dd
d4
03
ae
1e
0c
0f
e0
ee
cb
0f
cd
01
c0
b5
42
d8
00
ad
d8
a9
f9
0e
8c
9b
b0
a7
08
b0
3a
59
06
d2
cc
b8
f8
f7
cf
c0
e0
ff
d5
ab
94
81
d8
12
1b
08
d2
10
17
c9
13
ec
07
16
f1
98
18
fa
b1
87
17
02
f0
0c
c0
ba
f0
8d
2d
be
49
14
13
38
43
e1
c8
36
b4
ea
28
26
9e
11
0e
32
db
be
1a
30
0c
b3
0e
9b
dd
d4
b2
b1
fc
1f
af
12
32
fd
cb
12
0d
24
ca
0b
b6
04
b4
d9
1e
07
cc
56
40
fe
1b
07
21
04
f0
e7
dc
0b
ed
27
d9
ca
cb
dc
07
3c
fa
e6
16
d1
c5
38
e8
1f
8a
23
fb
5a
38
cf
23
2b
1f
fe
17
60
71
27
fa
05
d7
ed
3b
e6
43
53
aa
fa
23
69
61
f2
0a
53
25
15
de
4f
05
19
fb
ca
19
0f
18
4d
8b
11
99
e4
b6
24
ff
0d
f8
26
f0
e0
0f
e9
e7
2b
3a
2a
b1
ff
20
f8
2a
1c
0c
d3
1a
00
97
1c
05
04
ed
2e
08
29
20
06
12
23
2c
16
34
e0
1a
02
0b
fa
30
fd
18
db
fb
2a
e0
4c
4e
f8
37
f7
22
16
1b
e2
c1
20
37
f9
1d
ef
e4
12
ec
0b
5a
ea
1a
d3
0c
eb
e2
2d
3e
d2
eb
06
ea
e7
29
1c
d8
fd
f0
f4
44
3b
19
e0
cc
0f
fb
33
01
e0
04
41
f6
2b
22
0a
1f
0f
cc
30
cd
fe
22
ee
7a
07
0c
3e
f7
e3
e9
20
f9
eb
c4
44
0e
34
26
d7
1f
bf
db
7f
f8
fe
28
17
05
f9
cd
ca
02
0c
01
f2
59
f0
af
07
2e
d9
30
ba
1c
08
da
fd
17
10
f6
bb
1d
16
d4
c0
2d
b5
3f
18
f3
d7
c4
00
d0
26
e8
2d
38
e2
ad
10
41
59
22
ee
dd
f3
35
e6
2a
48
0c
21
ea
17
ef
dc
50
a6
ee
27
f8
12
ed
21
bd
e3
2a
10
fe
dd
1b
26
e6
1c
30
d9
05
00
24
18
c4
17
56
33
f0
ea
cf
61
e3
06
41
0f
ca
ed
f9
0a
d3
34
0c
d8
04
fc
da
34
b8
15
fa
dd
0d
99
cd
e0
05
f9
e1
2c
f6
0d
e4
b3
23
04
98
0d
22
dd
06
ca
00
f9
be
fe
ed
bc
ed
f7
c4
93
04
03
fa
d2
e1
e2
bd
e4
32
e3
26
de
ec
0f
ce
1c
11
13
d3
35
ca
1f
a4
44
20
ed
be
e7
eb
c5
da
c5
d2
07
f1
29
50
f7
0d
0f
2d
fb
1f
d2
c8
a5
de
c1
23
ec
ea
fb
19
fc
f7
3a
3c
11
3b
27
1b
fe
fc
07
1f
e0
d2
df
10
04
12
39
f8
05
d8
ff
3d
e7
f1
b3
be
21
1e
f0
f4
de
de
d4
0e
fb
f8
f1
b4
1a
cb
41
f6
d8
07
4a
e1
12
50
29
09
0c
ce
cb
3c
ec
b0
a1
07
15
07
1d
f1
22
0a
fb
15
e2
38
a8
e6
47
dd
ba
0f
34
d1
e6
f1
db
08
eb
21
17
fd
24
fe
2b
a9
c6
21
e5
c1
3f
9e
89
c6
ce
04
bd
11
be
b7
ef
3c
9a
2b
1f
01
81
fa
fe
de
28
fa
14
f8
f4
e2
cb
47
e4
04
ff
21
01
a7
38
20
3e
eb
f0
ec
09
a5
46
34
19
fd
29
2f
ac
06
d9
23
f6
de
fe
01
1c
b6
55
1b
33
02
00
fe
54
cf
08
18
bc
fc
f3
32
9b
01
ca
d7
1f
10
30
e6
b3
c9
c7
ee
e5
e1
f2
20
2b
1a
22
fa
ff
12
1b
fc
fe
fa
08
31
ea
24
19
fa
4e
4d
27
36
6c
12
a5
1e
eb
0b
18
10
d1
f5
e2
e5
fe
ef
2e
07
ce
e7
06
16
cc
1a
de
d4
34
f4
f3
29
ed
01
15
fd
fc
e5
f7
d1
1f
88
2b
e1
de
15
35
df
24
cc
26
49
14
e5
d7
f6
08
ff
c1
17
eb
f3
f6
f5
09
02
ea
0a
d8
d3
1a
f3
29
ea
e3
ca
08
0f
1f
0f
ef
58
dd
ca
8d
2f
17
e1
17
22
e8
17
d2
ff
d3
25
5f
4e
2c
4b
b4
f0
0d
31
d9
da
48
ee
b2
10
16
17
1b
eb
14
f5
24
1b
1d
17
ff
e5
11
fe
f4
0e
ea
f7
c6
fb
47
11
01
10
34
37
2d
15
f7
f7
e9
17
39
f1
0f
e6
d8
02
7f
45
03
dd
c4
e4
f5
de
fc
21
41
19
35
b6
1e
d8
13
e2
12
0f
51
fc
31
f6
1e
9e
d1
3e
14
11
e6
00
f9
c9
ca
da
02
95
fe
de
f9
04
02
0f
31
d7
27
07
81
3f
b9
ec
d1
1b
2a
26
28
ef
1a
0c
17
3e
e7
6f
19
a4
24
55
2f
d9
46
26
d8
16
73
48
cb
13
c0
0c
0f
e0
69
22
e2
85
03
a8
ba
e3
f8
c6
42
0c
51
d0
de
0f
e6
e5
27
38
fb
a8
1c
1c
1c
b7
2b
64
1f
06
72
ed
72
10
fd
d9
0b
3e
03
b9
aa
f1
e9
13
46
c9
13
2c
f3
1a
f9
46
e2
37
d2
07
03
6e
dd
6b
f1
23
bb
11
e5
dd
e5
a8
10
28
de
3f
fa
e4
ff
fd
18
08
05
23
04
06
07
e6
fc
fa
42
cc
f2
b9
40
2f
b6
5b
6e
ab
3b
07
f4
08
1a
40
28
00
0e
df
24
0d
5c
ea
fd
0c
13
ea
43
ba
ca
e4
1a
16
e6
bd
27
18
d6
cd
54
09
f0
f4
d9
c9
33
bc
d9
c7
fe
1f
02
e1
23
f7
33
d4
14
09
07
be
ff
44
fd
14
27
34
e5
06
0d
19
c9
ab
83
e9
33
e0
e7
0a
ec
ef
cd
21
e3
39
df
fc
4e
57
14
14
00
1a
ae
eb
4c
1d
3f
f3
22
c3
e3
b0
17
d1
ea
15
24
28
da
19
de
4d
ef
d6
25
52
20
fb
d3
2f
ce
17
f0
27
fe
34
c8
30
15
ea
f3
46
de
ba
30
0b
f7
d0
00
09
f9
a6
e5
05
46
f5
15
5d
0c
fd
e0
33
ff
42
fa
dc
f3
03
f3
d9
d0
e2
3a
2a
2f
14
e5
15
f2
cf
59
2c
e9
2c
72
7f
dc
df
e9
f9
0f
41
35
06
ef
16
e4
15
e6
0e
4d
00
f8
0a
d2
c8
77
ea
d4
d1
07
de
29
13
ff
5e
f2
15
08
d7
d9
df
1a
15
2e
c5
ea
37
06
d3
6b
f9
d4
1f
33
bd
2a
e8
11
e4
6e
07
1f
17
fe
45
cf
ba
3b
fa
ec
2f
23
0e
23
86
27
04
55
1b
29
f4
30
1b
07
ef
19
5a
49
3f
1e
60
3e
33
30
f0
2f
10
08
10
0c
ce
07
21
ed
b0
cb
3b
1e
d8
ed
2e
d2
3e
25
0c
19
f3
2b
93
c4
f9
ab
f3
30
1b
c0
e6
1f
31
e9
e6
f9
cb
28
21
09
e0
0e
d9
be
03
d5
15
fc
12
01
30
fe
0b
ed
30
42
72
b0
fe
14
e4
0e
e6
bd
da
0b
41
26
37
ea
13
1f
3a
f9
ec
b5
03
1e
13
42
21
2c
38
ec
f3
21
fa
04
42
f3
04
da
04
34
e9
f5
94
ea
b8
e3
31
ab
d0
f7
fe
a8
33
3d
df
29
cb
4f
4f
28
41
ff
ba
d1
ee
e4
1c
31
af
b9
33
c9
98
1c
42
ee
9b
ca
f6
0e
d7
1b
48
d3
92
0e
bd
4b
be
ef
08
98
d4
e2
07
10
ac
96
24
ce
cb
14
53
af
41
e1
21
e1
ee
22
1a
e3
41
03
2b
14
3e
13
de
97
d9
51
32
dc
11
fb
f9
eb
08
e9
2f
f2
f0
1f
c8
cd
23
9b
28
0c
1e
e0
dd
fc
f7
12
d6
ad
f7
9b
e1
b8
23
04
a2
ff
d1
c7
12
e2
a8
d7
4c
9c
3b
1d
3a
f5
de
29
36
35
bd
0d
1e
0b
89
ac
39
e2
fd
2a
da
97
04
bc
15
09
d2
c6
0f
bb
1c
db
af
ac
a9
cf
28
a3
c8
d9
a5
36
fa
1e
0b
d0
23
0b
d6
2b
29
92
d2
e1
23
0a
06
93
20
19
a7
ab
fa
be
f7
13
1c
e5
b9
e3
2d
c6
b1
f7
31
d7
21
29
e9
08
ce
b4
40
a9
d0
1a
2a
18
49
ea
26
aa
98
29
be
81
e3
92
b1
ad
00
29
fe
00
f3
cd
f4
f1
e5
e9
2d
e5
a7
ad
be
11
aa
03
db
3d
38
c7
ec
b4
f4
a3
e3
b9
13
4a
b7
f1
dc
33
f8
05
c9
1c
c0
a8
e9
29
2d
a0
e6
9a
d5
b7
c0
81
bb
33
ba
a8
16
e5
26
17
34
fa
2c
3c
3f
e2
37
24
d6
fb
02
c9
2d
d0
f4
ed
c2
4e
ab
c3
f9
01
de
30
fb
b8
f0
da
c6
21
ff
11
a4
e0
ae
be
be
00
33
2a
26
c9
3a
4c
a9
ea
b3
af
e8
da
bd
3b
d1
0c
18
bb
0e
d0
c8
ba
2c
d6
b2
30
a7
da
d2
ba
d5
d3
f2
b4
a9
1a
1a
2b
ee
04
f7
24
4b
4d
ce
d7
ac
16
d2
f5
03
fb
32
d8
db
f9
e9
cf
04
94
52
3a
9e
b6
ff
b8
ba
cd
c2
f9
16
29
30
a4
fa
21
9f
cf
22
25
e1
9d
b8
24
18
be
f8
0c
9a
48
29
1b
12
22
1a
fd
e6
00
b1
bc
22
ce
cd
45
42
e3
e7
3d
fc
fe
dc
e5
8f
06
2c
c2
9f
2e
1b
ad
56
ae
d1
d2
d6
cd
d4
0a
16
28
34
e6
ea
a5
35
e7
b4
50
1c
b7
26
03
38
cb
2b
a5
08
15
e5
d0
37
b5
31
b1
09
b7
02
01
8d
3b
32
ef
f6
a4
0d
0c
1f
2c
19
07
b3
0e
8d
c3
a1
d2
ae
3f
b9
18
95
e2
d2
d9
1d
e2
d3
9f
d9
c4
f0
ae
54
24
0a
b9
28
0c
ce
f4
0a
e1
f4
2d
28
01
b6
26
10
27
16
dc
54
0e
1d
20
0e
e8
ca
e2
03
3d
43
3f
f0
4f
1d
da
f3
cf
34
f2
c5
eb
12
07
f1
07
f4
0a
43
e0
c8
22
18
e6
c2
ef
fe
df
e5
ff
13
e4
e3
ba
13
cd
db
df
3e
02
ed
6f
50
38
0a
df
3f
19
b4
01
16
49
e6
03
f5
14
54
f5
28
07
61
ec
14
1d
13
ce
e3
ad
22
fc
f3
1e
bc
11
16
f8
e9
21
0a
31
08
f3
17
fc
eb
d7
12
c7
ce
4e
e9
00
f1
d2
d8
b9
f8
de
0b
04
12
47
c5
f3
f7
f9
fd
04
24
e9
19
eb
00
38
f8
01
ea
f4
1b
e8
f6
ec
d2
00
0c
e7
bb
e6
c6
e0
35
19
ff
00
ea
19
cf
f4
cf
09
0d
e7
3e
04
29
e3
2b
f2
22
14
e4
27
6c
c7
fd
04
7f
0c
14
f8
24
44
10
e4
21
fa
21
d8
ea
12
44
d8
ff
22
f7
f0
23
21
0d
ed
10
24
10
07
fa
01
19
f2
b9
27
03
69
0c
5b
01
54
28
24
05
1f
e1
51
cd
c5
ea
f4
bc
f0
1f
03
05
2a
24
1f
1a
2b
5b
09
dc
db
fa
15
fe
d4
30
cb
f8
f0
ef
ee
ea
a5
09
d2
c1
05
e6
fe
9f
b8
2c
fd
e3
f4
2e
2b
ea
b9
ca
15
f9
ba
1a
cf
98
d3
e8
d0
fe
e6
a5
a3
3a
fc
b7
aa
30
23
db
fa
c2
19
ea
e6
b6
38
13
a0
e7
dd
8d
1a
15
20
cf
04
e1
10
2f
c4
1a
fd
d0
d1
ba
34
f9
02
03
97
f3
e6
fa
e9
17
ab
cc
e9
32
0d
20
ac
97
aa
08
2e
b2
1f
b5
de
21
86
b2
2a
20
eb
2f
c4
b2
a8
1c
fa
ba
47
bb
c6
cc
aa
fe
ea
b2
34
f2
47
16
c5
32
96
ea
1b
b5
1a
a9
8a
3a
2d
e0
f5
ca
dd
b3
2e
8f
9d
94
ed
d3
af
e7
06
b2
0b
ba
36
a9
24
f0
fe
34
af
4b
e3
3c
3f
b9
d9
18
14
51
a1
1c
e1
b2
c8
38
92
c5
b6
e4
0d
ee
ba
cf
03
d4
e3
ba
0f
fe
b1
fd
d5
0b
e0
1f
f4
e0
27
05
20
2d
ae
98
e0
ff
2c
d4
38
fb
a9
a8
55
b8
f1
07
27
b1
c9
00
c7
df
a4
b4
ae
36
0e
aa
e8
e8
bf
23
a2
b6
21
ff
8f
15
2c
f8
04
e5
c5
e2
25
c5
06
c6
0e
a5
28
cc
c1
d7
07
fc
0c
a4
f7
12
81
16
ba
fc
d2
fd
f9
30
fb
e8
52
24
de
2b
f2
bf
2c
03
63
e3
4c
07
00
f0
e0
42
00
de
0a
f8
e0
1c
ea
1b
9a
fe
29
1b
f3
25
25
26
2c
ff
14
09
e7
2c
11
f9
06
ec
06
e3
30
04
cf
2c
dd
f2
ec
d6
f2
ce
d4
d6
f8
0d
e0
f6
14
0b
1f
24
03
f3
f5
21
0a
03
39
c9
39
0f
2f
da
f9
c4
f3
ce
ee
21
f1
ea
d7
f5
ee
f6
d9
c6
a7
23
35
e5
f0
c5
f3
bc
d2
2b
e1
03
ec
27
cb
fe
09
33
ec
0a
a6
f8
05
1e
bb
1a
2c
01
19
9f
f9
f4
a7
30
c1
dc
30
0d
cb
e0
12
0a
ae
f9
05
14
f1
fe
e6
09
e9
2e
d4
2a
dc
b7
e2
bf
e4
f5
1a
c3
19
ff
dd
f2
12
24
e9
18
2e
30
3c
f6
e0
42
38
d5
44
21
f7
0a
35
f3
30
13
fa
e9
fd
59
07
07
2d
05
eb
df
06
13
e0
1a
63
31
11
d3
f8
22
1c
dc
d4
e0
f8
da
2b
f3
11
7f
fa
0e
c9
e5
e0
1e
38
db
21
0d
1c
24
e8
38
2d
f4
0f
cb
ff
ca
db
fb
0c
a8
3d
d6
0e
1a
09
42
c9
51
2c
ea
d1
0b
c0
14
26
bf
02
e3
56
1d
d1
22
d3
54
18
f4
7f
f4
46
32
39
c3
2e
30
d3
c3
fb
0d
d8
ea
32
14
12
10
f6
d6
e7
ed
13
36
dc
2c
da
f7
31
f4
6e
1b
1e
08
e8
fe
e0
0b
ef
55
f7
dc
f0
3d
e9
c6
18
f1
f0
f1
14
1a
08
fa
b5
2e
4e
08
19
01
da
ec
30
ec
d4
d0
ee
0e
27
b5
2b
28
f7
e0
26
e7
d7
35
2e
0f
ae
fc
e4
bf
09
2d
de
e0
d6
e2
27
32
e3
0e
38
0a
c4
f6
dd
ff
e4
f6
02
12
10
0e
fe
02
f2
1d
06
df
36
fb
d3
3f
0f
10
3d
eb
f2
03
ec
17
ef
e0
04
07
eb
1e
19
fb
18
24
c6
b8
f6
06
1d
0e
e8
ff
f5
df
fd
c6
f0
f5
26
2d
32
f5
1f
d4
32
13
43
e0
04
38
e2
50
20
f9
02
35
2e
ba
c7
0d
19
f7
ee
0e
fc
0b
ad
e2
f7
f9
35
1b
22
0f
fd
0b
bf
05
2e
c2
3e
2f
f0
f3
1f
26
09
ef
f6
fe
ec
d2
28
22
e5
11
e3
ef
fc
dc
1f
d6
fa
e7
18
1f
de
21
ea
fe
05
f4
cf
45
38
cb
ea
0c
f2
22
11
d9
32
24
dc
00
18
dd
d8
d1
ad
22
1a
14
fc
18
2a
bd
e9
08
02
0f
23
11
c2
b8
c8
c8
ed
fd
1c
e7
06
fa
cc
39
b9
22
ed
fc
b9
b3
d5
0b
19
e2
2e
f2
4e
22
ff
e4
e9
ce
07
23
2e
d7
e1
18
ac
c9
e0
f7
f7
10
f5
f7
be
d1
25
d4
37
d0
ef
0e
c1
31
f6
3f
dc
26
38
2e
d9
30
20
28
bd
26
cc
0a
fd
18
98
e9
e7
de
0b
ec
b4
2f
e2
d4
a4
e9
b1
cf
11
35
0f
ad
9d
81
3a
9b
19
cc
00
ba
e9
14
b1
1b
12
2d
d1
38
a2
ad
d3
d9
e7
0c
2f
20
d2
d2
11
29
05
2b
df
e3
28
d0
df
3e
c3
40
a3
c1
d7
17
a7
e6
27
f6
11
1c
c3
3d
c6
21
cb
01
e4
e2
34
0c
2d
2b
e2
fa
d0
1a
15
f3
91
e3
39
e5
b5
42
ff
d6
cc
c6
c8
c4
3f
fb
d1
e5
3c
15
ed
c9
cb
0c
bd
17
bb
01
d4
d6
cf
28
be
c2
1a
42
0a
01
d5
31
0d
fa
eb
ca
cd
d3
1e
dc
f7
1b
d0
d4
02
2c
17
00
ee
a4
24
41
fc
b8
a8
a5
2a
d4
c6
bb
ed
dc
0a
3b
0b
3e
f0
aa
cd
c9
37
c3
fe
f8
f7
b0
0e
d6
05
fd
d2
eb
09
33
e7
13
e4
03
02
d3
3b
1b
35
f5
4c
0e
26
fc
06
19
ad
03
fd
cd
1b
da
e7
12
b5
bc
15
ce
98
fc
b7
29
08
1d
b3
21
bb
c2
28
d2
d6
02
f4
36
3a
09
d0
3d
f3
2a
43
bb
03
ee
0f
1a
57
04
e2
fa
20
e2
d2
e8
f3
f3
32
26
f7
ee
06
d6
c0
dc
b7
01
e1
ef
ab
bc
18
c3
05
b5
e0
20
23
3e
a2
3f
f0
b1
0f
11
d4
9b
ea
bf
05
f1
dd
24
d3
10
dc
9e
09
4d
c3
cb
c9
bf
18
ca
1b
2c
97
b2
30
ce
b4
df
13
23
10
13
0d
f7
23
31
bd
c1
aa
0c
0a
22
df
36
31
b6
b4
b9
14
da
36
ac
83
aa
b1
2c
ca
52
f8
cb
11
1d
c7
f3
a9
c0
ed
bd
03
8e
f6
c6
1f
f0
af
f7
a7
b4
0e
c5
93
f0
dc
3d
06
13
f4
d5
d9
8b
f4
c9
ef
ff
a0
1d
f8
c1
1c
c9
d8
0a
27
ca
0d
ee
c0
db
c0
fd
1e
dd
3a
22
06
dc
23
b2
a1
1c
b1
09
de
fb
d4
50
9d
c5
81
22
08
ae
ff
2b
ba
a9
b8
31
c0
da
ee
4b
c2
1f
1e
ac
ab
3c
43
27
ca
16
fd
da
fc
07
9c
10
e3
95
19
f0
ba
e2
a6
d6
12
f6
2b
dc
ed
4c
c7
c6
03
48
bb
c3
3c
ac
d5
c8
fa
6a
bc
3d
42
e7
0b
1f
32
bb
d1
3e
e7
0e
39
f6
ff
e7
78
dc
3a
f1
fb
f7
05
fa
11
df
3a
05
22
39
33
ea
ec
0a
24
03
16
3c
fb
15
cc
f6
d2
e0
27
12
54
ad
08
fb
ed
0a
16
07
e2
19
bb
cc
42
f4
c3
1b
e5
34
2a
d1
e1
15
f3
20
e9
f8
35
bf
e0
fd
e1
fa
28
41
ff
02
b1
f9
07
fe
fb
3a
0f
15
c5
25
18
35
25
05
3d
cf
cc
0d
bf
9e
5f
1a
34
f3
4e
a5
19
f6
07
fe
22
dc
28
1c
14
3a
f4
dc
ef
24
eb
0b
4c
3c
20
dc
0f
e2
1b
1f
0b
ee
f5
07
0d
46
ef
30
fe
05
d9
2c
bf
2a
2a
30
0c
f0
11
f0
e3
b2
29
0c
ee
c6
f5
2a
07
fb
f0
fc
64
19
0f
1a
27
03
eb
e4
17
74
c7
37
c1
e5
18
01
f0
dc
0b
1b
e8
f7
de
3e
0e
29
0f
09
07
05
f7
f6
13
81
1e
13
e3
12
22
29
b6
be
9e
3f
35
35
08
f2
c5
f5
14
fd
1d
4f
fb
e5
00
0f
1e
f3
c4
f3
fd
d6
17
cc
0f
dd
1f
f2
2d
ed
d2
08
01
dc
da
1e
18
01
ee
01
cb
36
03
ee
db
a3
0c
b0
28
e4
47
d8
08
35
ee
32
ba
b5
0b
d9
18
2f
a1
90
03
d7
20
1d
19
03
e0
39
cc
f5
40
15
f9
37
20
ae
dd
fa
21
bc
df
1d
ec
df
c2
21
12
1a
f3
04
25
10
11
cb
4b
13
2a
20
22
cb
3b
d7
2d
35
23
ee
fd
0c
be
18
28
3c
d9
dd
f6
08
96
25
c9
af
06
22
e5
b3
20
a1
2f
14
e8
38
b0
e9
c7
c2
02
8a
df
14
1c
fe
a8
b8
47
fa
09
1c
bb
fa
dc
ef
16
c7
11
0f
0a
f8
fd
23
d2
26
d7
c3
eb
2b
f2
13
b6
0d
1d
e2
c5
e4
12
f9
1b
33
f2
0a
1c
f3
ca
d6
b4
fb
c5
3b
c3
29
04
af
df
21
1b
3a
c5
35
98
ba
da
28
f2
d4
2d
cc
a9
ad
de
d1
ed
f2
3d
10
94
9f
ea
13
2a
43
b5
d9
05
13
d2
0a
d0
d3
2c
14
9f
c0
c1
f4
a4
f8
a9
fe
bd
29
2a
da
97
c1
2e
d7
b2
d0
5c
da
06
05
24
2b
ac
ae
df
17
f8
c3
ce
f3
cb
f9
de
e3
e7
3f
e8
1c
f9
81
e0
a0
f8
e4
1a
aa
d3
d6
54
15
cc
f7
c7
00
ee
e3
ec
2f
e9
dc
b5
f4
ee
14
e7
1b
f9
d0
32
f8
e9
04
c3
fc
ec
fc
0a
e9
05
46
b2
e4
ec
18
f7
1a
dc
db
1c
21
27
e5
f7
f2
0f
24
41
ea
3a
23
df
b6
f9
fd
3c
e7
ef
27
07
09
e2
2b
1e
3c
02
c3
11
16
0f
cc
5a
13
bb
f6
f1
08
f9
f3
d0
0a
b2
f9
07
51
34
3c
61
d1
fc
01
0a
ea
b1
f8
1b
0a
1f
40
3d
0f
cf
13
e5
39
e5
e3
db
e1
b7
14
f8
94
01
ee
20
d5
b4
ea
19
c7
2a
41
1f
ca
fb
61
f5
07
cc
ec
20
27
11
ed
08
24
1b
f2
04
b6
2b
12
0e
b2
03
3a
e1
0c
18
26
ea
ee
20
1c
f3
12
37
32
23
fc
df
1e
fd
09
28
c4
e6
f7
fd
08
0b
f8
1c
0c
bb
c9
1b
fc
10
ff
dc
d9
7f
28
1c
b3
34
27
dc
04
01
f7
cd
0a
c6
3c
d8
52
f9
19
16
e1
d6
e9
b3
0a
66
3e
34
00
06
23
43
46
f5
0a
27
ec
1d
09
09
f4
bc
de
e7
29
d3
0b
3d
12
ec
66
de
0d
1c
21
4b
d9
e4
93
e8
fd
e7
d1
2b
0a
d4
c9
f3
01
a4
29
43
c2
22
03
cd
b5
fa
4f
23
c2
24
05
df
17
bb
48
27
14
a5
06
ea
09
4c
56
ff
a9
03
05
ac
10
f8
31
f8
c6
7f
f1
04
ab
36
3c
28
e1
cd
16
f8
07
e8
00
2c
c9
e7
34
fb
0b
22
4b
00
43
07
b9
2d
4b
31
3d
33
1e
12
c9
ed
f5
40
08
29
40
a0
f2
23
15
6b
26
cb
f7
4e
38
06
c8
18
fc
30
d7
be
fe
14
21
0c
77
2f
08
f0
5e
ea
e8
2c
0d
1e
fd
ef
af
13
f8
e2
e2
d8
4b
1d
e7
43
18
12
e4
53
f3
d9
13
15
2a
24
2c
1d
f5
cf
ee
31
1a
ee
1b
fa
10
dc
e3
2a
ff
bc
09
fe
d5
e4
02
05
19
cd
c1
40
fc
e9
1e
18
e4
25
a9
21
0d
df
ed
f9
15
1a
18
44
3d
27
da
06
29
65
1c
2d
06
e6
d7
db
e9
e8
0d
02
2e
dd
1a
0b
51
cf
c4
fa
d2
f2
0d
f4
38
11
0d
24
e7
71
e0
e0
e9
2d
06
06
db
e9
08
fc
e8
14
d3
1b
ef
e0
f2
33
e1
dd
4a
d3
4b
e8
e8
fe
fb
1f
31
0a
f8
f3
b2
e4
50
3b
e1
f0
27
66
ec
d0
1e
da
27
bc
18
19
1f
e9
01
e9
0c
e1
3d
50
25
24
e9
16
fb
00
2c
1e
1b
f2
02
52
ed
03
c9
9f
fd
c8
8c
c7
36
b4
10
fd
e2
fd
fc
c3
9e
07
96
af
bb
38
cd
b3
04
e3
f0
ce
cd
20
ec
ef
be
23
ae
bd
35
f4
16
1b
fc
be
9e
c2
cd
42
dc
08
27
ce
11
f1
2f
c8
fc
b9
30
f5
37
9b
b8
07
15
22
d2
31
dd
8a
a0
de
d1
05
0e
e4
36
26
3a
bd
c3
4a
57
ea
f0
bb
c3
f5
4c
e8
bf
98
47
d8
ff
ed
cf
ca
da
df
a9
cc
ad
a3
12
2b
be
a6
dc
b3
f3
26
24
c2
22
b8
e1
bc
47
be
b9
00
00
0b
b2
b2
2e
fc
dd
ea
2c
a0
24
9e
0d
d2
df
de
17
bd
02
ac
f3
cb
b0
ea
ae
2e
9f
dc
ba
4a
39
23
e6
f3
b3
e8
06
9d
01
20
26
e2
b5
0f
c9
c6
fa
0b
3e
c2
48
02
c5
a1
b9
df
36
d3
d3
2c
da
ac
b4
42
25
07
15
3a
fa
ca
fd
f7
02
49
e6
f7
ec
13
12
18
fe
cc
81
0c
cc
db
3f
1e
4b
2d
30
36
8b
00
dc
10
08
2b
d3
26
d2
ce
e0
1d
4d
2d
aa
ed
20
de
44
f6
2b
db
bb
a5
c4
af
1e
d4
ed
d9
bb
f0
e3
bd
f4
bb
a8
3f
9c
1c
2d
cc
c8
bb
d8
# End Tensor

# Tensor Name (TFLite): tfl.pseudo_qconst1
# Original Shape: [np.int32(10), np.int32(64)]
# Dtype: <class 'numpy.int8'>
# Scales: [0.00345197 0.00552934 0.00328908 0.00286847 0.00411476 0.0036883
 0.00533672 0.00475214 0.00444092 0.004352  ]
# Zero Points: [0 0 0 0 0 0 0 0 0 0]
b6
2e
e1
15
da
92
4e
f5
bb
b6
e0
d4
6c
4a
ba
fd
c6
01
54
35
45
1f
18
ca
9f
f0
d6
2f
e8
ad
ac
e2
ad
b7
1f
96
90
34
32
11
c3
2e
14
d0
7f
d0
2e
cb
ef
30
42
2f
a9
85
2b
a1
0e
a6
1a
56
d9
f1
58
d9
f2
2f
cb
3e
04
34
3d
19
fa
2c
b0
06
fc
c9
5f
c3
e8
2d
01
fe
dc
2b
0f
dd
b8
f2
ed
26
e8
0f
2c
43
e5
23
c6
ef
14
23
0f
cf
db
27
36
ac
ee
f9
32
bd
28
cf
81
fb
26
3f
0f
45
13
c8
1a
fb
12
cf
05
27
d4
b7
b3
f1
d0
29
6d
eb
a2
d3
e4
1d
57
e5
9e
64
05
bb
37
03
81
00
07
b1
d4
df
59
d2
a9
d3
c5
fd
bb
d0
35
10
68
f6
c5
bf
79
58
1b
4b
c8
d4
cd
1d
c8
a3
e6
c0
d7
4b
ee
c7
e0
c4
13
62
14
e1
ad
4d
5e
1f
54
a5
21
c9
b4
c3
f8
01
8a
3a
06
c8
95
90
1d
3d
01
c9
7f
ed
31
58
1c
4d
e9
30
42
e8
5b
85
12
a7
be
db
44
d9
3f
20
18
92
1f
39
33
b0
55
cc
a6
e2
d6
96
c9
ed
82
fd
a5
cd
4c
27
a5
07
ec
c3
b3
bc
d7
14
43
eb
e4
ec
d1
d6
21
3d
b7
cb
e1
11
1f
d6
3d
e6
a8
9f
b0
d5
34
60
08
14
b1
8c
2f
bb
e9
3b
3e
cf
2f
da
e4
c1
1a
d1
24
ed
03
e3
ba
a9
81
c2
28
ed
15
25
1c
10
b1
eb
21
ac
2c
c9
39
19
3b
da
f7
bb
cd
09
f0
d1
5f
49
ce
c8
e0
2d
f6
0a
cb
0f
c6
0b
01
cf
f6
12
e1
55
ae
10
d0
29
2c
bf
f6
ec
0e
c7
39
f2
cf
81
c5
d1
5c
2e
0e
d9
c0
1f
fa
bc
02
dd
f4
c2
e7
19
d3
bf
d3
29
f3
32
94
d0
bd
14
1d
fd
49
00
df
dc
cf
f9
9c
df
b7
ee
04
08
21
12
ae
d7
0d
4e
18
2c
2b
22
00
c6
11
13
d1
e0
2c
d5
eb
7f
0d
20
e7
ed
e2
1b
de
22
e0
28
e1
e0
16
12
da
eb
1c
da
e7
10
f5
11
1c
fd
05
45
a1
e4
c6
1d
fd
d1
88
25
d4
ec
27
f6
7f
1a
ca
24
c8
c9
fc
0f
1a
3a
04
dd
0b
e5
16
49
f1
96
20
cf
9f
f0
e4
27
33
97
33
c2
2b
e7
48
e5
33
09
c4
0e
0f
02
cc
1c
c4
01
1e
c2
de
2c
2e
c4
cf
bb
28
aa
f3
f3
2f
20
72
4a
d2
98
dc
f4
fe
11
f2
10
ca
a3
40
3f
fd
bb
07
07
06
ae
34
e4
b9
bb
5b
bc
de
35
b8
7f
e7
cd
47
ed
f5
04
f0
30
b8
fc
e7
b7
e7
1c
38
bd
0d
51
ac
ee
bb
f0
d1
25
a6
f3
0b
09
2f
3a
16
34
18
37
c8
3e
d9
15
00
1b
c9
ce
a3
e2
be
d8
e2
c1
de
22
23
bd
61
da
e8
06
30
a7
2d
5b
d8
11
e3
fd
1f
ce
cd
c2
f5
25
35
2a
b4
df
51
09
20
e0
ee
d5
40
42
ab
f2
c8
e6
bf
fb
3e
17
c8
c9
db
81
0b
e5
# End Tensor

