# Bias Weights (Typically int32 from TFLite) - Keras Layer Order. Each 32-bit value on one line as 8 hex characters.
# Tensor Name (TFLite): tfl.pseudo_qconst10
# Original Shape: [np.int32(8)]
# Dtype: <class 'numpy.int32'>
# Scales: [1.1724896e-05 1.0012295e-05 1.1638280e-05 9.0991161e-06 1.0647376e-05
# 9.0818821e-06 1.2235658e-05 1.0215829e-05]
# Zero Points: [0 0 0 0 0 0 0 0]
00000428
000006d2
00000da7
ffffdcb9
00000762
00000840
fffffd3d
0000079c
# End Tensor

# Tensor Name (TFLite): tfl.pseudo_qconst8
# Original Shape: [np.int32(16)]
# Dtype: <class 'numpy.int32'>
# Scales: [1.6124026e-05 2.0621648e-05 1.9174009e-05 1.7035582e-05 1.2814649e-05
# 1.5057506e-05 1.6820495e-05 1.3369229e-05 1.2303711e-05 2.0747177e-05
# 1.1981409e-05 2.9511421e-05 2.0135501e-05 2.2213480e-05 1.6622442e-05
# 1.2318272e-05]
# Zero Points: [0 0 0 0 0 0 0 0 0 0 0 0 0 0 0 0]
00001cc2
fffffc39
fffff8f8
ffffebb2
fffff244
fffff92a
0000075a
ffffdd3c
fffff3e3
000007f5
ffffe494
000010eb
fffffcd0
ffffff51
00001da7
fffff031
# End Tensor

# Tensor Name (TFLite): tfl.pseudo_qconst6
# Original Shape: [np.int32(32)]
# Dtype: <class 'numpy.int32'>
# Scales: [5.0182447e-05 4.3072996e-05 2.8366434e-05 2.7194470e-05 3.5214111e-05
# 3.1998552e-05 2.6456853e-05 4.0170369e-05 3.4124179e-05 3.4722405e-05
# 3.2007028e-05 4.0082185e-05 1.0846824e-05 2.8918905e-05 3.6365360e-05
# 2.9058512e-05 2.9350595e-05 2.4637870e-05 2.9652054e-05 3.2039803e-05
# 2.7668471e-05 2.4326506e-05 5.9676840e-05 2.7809294e-05 3.6470326e-05
# 2.9043404e-05 3.4075783e-05 2.7878976e-05 2.5009647e-05 3.7258535e-05
# 2.7183392e-05 4.1076568e-05]
# Zero Points: [0 0 0 0 0 0 0 0 0 0 0 0 0 0 0 0 0 0 0 0 0 0 0 0 0 0 0 0 0 0 0 0]
000004fe
000009cc
00000b89
ffffff34
0000089a
00000e90
fffffbd9
0000194a
000017c8
00001fe3
0000157d
ffffeff7
ffffeac3
fffffe39
fffffe8b
fffffbf1
fffff534
ffffded6
fffff6c1
fffffb7f
fffffc16
0000310e
0000028d
fffff4d3
fffffc32
ffffeeec
ffffe9a8
000015ba
000015af
000014e2
00000034
00000e52
# End Tensor

# Tensor Name (TFLite): tfl.pseudo_qconst4
# Original Shape: [np.int32(64)]
# Dtype: <class 'numpy.int32'>
# Scales: [7.3472867e-05 6.2006533e-05 7.0237984e-05 7.4117837e-05 7.2491624e-05
# 4.8203859e-05 5.6731482e-05 6.4139596e-05 6.3450250e-05 6.4538697e-05
# 7.7164041e-05 4.6871639e-05 7.5636810e-05 1.1639788e-05 2.3577968e-05
# 6.1157763e-05 7.2210889e-05 8.8668778e-05 5.6905883e-05 7.3840383e-05
# 1.4968262e-05 6.8367626e-05 7.4215735e-05 6.6267698e-05 6.7181427e-05
# 6.8396614e-05 7.8223035e-05 9.1273527e-05 6.0964991e-05 6.8045694e-05
# 7.2259361e-05 1.5852103e-05 6.6724730e-05 5.9377584e-05 5.7064259e-05
# 6.8693756e-05 6.8295478e-05 1.3829869e-05 1.5816142e-05 7.4683463e-05
# 6.9630980e-05 5.8139463e-05 7.8511803e-05 6.0624476e-05 2.6407444e-05
# 6.2759464e-05 5.8709997e-05 6.4670341e-05 7.9258411e-05 8.9173758e-05
#7.2192517e-05 4.0110761e-05 6.9082489e-05 6.5922351e-05 5.2589516e-05
# 8.1465783e-05 5.7073979e-05 5.7250294e-05 7.5445576e-05 1.2731825e-05
# 5.7669848e-05 3.6231148e-05 9.0810834e-05 6.8570691e-05]
# Zero Points: [0 0 0 0 0 0 0 0 0 0 0 0 0 0 0 0 0 0 0 0 0 0 0 0 0 0 0 0 0 0 0 0 0 0 0 0 0
# 0 0 0 0 0 0 0 0 0 0 0 0 0 0 0 0 0 0 0 0 0 0 0 0 0 0 0]
fffffcaa
00000123
00000eb9
00000f0c
fffff970
00000186
fffffaa0
00000c81
000007e9
000004c2
000003e4
fffffde0
000000e2
fffffbf5
fffff214
00000522
fffff816
00000e1e
00000274
0000016d
fffffad1
00000b65
fffffe31
0000046b
00001004
fffff38f
00000e82
000007cc
00000172
000004d2
ffffff16
fffff5fb
0000014d
fffffa4f
00000227
fffff2c5
000006c9
fffff93a
fffff4a6
000004ab
fffff852
ffffef1d
00000170
00000a82
fffff275
000003f3
0000153e
00000133
fffffc9d
00000422
fffffd76
fffff6e0
fffffc40
fffffa49
00000227
fffffa42
fffff87d
fffff4fb
000001c9
fffff92e
00000441
fffff2be
fffffe33
fffff9f1
# End Tensor

# Tensor Name (TFLite): tfl.pseudo_qconst2
# Original Shape: [np.int32(64)]
# Dtype: <class 'numpy.int32'>
# Scales: [9.76994779e-05 3.40843835e-05 9.28903464e-05 8.38562046e-05
# 9.91109482e-05 7.77240566e-05 7.97141547e-05 4.12362351e-05
# 8.24609815e-05 5.81303539e-05 1.04293540e-04 3.25802393e-05
# 9.03578621e-05 9.70940309e-05 1.17209631e-04 8.14476516e-05
# 3.46445850e-05 3.99326345e-05 7.00560267e-05 3.77227007e-05
# 7.79640322e-05 9.60525940e-05 3.79249686e-05 3.60510749e-05
# 8.20452551e-05 8.34483144e-05 9.55929208e-05 8.45280520e-05
# 3.27693306e-05 7.58428287e-05 1.00644866e-04 1.09906352e-04
# 3.13267774e-05 3.38578939e-05 8.53730089e-05 9.75247458e-05
# 1.06913278e-04 5.89581941e-05 3.51494200e-05 9.45769425e-05
# 1.20390818e-04 1.13395552e-04 8.75665719e-05 9.01535022e-05
# 8.34315506e-05 3.87354776e-05 7.67387610e-05 6.50900693e-05
# 9.81781777e-05 7.15942588e-05 8.68184070e-05 3.53564610e-05
# 3.61249840e-05 8.76556660e-05 3.87492328e-05 8.31032667e-05
# 9.41910985e-05 4.59054172e-05 3.85522580e-05 8.26598844e-05
# 4.45057558e-05 8.46066469e-05 8.38234264e-05 3.45868102e-05]
# Zero Points: [0 0 0 0 0 0 0 0 0 0 0 0 0 0 0 0 0 0 0 0 0 0 0 0 0 0 0 0 0 0 0 0 0 0 0 0 0
# 0 0 0 0 0 0 0 0 0 0 0 0 0 0 0 0 0 0 0 0 0 0 0 0 0 0 0]
fffffde3
fffffda0
00000288
0000018c
0000076a
00000310
000000bc
fffffc67
0000003a
fffffef7
00000285
ffffffde
fffffd06
000000db
ffffffe9
0000057a
000000c0
fffff900
fffffac8
fffffc0e
00000503
000000d9
fffffae7
fffffe4a
00000638
00000709
ffffff80
00000007
fffffacb
000001cc
00000637
fffffe35
fffffdbd
fffffdb1
000004c8
00000450
00000371
fffffeb5
fffffad6
ffffffe5
000000e4
fffffc7e
00000079
00000255
fffffaa7
fffff871
fffff907
00000096
000003b3
00000338
000006db
fffffdb8
fffffb41
0000020c
fffffa27
000001d5
fffffec8
fffffe81
fffffbae
fffffc63
fffffdb1
00000498
00000047
fffffc6d
# End Tensor

# Tensor Name (TFLite): tfl.pseudo_qconst
# Original Shape: [np.int32(10)]
# Dtype: <class 'numpy.int32'>
# Scales: [8.1222832e-05 1.3010220e-04 7.7390090e-05 6.7493318e-05 9.6817821e-05
# 8.6783599e-05 1.2556995e-04 1.1181495e-04 1.0449225e-04 1.0240002e-04]
# Zero Points: [0 0 0 0 0 0 0 0 0 0]
fffffec5
fffffcca
00000110
fffffa0f
0000087d
000001f2
000002bc
fffffc95
0000002d
fffffe65
# End Tensor

