# Bias Weights (Typically int32 from TFLite) - Keras Layer Order. Each 32-bit value on one line as 8 hex characters.
# Tensor Name (TFLite): tfl.pseudo_qconst10
# Original Shape: [np.int32(8)]
# Dtype: <class 'numpy.int32'>
# Scales: [1.91090749e-05 1.41436667e-05 7.59729801e-06 1.34543689e-05
# 1.66766458e-05 1.52870980e-05 9.81159519e-06 1.42413555e-05]
# Zero Points: [0 0 0 0 0 0 0 0]
ffffffba
00000882
ffffce0f
00000a95
00000506
fffffe77
ffffae21
00000105
# End Tensor

# Tensor Name (TFLite): tfl.pseudo_qconst8
# Original Shape: [np.int32(16)]
# Dtype: <class 'numpy.int32'>
# Scales: [3.3437060e-05 2.4515262e-05 3.6237539e-05 3.2186261e-05 4.4531924e-05
# 6.0891303e-05 4.3370528e-05 3.9828879e-05 2.8124248e-05 4.3636694e-05
# 8.2431325e-05 3.6237172e-05 3.8297112e-05 2.3674978e-05 2.9777044e-05
# 5.0333205e-05]
# Zero Points: [0 0 0 0 0 0 0 0 0 0 0 0 0 0 0 0]
ffffefca
fffffec6
fffff25a
000006a6
00000d12
000012af
fffffe01
000002ea
ffffdc38
000017fc
000006b6
0000223b
fffff63e
fffff9d5
fffffd7d
000007db
# End Tensor

# Tensor Name (TFLite): tfl.pseudo_qconst6
# Original Shape: [np.int32(32)]
# Dtype: <class 'numpy.int32'>
# Scales: [1.1911718e-04 8.1572922e-05 8.1545179e-05 7.9109501e-05 1.1772182e-04
# 6.5663073e-05 9.6636570e-05 1.2222948e-04 8.5647182e-05 1.3265085e-04
# 9.1829024e-05 8.3103740e-05 8.4909727e-05 8.2955201e-05 8.2243423e-05
# 6.3489359e-05 7.1094881e-05 1.4856680e-04 9.0732159e-05 6.8816764e-05
# 6.5484252e-05 5.6076595e-05 1.0796674e-04 1.1416944e-04 8.6795088e-05
# 8.1409831e-05 9.4233481e-05 9.9333753e-05 1.1207083e-04 7.7455588e-05
# 8.4412008e-05 8.1903563e-05]
# Zero Points: [0 0 0 0 0 0 0 0 0 0 0 0 0 0 0 0 0 0 0 0 0 0 0 0 0 0 0 0 0 0 0 0]
fffffb98
fffffe7f
00000cbf
fffff2aa
0000079e
00000479
0000150a
fffff9d9
fffffa5b
00000668
fffff664
000017e7
00000440
00002719
fffff123
ffffe769
00001296
00000167
fffff6be
fffff722
fffff07f
ffffebd8
00000059
ffffffa2
000027e8
00000523
00000444
00000038
00000aa7
fffffd08
000005e2
ffffeee2
# End Tensor

# Tensor Name (TFLite): tfl.pseudo_qconst4
# Original Shape: [np.int32(64)]
# Dtype: <class 'numpy.int32'>
# Scales: [2.3158007e-04 3.4099480e-04 2.1385681e-04 1.9994438e-04 1.5731882e-04
# 2.1628338e-04 1.9708223e-04 1.7863575e-04 2.5128355e-04 1.5726953e-04
# 1.8889780e-04 2.7705930e-05 2.3343296e-04 2.7608915e-04 2.3328823e-04
# 2.0089182e-04 2.0590141e-04 2.0505574e-04 1.7930557e-04 2.0813134e-04
# 1.9822018e-04 2.5740793e-04 2.3522838e-04 1.8564481e-04 1.9788231e-04
# 2.5339643e-04 2.0362689e-04 2.7175053e-04 1.6275248e-04 2.5394364e-04
# 2.5070697e-04 2.4907943e-04 1.7865407e-04 2.4685048e-04 1.7137654e-04
# 1.8809398e-04 1.8028801e-04 1.9124911e-04 1.6905219e-04 2.2880644e-04
# 1.9182099e-04 2.2290731e-04 2.3341190e-05 2.0349260e-04 1.8523954e-04
# 1.8998182e-04 1.9819757e-04 2.1394076e-04 2.3135959e-04 2.0303018e-04
# 2.0195206e-04 1.8868607e-04 1.5780779e-04 2.7818693e-04 2.3099194e-04
# 1.7416854e-04 2.8155142e-04 2.3777263e-04 2.2556752e-04 2.1205422e-05
# 2.3643563e-04 1.6944602e-04 1.5963857e-04 1.7895360e-04]
# Zero Points: [0 0 0 0 0 0 0 0 0 0 0 0 0 0 0 0 0 0 0 0 0 0 0 0 0 0 0 0 0 0 0 0 0 0 0 0 0
# 0 0 0 0 0 0 0 0 0 0 0 0 0 0 0 0 0 0 0 0 0 0 0 0 0 0 0]
00000583
fffffee0
fffff799
fffffe9c
fffffab7
000002fb
fffffe28
00000280
000008a4
fffffcf7
00000426
fffff6d0
fffffe4b
fffff840
fffffc94
fffffa12
fffffd61
fffffb17
00000999
fffffd4a
0000021a
fffffc83
00000175
fffff936
fffff9ae
fffffe65
00000246
0000004e
00000267
fffffedb
00000680
fffffb4a
fffff70d
00000830
ffffffbc
fffff827
fffffa38
fffff9e2
fffff683
000004d7
0000042a
000000ff
fffff91e
fffffdfc
fffff956
fffff7fe
fffffaa0
00000876
0000066b
0000012b
fffffb9f
fffff868
fffff9d7
fffffba4
0000019a
00000507
fffffd82
fffff80d
ffffffde
fffff650
fffffda4
fffff9fb
fffffce8
00000292
# End Tensor

# Tensor Name (TFLite): tfl.pseudo_qconst2
# Original Shape: [np.int32(64)]
# Dtype: <class 'numpy.int32'>
# Scales: [1.0712683e-04 1.4528782e-04 3.5569952e-05 1.4336900e-04 2.3576253e-04
# 1.8878652e-04 4.7615489e-05 2.0735573e-04 1.4705467e-04 4.2537504e-05
# 1.7506313e-04 1.4844559e-04 1.3925234e-04 2.1254912e-04 1.6690846e-04
# 1.2880127e-04 2.0165871e-04 2.0562163e-04 4.2030220e-05 4.1315543e-05
# 2.2129448e-04 1.5077555e-04 1.6561363e-04 4.6001744e-05 1.4287268e-04
# 4.2049811e-05 2.0727918e-04 2.1846047e-04 1.9910575e-04 1.7397953e-04
# 7.4102711e-05 1.5686292e-04 1.7112617e-04 2.0962268e-04 1.9423175e-04
# 1.7702892e-04 1.9378851e-04 1.8881595e-04 1.3462386e-04 1.6020235e-04
# 1.3417975e-04 1.7614551e-04 1.6988577e-04 1.8252146e-04 3.5097437e-05
# 3.8763883e-05 1.9990288e-04 3.5100413e-04 1.9578896e-04 1.7107111e-04
# 3.4629931e-05 1.7456639e-04 1.6080801e-04 1.4399484e-04 3.8222541e-05
# 1.9295956e-04 1.4320803e-04 2.1344716e-04 2.0125690e-04 1.7019198e-04
# 2.0212663e-04 1.8250999e-04 1.8084596e-04 1.5028627e-04]
# Zero Points: [0 0 0 0 0 0 0 0 0 0 0 0 0 0 0 0 0 0 0 0 0 0 0 0 0 0 0 0 0 0 0 0 0 0 0 0 0
# 0 0 0 0 0 0 0 0 0 0 0 0 0 0 0 0 0 0 0 0 0 0 0 0 0 0 0]
fffffe13
00000923
fffff910
00000baf
0000044f
000001e4
fffff98f
0000013f
00000b92
fffffa75
00000b72
ffffffe6
fffffd25
0000002c
000001de
00000687
00000006
000006cc
fffffbc6
fffffa6b
00000455
0000018e
00000202
fffff6b6
00000075
fffff80e
00000b32
fffffb30
0000010c
fffffd24
fffffcd7
ffffffbd
fffffe11
ffffff24
fffff874
000006d7
fffffb71
fffffa00
00000230
00000638
00000446
fffffe76
fffffb75
0000029a
fffffa8f
fffffc84
0000007c
0000012e
fffffddb
0000074d
fffffb85
0000020a
fffffe55
fffff5e3
fffff914
00000452
00000596
00000263
fffffa7c
fffff577
0000013e
ffffff89
fffffc7d
000002ed
# End Tensor

# Tensor Name (TFLite): tfl.pseudo_qconst
# Original Shape: [np.int32(10)]
# Dtype: <class 'numpy.int32'>
# Scales: [0.00018973 0.00018564 0.0001847  0.0001424  0.00018946 0.00015223
# 0.00014749 0.00020651 0.00014851 0.0001525 ]
# Zero Points: [0 0 0 0 0 0 0 0 0 0]
ffffffe8
fffff600
fffffd4e
00000899
00000509
000001e1
ffffff29
fffffdd1
fffffbf5
00000020
# End Tensor

