# Conv2D Kernel Weights (int8) - Keras Layer Order. Stored as 4x4 planes, row-major flattened, 16 values (32 hex chars) per line, no spaces. Scales/ZPs handled separately by hardware.
# Tensor Name (TFLite): tfl.pseudo_qconst11
# Original Shape: [np.int32(8), np.int32(4), np.int32(4), np.int32(1)]
# Dtype: <class 'numpy.int8'>
# Keras Layer (derived): Conv Kernel Plane - OutputChannel=0, InputChannel=0
81cce91217afd701494f1324433708c2
# Keras Layer (derived): Conv Kernel Plane - OutputChannel=1, InputChannel=0
05545e3dad8a81b72e414b29f8e4ebe2
# Keras Layer (derived): Conv Kernel Plane - OutputChannel=2, InputChannel=0
04e8172cef36fff6dfa4730f298125bc
# Keras Layer (derived): Conv Kernel Plane - OutputChannel=3, InputChannel=0
7f6858e6e44453e30aafe9d196d41934
# Keras Layer (derived): Conv Kernel Plane - OutputChannel=4, InputChannel=0
16c257cd4a2507813942a7db3d21e1ba
# Keras Layer (derived): Conv Kernel Plane - OutputChannel=5, InputChannel=0
f69f42019ce6147faac05d1acff7e975
# Keras Layer (derived): Conv Kernel Plane - OutputChannel=6, InputChannel=0
0f814b3761caf4cd139d0b1e21d01815
# Keras Layer (derived): Conv Kernel Plane - OutputChannel=7, InputChannel=0
383ef3e761ccdbbdc281ad07d32c736d
# End Tensor

# Tensor Name (TFLite): tfl.pseudo_qconst9
# Original Shape: [np.int32(16), np.int32(4), np.int32(4), np.int32(8)]
# Dtype: <class 'numpy.int8'>
# Keras Layer (derived): Conv Kernel Plane - OutputChannel=0, InputChannel=0
0018b3ab1ff0aaaef404e3090bf9e523
# Keras Layer (derived): Conv Kernel Plane - OutputChannel=0, InputChannel=1
0013180dfe3922e62ef9f91bc5ffeddc
# Keras Layer (derived): Conv Kernel Plane - OutputChannel=0, InputChannel=2
021620fa151402f7f303e1f7e7f31cfd
# Keras Layer (derived): Conv Kernel Plane - OutputChannel=0, InputChannel=3
f8fb1ff7f813ece0ddd381b3e4bbb3c2
# Keras Layer (derived): Conv Kernel Plane - OutputChannel=0, InputChannel=4
d60b0d08404b08ad1ef98f8424e49bdc
# Keras Layer (derived): Conv Kernel Plane - OutputChannel=0, InputChannel=5
a0c80e10a1c21646aa0f1131f12b2b3c
# Keras Layer (derived): Conv Kernel Plane - OutputChannel=0, InputChannel=6
e7c20af1f72cf0dfc8a7eee2b3adcff4
# Keras Layer (derived): Conv Kernel Plane - OutputChannel=0, InputChannel=7
e819232f4d5832f03e2e0afa1d0a192b
# Keras Layer (derived): Conv Kernel Plane - OutputChannel=1, InputChannel=0
24f30207332deffd101a0df3d8f61af4
# Keras Layer (derived): Conv Kernel Plane - OutputChannel=1, InputChannel=1
37463212f5fb1a10f9e7ed13e3cbd1dd
# Keras Layer (derived): Conv Kernel Plane - OutputChannel=1, InputChannel=2
0d042f1cd1f6f01df9eb09f8ecbccdfc
# Keras Layer (derived): Conv Kernel Plane - OutputChannel=1, InputChannel=3
fffe1a2302c7ec2622ebfcf510fcdbcc
# Keras Layer (derived): Conv Kernel Plane - OutputChannel=1, InputChannel=4
25ea04fa4bf3b4992904f5d4161d2209
# Keras Layer (derived): Conv Kernel Plane - OutputChannel=1, InputChannel=5
f3051a18c6d6052deaa2d31e32eec307
# Keras Layer (derived): Conv Kernel Plane - OutputChannel=1, InputChannel=6
12dd04ffd2c8fcf284819ed00bcbcfec
# Keras Layer (derived): Conv Kernel Plane - OutputChannel=1, InputChannel=7
fd0e06ed280cf3c519f5c3b60700e1e0
# Keras Layer (derived): Conv Kernel Plane - OutputChannel=2, InputChannel=0
03eaf5f115d4e82c0bf4ce08e50b1805
# Keras Layer (derived): Conv Kernel Plane - OutputChannel=2, InputChannel=1
1924242c0520ff1816f8323015232910
# Keras Layer (derived): Conv Kernel Plane - OutputChannel=2, InputChannel=2
f91ef0f7f94a01ec022d272701eaf0e8
# Keras Layer (derived): Conv Kernel Plane - OutputChannel=2, InputChannel=3
14e2e5fafad1ebcf16c8040919e7e6e7
# Keras Layer (derived): Conv Kernel Plane - OutputChannel=2, InputChannel=4
16ffdad343001c055c4e132fec09cfd5
# Keras Layer (derived): Conv Kernel Plane - OutputChannel=2, InputChannel=5
ee18d8e70f3df00518191d01ebe104e7
# Keras Layer (derived): Conv Kernel Plane - OutputChannel=2, InputChannel=6
0a34e701ff571942217f3618c11503c7
# Keras Layer (derived): Conv Kernel Plane - OutputChannel=2, InputChannel=7
e9eae4f4d3e804f4400e090f03fbf504
# Keras Layer (derived): Conv Kernel Plane - OutputChannel=3, InputChannel=0
f42f10f2fedf1af530edf01eff40f9ec
# Keras Layer (derived): Conv Kernel Plane - OutputChannel=3, InputChannel=1
d8d7101c2ccfd0dd1b4b19041e480cf4
# Keras Layer (derived): Conv Kernel Plane - OutputChannel=3, InputChannel=2
e1e00c2ff3e3beef27470f07001c2100
# Keras Layer (derived): Conv Kernel Plane - OutputChannel=3, InputChannel=3
09e3eddc3714e3c6f139330d0bf1222e
# Keras Layer (derived): Conv Kernel Plane - OutputChannel=3, InputChannel=4
f82adaf0dae02ef514b805203a1feede
# Keras Layer (derived): Conv Kernel Plane - OutputChannel=3, InputChannel=5
faaaf1d626eb98a32214ffc0df093622
# Keras Layer (derived): Conv Kernel Plane - OutputChannel=3, InputChannel=6
b2e5d1ec15c303e7440001fe217f1f02
# Keras Layer (derived): Conv Kernel Plane - OutputChannel=3, InputChannel=7
eaeddbfceff0df01c0c10cfb09e6c3e0
# Keras Layer (derived): Conv Kernel Plane - OutputChannel=4, InputChannel=0
f3f1f504fcee380903f3d4ec103c2dbf
# Keras Layer (derived): Conv Kernel Plane - OutputChannel=4, InputChannel=1
3ddeeabe6d5d01e4173531eb1e03f7b6
# Keras Layer (derived): Conv Kernel Plane - OutputChannel=4, InputChannel=2
1ffcb9b4081aeccced34d9b9f205f9f2
# Keras Layer (derived): Conv Kernel Plane - OutputChannel=4, InputChannel=3
08e9f713d4e1cc22eff5112d0ff80f33
# Keras Layer (derived): Conv Kernel Plane - OutputChannel=4, InputChannel=4
e9bee4cbc2172b09b8060f0bd8cafee1
# Keras Layer (derived): Conv Kernel Plane - OutputChannel=4, InputChannel=5
f9181309503e29f92225fc00fbedfbf5
# Keras Layer (derived): Conv Kernel Plane - OutputChannel=4, InputChannel=6
d94e1b241f1a1ac8f42bf2f222cac4d7
# Keras Layer (derived): Conv Kernel Plane - OutputChannel=4, InputChannel=7
f9347f33564749b321494231560619ba
# Keras Layer (derived): Conv Kernel Plane - OutputChannel=5, InputChannel=0
1c32cd01020af1e3ddd01cea03e11b1f
# Keras Layer (derived): Conv Kernel Plane - OutputChannel=5, InputChannel=1
d4e8fb0cdcddf8fec581d624e1d0c41b
# Keras Layer (derived): Conv Kernel Plane - OutputChannel=5, InputChannel=2
b4fe15ec0bef1c28fba2eb0eeefecf0c
# Keras Layer (derived): Conv Kernel Plane - OutputChannel=5, InputChannel=3
0cfc28ed2018e9e53403c6f41a07e7eb
# Keras Layer (derived): Conv Kernel Plane - OutputChannel=5, InputChannel=4
153638072c612c08183a45ed20211e05
# Keras Layer (derived): Conv Kernel Plane - OutputChannel=5, InputChannel=5
ec1f14fc23be381c18f9292ee8290322
# Keras Layer (derived): Conv Kernel Plane - OutputChannel=5, InputChannel=6
f2dce9d7cad512d2deac1ff5ecd50715
# Keras Layer (derived): Conv Kernel Plane - OutputChannel=5, InputChannel=7
2dc524f701100de1df2de2d0d1fc26f4
# Keras Layer (derived): Conv Kernel Plane - OutputChannel=6, InputChannel=0
bdc4cbcdf6fae9c74b532834f60e2014
# Keras Layer (derived): Conv Kernel Plane - OutputChannel=6, InputChannel=1
36210b1d1119e9fa122d2eeafd10f4c5
# Keras Layer (derived): Conv Kernel Plane - OutputChannel=6, InputChannel=2
1be20e290d10223c8881c9f0f4f609e9
# Keras Layer (derived): Conv Kernel Plane - OutputChannel=6, InputChannel=3
090708edd6fcf10bdaf5eff0261931f9
# Keras Layer (derived): Conv Kernel Plane - OutputChannel=6, InputChannel=4
eaf9faf2b6ef0bf5c6ea0ff9fae2241f
# Keras Layer (derived): Conv Kernel Plane - OutputChannel=6, InputChannel=5
f10c0c38f4cb0011ebdae8fde9e6f913
# Keras Layer (derived): Conv Kernel Plane - OutputChannel=6, InputChannel=6
e9d5e80be8e3fef9e3f71d1deb95e60d
# Keras Layer (derived): Conv Kernel Plane - OutputChannel=6, InputChannel=7
b5caace02e190604493b1d24b7bfd6d4
# Keras Layer (derived): Conv Kernel Plane - OutputChannel=7, InputChannel=0
f805020d10f6ebcbbe81a1f0a9db0323
# Keras Layer (derived): Conv Kernel Plane - OutputChannel=7, InputChannel=1
ee0c2607dcfb30141028e82a122e04e3
# Keras Layer (derived): Conv Kernel Plane - OutputChannel=7, InputChannel=2
2320e3e8e1e1cffa4e1d1d020a0cef2e
# Keras Layer (derived): Conv Kernel Plane - OutputChannel=7, InputChannel=3
022d2d2611fd14230fee0005effef6e3
# Keras Layer (derived): Conv Kernel Plane - OutputChannel=7, InputChannel=4
bd1f5c07ea4311f403302109f1eddbee
# Keras Layer (derived): Conv Kernel Plane - OutputChannel=7, InputChannel=5
0d63dffd3f0acef80bb1cd02d0d23329
# Keras Layer (derived): Conv Kernel Plane - OutputChannel=7, InputChannel=6
d80afac00d0cf4d4ec3dda041e1b10f6
# Keras Layer (derived): Conv Kernel Plane - OutputChannel=7, InputChannel=7
b5cc12edfcc4e2d991253039295a6147
# Keras Layer (derived): Conv Kernel Plane - OutputChannel=8, InputChannel=0
001bf22d2f36e8f9f3b90ceea501f70e
# Keras Layer (derived): Conv Kernel Plane - OutputChannel=8, InputChannel=1
090c1226450e1dfa4f4a05f10bef4033
# Keras Layer (derived): Conv Kernel Plane - OutputChannel=8, InputChannel=2
d5d4dcfff6de1c342df9f102bc04fbed
# Keras Layer (derived): Conv Kernel Plane - OutputChannel=8, InputChannel=3
f6ca1d04e02efbfc082b2e0326da1905
# Keras Layer (derived): Conv Kernel Plane - OutputChannel=8, InputChannel=4
bb8e01b9ad550624672c0e080ecbebde
# Keras Layer (derived): Conv Kernel Plane - OutputChannel=8, InputChannel=5
09efedad4894d3edb5ddf9e8db25d900
# Keras Layer (derived): Conv Kernel Plane - OutputChannel=8, InputChannel=6
1ed3c6b8bd4c13f0670e461ff4fc07ea
# Keras Layer (derived): Conv Kernel Plane - OutputChannel=8, InputChannel=7
7f5f32373d25612c4f6b43446444e81f
# Keras Layer (derived): Conv Kernel Plane - OutputChannel=9, InputChannel=0
fa090fe6f7f6bc11e4132cf71127fdd3
# Keras Layer (derived): Conv Kernel Plane - OutputChannel=9, InputChannel=1
fefceef31328f4fbe9fbd8ddf1e2f602
# Keras Layer (derived): Conv Kernel Plane - OutputChannel=9, InputChannel=2
e80800dc1a110a11cdafc006ba041c37
# Keras Layer (derived): Conv Kernel Plane - OutputChannel=9, InputChannel=3
f4faed16d4f218f30f09ea14e4e11903
# Keras Layer (derived): Conv Kernel Plane - OutputChannel=9, InputChannel=4
040ffcf715362ef5fcebe2f6f3cc1f1a
# Keras Layer (derived): Conv Kernel Plane - OutputChannel=9, InputChannel=5
ff08f80a17092842dc0e22e6e7fcccc5
# Keras Layer (derived): Conv Kernel Plane - OutputChannel=9, InputChannel=6
2ef20921c10a40ec1b1acda1b38781af
# Keras Layer (derived): Conv Kernel Plane - OutputChannel=9, InputChannel=7
183af64cf40646270e5425d13211d537
# Keras Layer (derived): Conv Kernel Plane - OutputChannel=10, InputChannel=0
2021070920e0fa1af809131de7efd503
# Keras Layer (derived): Conv Kernel Plane - OutputChannel=10, InputChannel=1
717f58760a1d1c3114041ad3151e4109
# Keras Layer (derived): Conv Kernel Plane - OutputChannel=10, InputChannel=2
ed2028fdfad1dbd5332b1119efd7d733
# Keras Layer (derived): Conv Kernel Plane - OutputChannel=10, InputChannel=3
524b534701efd2f1f000f8e107eaeafc
# Keras Layer (derived): Conv Kernel Plane - OutputChannel=10, InputChannel=4
e914edd6f509a9e5f4f50a30cd1bd2fb
# Keras Layer (derived): Conv Kernel Plane - OutputChannel=10, InputChannel=5
1510e58cf1d9c3a3fbb30613e5aef029
# Keras Layer (derived): Conv Kernel Plane - OutputChannel=10, InputChannel=6
232b0b111d33e8d92618d91f04f9f211
# Keras Layer (derived): Conv Kernel Plane - OutputChannel=10, InputChannel=7
253b20152a170b1ebfec12250311f9f3
# Keras Layer (derived): Conv Kernel Plane - OutputChannel=11, InputChannel=0
0902f9fb0310011c06f9020913ffdfe5
# Keras Layer (derived): Conv Kernel Plane - OutputChannel=11, InputChannel=1
1111f708e41b070fe51502f4eb06f8ee
# Keras Layer (derived): Conv Kernel Plane - OutputChannel=11, InputChannel=2
0e201926d9cfe705c8e6ddd9f9fb000e
# Keras Layer (derived): Conv Kernel Plane - OutputChannel=11, InputChannel=3
f601ede5f4f0f307f309f5f201101214
# Keras Layer (derived): Conv Kernel Plane - OutputChannel=11, InputChannel=4
14191701fcfce907e0f1e008ecf1de03
# Keras Layer (derived): Conv Kernel Plane - OutputChannel=11, InputChannel=5
08fc09110d0ee9fa0dfabcd9f701b3f6
# Keras Layer (derived): Conv Kernel Plane - OutputChannel=11, InputChannel=6
14f10b0618010f1efeb6a4dcc4b581a6
# Keras Layer (derived): Conv Kernel Plane - OutputChannel=11, InputChannel=7
f11f17e00f241c0213060908edd9d2f6
# Keras Layer (derived): Conv Kernel Plane - OutputChannel=12, InputChannel=0
10d80ee40fe30e0109ee04ed06ea061d
# Keras Layer (derived): Conv Kernel Plane - OutputChannel=12, InputChannel=1
12f9000c07c6daedf2bdc81ae9f1db06
# Keras Layer (derived): Conv Kernel Plane - OutputChannel=12, InputChannel=2
162601111017f800f826e82dfbf4dbfd
# Keras Layer (derived): Conv Kernel Plane - OutputChannel=12, InputChannel=3
f702e106efe90418fdfff90bfc1b1af9
# Keras Layer (derived): Conv Kernel Plane - OutputChannel=12, InputChannel=4
fe35ebfb3bec200f28bf17e7ebda0901
# Keras Layer (derived): Conv Kernel Plane - OutputChannel=12, InputChannel=5
0bf629e222470d09051fdd231011baed
# Keras Layer (derived): Conv Kernel Plane - OutputChannel=12, InputChannel=6
f7491c23fd7f165b12680842f55f192e
# Keras Layer (derived): Conv Kernel Plane - OutputChannel=12, InputChannel=7
e737eee5e113d70b16d306eb12ca10ee
# Keras Layer (derived): Conv Kernel Plane - OutputChannel=13, InputChannel=0
fd09050dedf717f70bebf805f4f715fe
# Keras Layer (derived): Conv Kernel Plane - OutputChannel=13, InputChannel=1
00df0808e5c5f61009ede31acde2ea01
# Keras Layer (derived): Conv Kernel Plane - OutputChannel=13, InputChannel=2
05131815da2b15eb012cfe10e0f5f3fc
# Keras Layer (derived): Conv Kernel Plane - OutputChannel=13, InputChannel=3
17f0f50d11e4ed08faf309f2e810fc0d
# Keras Layer (derived): Conv Kernel Plane - OutputChannel=13, InputChannel=4
1802df10fcf715ef0d2c18080f00f70f
# Keras Layer (derived): Conv Kernel Plane - OutputChannel=13, InputChannel=5
ed0422e0cf03f4fdf414f00414e0f3e3
# Keras Layer (derived): Conv Kernel Plane - OutputChannel=13, InputChannel=6
c82c23e1103e46fa20367f1831142108
# Keras Layer (derived): Conv Kernel Plane - OutputChannel=13, InputChannel=7
fd4ee9d81202fb0710ec13e8eeff1110
# Keras Layer (derived): Conv Kernel Plane - OutputChannel=14, InputChannel=0
111d0c1ef0e1e9f8ced5e308e4ec06f2
# Keras Layer (derived): Conv Kernel Plane - OutputChannel=14, InputChannel=1
22fd0f1e1fded5dcdbd9db0ad6b7bddc
# Keras Layer (derived): Conv Kernel Plane - OutputChannel=14, InputChannel=2
100400e1fdebff002b0efd142401f6f1
# Keras Layer (derived): Conv Kernel Plane - OutputChannel=14, InputChannel=3
0d281e22ec17ee06110811e4fd01e3f8
# Keras Layer (derived): Conv Kernel Plane - OutputChannel=14, InputChannel=4
b2b20be1afca0806d4f00beb071315fe
# Keras Layer (derived): Conv Kernel Plane - OutputChannel=14, InputChannel=5
4ae2c0a329bd81936cfdc0d7762ee0f7
# Keras Layer (derived): Conv Kernel Plane - OutputChannel=14, InputChannel=6
e48ae2c904c2fadbf0bb1aef24045e13
# Keras Layer (derived): Conv Kernel Plane - OutputChannel=14, InputChannel=7
f207d6ea9483d3e59b90d4c5fdb8071a
# Keras Layer (derived): Conv Kernel Plane - OutputChannel=15, InputChannel=0
021f21f8efdd334b185606b5d91b5c1e
# Keras Layer (derived): Conv Kernel Plane - OutputChannel=15, InputChannel=1
62341731521f017d2f6d6548f2ea5073
# Keras Layer (derived): Conv Kernel Plane - OutputChannel=15, InputChannel=2
3d04024e235f1ac0e11222fe0be0e620
# Keras Layer (derived): Conv Kernel Plane - OutputChannel=15, InputChannel=3
171ddefafc43dce5d3f23a3631f8b819
# Keras Layer (derived): Conv Kernel Plane - OutputChannel=15, InputChannel=4
f01c07f0f7bbda190910acf2f6fae4dc
# Keras Layer (derived): Conv Kernel Plane - OutputChannel=15, InputChannel=5
3d0adefdfd0cd5d698ee0bcd0abad1f4
# Keras Layer (derived): Conv Kernel Plane - OutputChannel=15, InputChannel=6
f6084d2a2ed8bc25477ffbc49b94d8fb
# Keras Layer (derived): Conv Kernel Plane - OutputChannel=15, InputChannel=7
c907eb0cc6ebf0271acdeb0be41305d8
# End Tensor

# Tensor Name (TFLite): tfl.pseudo_qconst7
# Original Shape: [np.int32(32), np.int32(4), np.int32(4), np.int32(16)]
# Dtype: <class 'numpy.int8'>
# Keras Layer (derived): Conv Kernel Plane - OutputChannel=0, InputChannel=0
ebf0f5e3eeef090b0809321ce2e201e1
# Keras Layer (derived): Conv Kernel Plane - OutputChannel=0, InputChannel=1
ec19f5e60bfbf20420f3e7d5142d1cf9
# Keras Layer (derived): Conv Kernel Plane - OutputChannel=0, InputChannel=2
14f833f7fddde8e611f6cbf0202f0b0b
# Keras Layer (derived): Conv Kernel Plane - OutputChannel=0, InputChannel=3
e8eef80708fa1819feeef5fc0306071b
# Keras Layer (derived): Conv Kernel Plane - OutputChannel=0, InputChannel=4
ed0119f9f8071e1d13fbff140ef51422
# Keras Layer (derived): Conv Kernel Plane - OutputChannel=0, InputChannel=5
e8e801e28f81dbc1e7b7d9d909070aee
# Keras Layer (derived): Conv Kernel Plane - OutputChannel=0, InputChannel=6
e7f71d0013120d1e1f14140909040ef2
# Keras Layer (derived): Conv Kernel Plane - OutputChannel=0, InputChannel=7
fbfdfa16faff0f05e4e7e6f2d9e9ff20
# Keras Layer (derived): Conv Kernel Plane - OutputChannel=0, InputChannel=8
0f02102501ff04010cf406e9e8faf510
# Keras Layer (derived): Conv Kernel Plane - OutputChannel=0, InputChannel=9
02f0fefbe3d00c04ecfb080000f7fb16
# Keras Layer (derived): Conv Kernel Plane - OutputChannel=0, InputChannel=10
100f070f12072619ff051a0af204f6f5
# Keras Layer (derived): Conv Kernel Plane - OutputChannel=0, InputChannel=11
1a0e0c1204ecfd0e0d03f91400fefdd5
# Keras Layer (derived): Conv Kernel Plane - OutputChannel=0, InputChannel=12
0d1f12f8dee7ece5ded2d2fb25122005
# Keras Layer (derived): Conv Kernel Plane - OutputChannel=0, InputChannel=13
160314fad8d9f7fdfffbc1f41616070d
# Keras Layer (derived): Conv Kernel Plane - OutputChannel=0, InputChannel=14
eae7dcf505defde5151f221804160e17
# Keras Layer (derived): Conv Kernel Plane - OutputChannel=0, InputChannel=15
010406130d0c0a07241b0feaf6f6f5e2
# Keras Layer (derived): Conv Kernel Plane - OutputChannel=1, InputChannel=0
11fc1116e7e01ee5c4ee2208efeef426
# Keras Layer (derived): Conv Kernel Plane - OutputChannel=1, InputChannel=1
28e11b025416c2082617d6fe0827fbf5
# Keras Layer (derived): Conv Kernel Plane - OutputChannel=1, InputChannel=2
10dce1e03ddeb3f31f1fee02e903e701
# Keras Layer (derived): Conv Kernel Plane - OutputChannel=1, InputChannel=3
0398c8cd4f03c8f73f21e9010e1e04ea
# Keras Layer (derived): Conv Kernel Plane - OutputChannel=1, InputChannel=4
d2e1de06d3a2d6f306fd171a0f181a09
# Keras Layer (derived): Conv Kernel Plane - OutputChannel=1, InputChannel=5
f9f5010411e60e0535f8010beb0712fb
# Keras Layer (derived): Conv Kernel Plane - OutputChannel=1, InputChannel=6
b3b7d5aafabfd3b113e7ffc0090d04f6
# Keras Layer (derived): Conv Kernel Plane - OutputChannel=1, InputChannel=7
faedde0ec3dafc1dd8ecf913f5fb1023
# Keras Layer (derived): Conv Kernel Plane - OutputChannel=1, InputChannel=8
d4f5e6efc381b7efe8e6032901041918
# Keras Layer (derived): Conv Kernel Plane - OutputChannel=1, InputChannel=9
f3f5f006d2aef617a7e0302ce502211d
# Keras Layer (derived): Conv Kernel Plane - OutputChannel=1, InputChannel=10
333c1f210101e6e70ed8c7fc1cfbe21f
# Keras Layer (derived): Conv Kernel Plane - OutputChannel=1, InputChannel=11
f7ff0825ec2d27edeeeb26e50ced1510
# Keras Layer (derived): Conv Kernel Plane - OutputChannel=1, InputChannel=12
efe6e3dce5ddee1019fa1821f50a16ef
# Keras Layer (derived): Conv Kernel Plane - OutputChannel=1, InputChannel=13
d1dfda00e9f4040904f90f2610fe1901
# Keras Layer (derived): Conv Kernel Plane - OutputChannel=1, InputChannel=14
381b152023361f13fd2011f2f6fee7f4
# Keras Layer (derived): Conv Kernel Plane - OutputChannel=1, InputChannel=15
f3d8dae817a58caf3bfce4ea2a1cf4ec
# Keras Layer (derived): Conv Kernel Plane - OutputChannel=2, InputChannel=0
e63fe4e7133ee2e3d0da0bead8ced8be
# Keras Layer (derived): Conv Kernel Plane - OutputChannel=2, InputChannel=1
ee371d19fd6223f7fbf20619e1e5ead4
# Keras Layer (derived): Conv Kernel Plane - OutputChannel=2, InputChannel=2
20e2f4002a3b12e7fa192510bc2efb15
# Keras Layer (derived): Conv Kernel Plane - OutputChannel=2, InputChannel=3
d9cf1034fdc29d1408ee9708f90cf01f
# Keras Layer (derived): Conv Kernel Plane - OutputChannel=2, InputChannel=4
ea35e30bc9b1f300feff2d0b15ff0aff
# Keras Layer (derived): Conv Kernel Plane - OutputChannel=2, InputChannel=5
0619f81725280c04e43f1c0add0b11c8
# Keras Layer (derived): Conv Kernel Plane - OutputChannel=2, InputChannel=6
16e0d343ef0abd423dea0b6c0bcecf0e
# Keras Layer (derived): Conv Kernel Plane - OutputChannel=2, InputChannel=7
fd2b200515f7f83ff1acb20a09cfc8d8
# Keras Layer (derived): Conv Kernel Plane - OutputChannel=2, InputChannel=8
ebeb381838f0c2e42beaf3eb2cd215ef
# Keras Layer (derived): Conv Kernel Plane - OutputChannel=2, InputChannel=9
6553d1f516f8caee23df1ae71016d7fb
# Keras Layer (derived): Conv Kernel Plane - OutputChannel=2, InputChannel=10
bfd7fdfcd1f2fb1b27b69c2c06e4dd00
# Keras Layer (derived): Conv Kernel Plane - OutputChannel=2, InputChannel=11
2296f3162304f7312da4017b00d5013d
# Keras Layer (derived): Conv Kernel Plane - OutputChannel=2, InputChannel=12
f4efc7dad20efef7da12fc17f31242f7
# Keras Layer (derived): Conv Kernel Plane - OutputChannel=2, InputChannel=13
1f0bd4f8db3a0dd9e6102cf6f01f35f8
# Keras Layer (derived): Conv Kernel Plane - OutputChannel=2, InputChannel=14
f2f2eeed05c6ea1e0bf0bd0711dc3632
# Keras Layer (derived): Conv Kernel Plane - OutputChannel=2, InputChannel=15
d1fe3b2281bbfb4df6ccee39ffdeb5ff
# Keras Layer (derived): Conv Kernel Plane - OutputChannel=3, InputChannel=0
e9a1226d339bf2234020e20f4b31ef22
# Keras Layer (derived): Conv Kernel Plane - OutputChannel=3, InputChannel=1
1f26f8dd37192b1b4547edf23f32fc2a
# Keras Layer (derived): Conv Kernel Plane - OutputChannel=3, InputChannel=2
22f4fe4f1ec1e6001cb1cb0a231913f9
# Keras Layer (derived): Conv Kernel Plane - OutputChannel=3, InputChannel=3
ff032fe9633f412af1faf025edd4f624
# Keras Layer (derived): Conv Kernel Plane - OutputChannel=3, InputChannel=4
f08fa7e326d1d4e83adfccec65050f1c
# Keras Layer (derived): Conv Kernel Plane - OutputChannel=3, InputChannel=5
e83a03f8e6200e15dfff19e31015230b
# Keras Layer (derived): Conv Kernel Plane - OutputChannel=3, InputChannel=6
a2e202153613de0502f2b62012e1e90b
# Keras Layer (derived): Conv Kernel Plane - OutputChannel=3, InputChannel=7
f3c0095718edf5ebf7d1dc35c7d81848
# Keras Layer (derived): Conv Kernel Plane - OutputChannel=3, InputChannel=8
be9de31c1ccddc3c1dd5a22102caab07
# Keras Layer (derived): Conv Kernel Plane - OutputChannel=3, InputChannel=9
cce54335ad8db11c389ad2054eecb21a
# Keras Layer (derived): Conv Kernel Plane - OutputChannel=3, InputChannel=10
98d6f826ed9ef5192eb7dd161eeaf63c
# Keras Layer (derived): Conv Kernel Plane - OutputChannel=3, InputChannel=11
70692af8f813321605cbaf4803e9d4ee
# Keras Layer (derived): Conv Kernel Plane - OutputChannel=3, InputChannel=12
d0e8252adc0cecdc222021f73d1b220d
# Keras Layer (derived): Conv Kernel Plane - OutputChannel=3, InputChannel=13
cdfa3040daca040c01d40df72b2402fa
# Keras Layer (derived): Conv Kernel Plane - OutputChannel=3, InputChannel=14
2f0b1400093b22c4fc2f2fdb30321c32
# Keras Layer (derived): Conv Kernel Plane - OutputChannel=3, InputChannel=15
89c4687ff0a43a3fae9ec512bbb8c42f
# Keras Layer (derived): Conv Kernel Plane - OutputChannel=4, InputChannel=0
23c0161605c102ebf8f31908c8f330fa
# Keras Layer (derived): Conv Kernel Plane - OutputChannel=4, InputChannel=1
09f245160cf325de0402e0c9bd03f120
# Keras Layer (derived): Conv Kernel Plane - OutputChannel=4, InputChannel=2
f40d3709e90504de1260261600e999a7
# Keras Layer (derived): Conv Kernel Plane - OutputChannel=4, InputChannel=3
0b0ee4f0dc010ed9f0e8ebf8f201fbdf
# Keras Layer (derived): Conv Kernel Plane - OutputChannel=4, InputChannel=4
fb150af4e5fe2bedf2fa0ce912efc1b1
# Keras Layer (derived): Conv Kernel Plane - OutputChannel=4, InputChannel=5
02f504f5feede80a140607edb0d5f9b8
# Keras Layer (derived): Conv Kernel Plane - OutputChannel=4, InputChannel=6
07110e02c9a7fd16efec210be61b134c
# Keras Layer (derived): Conv Kernel Plane - OutputChannel=4, InputChannel=7
ce080ae8d4f304f1d4f61fea0a12d5c9
# Keras Layer (derived): Conv Kernel Plane - OutputChannel=4, InputChannel=8
f42e080404f2f9eff4f60e12fffddce2
# Keras Layer (derived): Conv Kernel Plane - OutputChannel=4, InputChannel=9
0c000af403f705db3e634d0f0ee8e6e0
# Keras Layer (derived): Conv Kernel Plane - OutputChannel=4, InputChannel=10
aeff141ab9fc0d00e2080018ef11ffe9
# Keras Layer (derived): Conv Kernel Plane - OutputChannel=4, InputChannel=11
f69901facdaae40a493f1f0a4d2c121f
# Keras Layer (derived): Conv Kernel Plane - OutputChannel=4, InputChannel=12
fe0af2f9341bd9e21a29ecb0dabe81a1
# Keras Layer (derived): Conv Kernel Plane - OutputChannel=4, InputChannel=13
ef09eee91b18f4e43502e7cbeac6c2e9
# Keras Layer (derived): Conv Kernel Plane - OutputChannel=4, InputChannel=14
b5eb09d8eae4e7e5ff0c14f7202c3710
# Keras Layer (derived): Conv Kernel Plane - OutputChannel=4, InputChannel=15
e11a210ae948350e0425180d060fe0d2
# Keras Layer (derived): Conv Kernel Plane - OutputChannel=5, InputChannel=0
f934f5dfeb27f2e0e80e1b3acef917eb
# Keras Layer (derived): Conv Kernel Plane - OutputChannel=5, InputChannel=1
23d3c7d317ca170b0bd4cfb7fee70aef
# Keras Layer (derived): Conv Kernel Plane - OutputChannel=5, InputChannel=2
10e5f70cadbdd0c9d800322acf531a24
# Keras Layer (derived): Conv Kernel Plane - OutputChannel=5, InputChannel=3
c638efe2dfc7141febfe16e905dd1efc
# Keras Layer (derived): Conv Kernel Plane - OutputChannel=5, InputChannel=4
b21cfdf5d932291e00fa080845cfe802
# Keras Layer (derived): Conv Kernel Plane - OutputChannel=5, InputChannel=5
df004c27c4104ef3c114181b0a202ef7
# Keras Layer (derived): Conv Kernel Plane - OutputChannel=5, InputChannel=6
eccdd7d9f0e9d6d2770ce1dafaeafa1f
# Keras Layer (derived): Conv Kernel Plane - OutputChannel=5, InputChannel=7
f1581cf3db4c1008de2218fb06d4e0e4
# Keras Layer (derived): Conv Kernel Plane - OutputChannel=5, InputChannel=8
ea291bf7ba0f08f0f6da131511d8c2dc
# Keras Layer (derived): Conv Kernel Plane - OutputChannel=5, InputChannel=9
171927f7d234e8d9ee16d601dedcd0fc
# Keras Layer (derived): Conv Kernel Plane - OutputChannel=5, InputChannel=10
2841262dfe21e8f4fdefd840edd10101
# Keras Layer (derived): Conv Kernel Plane - OutputChannel=5, InputChannel=11
08aafb5afac1cbf81cbab8c0e5002412
# Keras Layer (derived): Conv Kernel Plane - OutputChannel=5, InputChannel=12
a9fee221b22a10fcdd3e0504e6170626
# Keras Layer (derived): Conv Kernel Plane - OutputChannel=5, InputChannel=13
d6c7170bb9ecfe03da4f06f9055509ee
# Keras Layer (derived): Conv Kernel Plane - OutputChannel=5, InputChannel=14
ca361f1ad1ecf70881c419201abdefeb
# Keras Layer (derived): Conv Kernel Plane - OutputChannel=5, InputChannel=15
17e0f10ff906eefcfafe1af5d1f424e8
# Keras Layer (derived): Conv Kernel Plane - OutputChannel=6, InputChannel=0
e1313c2ac608170102fbe30907121e17
# Keras Layer (derived): Conv Kernel Plane - OutputChannel=6, InputChannel=1
275d567fc3f2cf1812114bfed6d54ced
# Keras Layer (derived): Conv Kernel Plane - OutputChannel=6, InputChannel=2
e8d2d0decdfefd07e11317e935130a04
# Keras Layer (derived): Conv Kernel Plane - OutputChannel=6, InputChannel=3
bcd4e2eeaebad0d4efdfc2c9570d2e10
# Keras Layer (derived): Conv Kernel Plane - OutputChannel=6, InputChannel=4
cdffeaf5d3ebcedd040807e82b2f4fe5
# Keras Layer (derived): Conv Kernel Plane - OutputChannel=6, InputChannel=5
f5b7cce4f4f3f1060ef0ec001bdd0c0f
# Keras Layer (derived): Conv Kernel Plane - OutputChannel=6, InputChannel=6
f7251c0013fdf3150601e41c053e3831
# Keras Layer (derived): Conv Kernel Plane - OutputChannel=6, InputChannel=7
1645432bd4acdfd8eef4c4b8eec2c4ae
# Keras Layer (derived): Conv Kernel Plane - OutputChannel=6, InputChannel=8
fae0e6f0cdd3c6cd01dde6ea2a13fafc
# Keras Layer (derived): Conv Kernel Plane - OutputChannel=6, InputChannel=9
e907c8e7e7e1edf6c30912ea03071cf8
# Keras Layer (derived): Conv Kernel Plane - OutputChannel=6, InputChannel=10
193a605ebfaed2e4e4f515c8060dfddd
# Keras Layer (derived): Conv Kernel Plane - OutputChannel=6, InputChannel=11
feedfaed2ffe021d00fe252023165f2d
# Keras Layer (derived): Conv Kernel Plane - OutputChannel=6, InputChannel=12
090d02b2f9f3f107f714d8ee1416e7f5
# Keras Layer (derived): Conv Kernel Plane - OutputChannel=6, InputChannel=13
f602bed5e70e09ef1628e513e700d324
# Keras Layer (derived): Conv Kernel Plane - OutputChannel=6, InputChannel=14
1e054910ebe2fdd4ecd305fedd0de7f8
# Keras Layer (derived): Conv Kernel Plane - OutputChannel=6, InputChannel=15
1b163b13cbcdc0cbd8ddfee9381306ed
# Keras Layer (derived): Conv Kernel Plane - OutputChannel=7, InputChannel=0
84b813eaefccfbcefbfcf6031f24fc01
# Keras Layer (derived): Conv Kernel Plane - OutputChannel=7, InputChannel=1
ea1efcf39381dcf2dfd896e4e2101431
# Keras Layer (derived): Conv Kernel Plane - OutputChannel=7, InputChannel=2
0bedeaf0f6f8c7f8c1dec1e00026faf8
# Keras Layer (derived): Conv Kernel Plane - OutputChannel=7, InputChannel=3
0704ee08e9250dff05f1f410ffdd0507
# Keras Layer (derived): Conv Kernel Plane - OutputChannel=7, InputChannel=4
02e1f51df7d4030505fceae6f6f30202
# Keras Layer (derived): Conv Kernel Plane - OutputChannel=7, InputChannel=5
e4ff17f9e5f100e9ffeeffd73d1cfaff
# Keras Layer (derived): Conv Kernel Plane - OutputChannel=7, InputChannel=6
ebe20befeed3d4dd4b381b1e0a150ddd
# Keras Layer (derived): Conv Kernel Plane - OutputChannel=7, InputChannel=7
f2d3ce050dfcff04100a0e13370d1516
# Keras Layer (derived): Conv Kernel Plane - OutputChannel=7, InputChannel=8
0f1c150cf805ff1411f3ed0302f9effb
# Keras Layer (derived): Conv Kernel Plane - OutputChannel=7, InputChannel=9
f9f22d30eff1f2ece2e0e409320118ed
# Keras Layer (derived): Conv Kernel Plane - OutputChannel=7, InputChannel=10
00101007f2fe07001b0c152a0ffe1432
# Keras Layer (derived): Conv Kernel Plane - OutputChannel=7, InputChannel=11
243113ef0ef00b0e0f03180d181de9e1
# Keras Layer (derived): Conv Kernel Plane - OutputChannel=7, InputChannel=12
221c2231e5eefcf7bbc7bec4d3ded6e3
# Keras Layer (derived): Conv Kernel Plane - OutputChannel=7, InputChannel=13
091e0337e2e7fd179bdad006c6f9d8e6
# Keras Layer (derived): Conv Kernel Plane - OutputChannel=7, InputChannel=14
09e40dbd321005c7281e1b142b0f00ea
# Keras Layer (derived): Conv Kernel Plane - OutputChannel=7, InputChannel=15
23fa1f240904f315f9ef040dfbe5edf9
# Keras Layer (derived): Conv Kernel Plane - OutputChannel=8, InputChannel=0
3d400cd431062023edfaeef0bce8e4c4
# Keras Layer (derived): Conv Kernel Plane - OutputChannel=8, InputChannel=1
ff12b7dc242cbac9b08cdbfb46efb8fd
# Keras Layer (derived): Conv Kernel Plane - OutputChannel=8, InputChannel=2
4a31edc3b7819f9d04d2ee1b090e17f5
# Keras Layer (derived): Conv Kernel Plane - OutputChannel=8, InputChannel=3
08c4d102c9d31f4105080820f5f0e6f1
# Keras Layer (derived): Conv Kernel Plane - OutputChannel=8, InputChannel=4
112e39e9fd12fdd1f4dbf01ee8001605
# Keras Layer (derived): Conv Kernel Plane - OutputChannel=8, InputChannel=5
fae0e317d190e817faf61108f1ce1df7
# Keras Layer (derived): Conv Kernel Plane - OutputChannel=8, InputChannel=6
f916e3d7d5f3fe76310af2ed4310edf2
# Keras Layer (derived): Conv Kernel Plane - OutputChannel=8, InputChannel=7
0a0ee8e8e7ec24efd72101fa250b030c
# Keras Layer (derived): Conv Kernel Plane - OutputChannel=8, InputChannel=8
1ad5b1e1d9da191afb08064be20e110c
# Keras Layer (derived): Conv Kernel Plane - OutputChannel=8, InputChannel=9
3a73661821141be8d10b04dfcd03110c
# Keras Layer (derived): Conv Kernel Plane - OutputChannel=8, InputChannel=10
1307d6e0d8fadbf9ccd8ea0be0e5edde
# Keras Layer (derived): Conv Kernel Plane - OutputChannel=8, InputChannel=11
180a522f4b3217f9e0deec1506ededeb
# Keras Layer (derived): Conv Kernel Plane - OutputChannel=8, InputChannel=12
eb122704cddac3b4d5bf162e171b1f32
# Keras Layer (derived): Conv Kernel Plane - OutputChannel=8, InputChannel=13
fa1b0bdedad2b5c0c3ca12282316420e
# Keras Layer (derived): Conv Kernel Plane - OutputChannel=8, InputChannel=14
d5f01326f10e4014fc0dfde917ede8f8
# Keras Layer (derived): Conv Kernel Plane - OutputChannel=8, InputChannel=15
231bdbf7f9d8c2ede9d3e208ff0412f5
# Keras Layer (derived): Conv Kernel Plane - OutputChannel=9, InputChannel=0
5f6d2debf81d14d8bde6e602c9bcdffa
# Keras Layer (derived): Conv Kernel Plane - OutputChannel=9, InputChannel=1
4667250d2911e8e4d9cbd6cc81c9d71d
# Keras Layer (derived): Conv Kernel Plane - OutputChannel=9, InputChannel=2
08b20713e09fe3e6c6c7dcebd1f7eece
# Keras Layer (derived): Conv Kernel Plane - OutputChannel=9, InputChannel=3
d0c5f90dfdd10cd3ffccbeeb22011d31
# Keras Layer (derived): Conv Kernel Plane - OutputChannel=9, InputChannel=4
c0aa0d2dcefb3828e50515e9e4d7def3
# Keras Layer (derived): Conv Kernel Plane - OutputChannel=9, InputChannel=5
e790fd18f9baf706f4d2f9e51a1b27f2
# Keras Layer (derived): Conv Kernel Plane - OutputChannel=9, InputChannel=6
ed15e3e92d0ef5deeff11411f6da240b
# Keras Layer (derived): Conv Kernel Plane - OutputChannel=9, InputChannel=7
e1121925d2f7f10fc0022007f0170ff9
# Keras Layer (derived): Conv Kernel Plane - OutputChannel=9, InputChannel=8
c0adf610fe131d281d2f26051e2a22fe
# Keras Layer (derived): Conv Kernel Plane - OutputChannel=9, InputChannel=9
cfc12e3df4024d48c6fd2b10eff313f9
# Keras Layer (derived): Conv Kernel Plane - OutputChannel=9, InputChannel=10
f5dc12d806c300fb1f01171709d906f7
# Keras Layer (derived): Conv Kernel Plane - OutputChannel=9, InputChannel=11
fdd9c7fff4e21832d3d7102cf1f4e200
# Keras Layer (derived): Conv Kernel Plane - OutputChannel=9, InputChannel=12
a7b009f5dceb2c14ea0811fb340f0d02
# Keras Layer (derived): Conv Kernel Plane - OutputChannel=9, InputChannel=13
c6aee50709e91b2ff91718f8eb1e0c27
# Keras Layer (derived): Conv Kernel Plane - OutputChannel=9, InputChannel=14
f5ebf113dcdbddfccecc011115ffe1f6
# Keras Layer (derived): Conv Kernel Plane - OutputChannel=9, InputChannel=15
e3e7320233fcf90c15f20819dff21910
# Keras Layer (derived): Conv Kernel Plane - OutputChannel=10, InputChannel=0
06140b040a0416e6fdc6fdcb21e3d0df
# Keras Layer (derived): Conv Kernel Plane - OutputChannel=10, InputChannel=1
08e1ec2bb7cdc40de89ec20b14d1e4f2
# Keras Layer (derived): Conv Kernel Plane - OutputChannel=10, InputChannel=2
e615bbf80efae10d2af6fa033900de10
# Keras Layer (derived): Conv Kernel Plane - OutputChannel=10, InputChannel=3
f6e1e7dff1c9c9d1a8ddf8e90b250cfa
# Keras Layer (derived): Conv Kernel Plane - OutputChannel=10, InputChannel=4
130ffaf7f520e2111b14d5f610dfd8e7
# Keras Layer (derived): Conv Kernel Plane - OutputChannel=10, InputChannel=5
2d0cea1958effaf433d0edfb1df4ddf8
# Keras Layer (derived): Conv Kernel Plane - OutputChannel=10, InputChannel=6
f9d6090dc7c2162de9c3e3000ec8eef9
# Keras Layer (derived): Conv Kernel Plane - OutputChannel=10, InputChannel=7
15202e10fd08ebe50cff0900def5f426
# Keras Layer (derived): Conv Kernel Plane - OutputChannel=10, InputChannel=8
06250214e00deeecf4ee2011f6fc0220
# Keras Layer (derived): Conv Kernel Plane - OutputChannel=10, InputChannel=9
d30a1410dc19d40021d2f5100ff7f1fc
# Keras Layer (derived): Conv Kernel Plane - OutputChannel=10, InputChannel=10
1ccefbfcf2e410f2c1e5101a1607f817
# Keras Layer (derived): Conv Kernel Plane - OutputChannel=10, InputChannel=11
deca11f781142aebf90c08e92001dbf0
# Keras Layer (derived): Conv Kernel Plane - OutputChannel=10, InputChannel=12
1e1bfaf11018e41b4e37def934f8eff3
# Keras Layer (derived): Conv Kernel Plane - OutputChannel=10, InputChannel=13
fd340bed142cde282af1e63b1fc10112
# Keras Layer (derived): Conv Kernel Plane - OutputChannel=10, InputChannel=14
ece506dee9f9202f021104fef110faf0
# Keras Layer (derived): Conv Kernel Plane - OutputChannel=10, InputChannel=15
00efd8e1c9d0c7fbf1f5fbfd06f3e80d
# Keras Layer (derived): Conv Kernel Plane - OutputChannel=11, InputChannel=0
81c91010d9ebfa26e9e8f343eb170ce7
# Keras Layer (derived): Conv Kernel Plane - OutputChannel=11, InputChannel=1
29d8f725faec29021b0616ee0c010edd
# Keras Layer (derived): Conv Kernel Plane - OutputChannel=11, InputChannel=2
e60012e9012a01c1113608e9e6dff2e0
# Keras Layer (derived): Conv Kernel Plane - OutputChannel=11, InputChannel=3
110503cb2822fdf728f8fdcd211f0906
# Keras Layer (derived): Conv Kernel Plane - OutputChannel=11, InputChannel=4
de98bd0bd5aed5edf6fcea09ffdef429
# Keras Layer (derived): Conv Kernel Plane - OutputChannel=11, InputChannel=5
190a05f8243703ec341120db161118ee
# Keras Layer (derived): Conv Kernel Plane - OutputChannel=11, InputChannel=6
c0ddbefcebe70404151b181cdffb0cef
# Keras Layer (derived): Conv Kernel Plane - OutputChannel=11, InputChannel=7
d0d5d4042a29051c0e2217f11930dd04
# Keras Layer (derived): Conv Kernel Plane - OutputChannel=11, InputChannel=8
02e6eb0909feec16fa050429fd250915
# Keras Layer (derived): Conv Kernel Plane - OutputChannel=11, InputChannel=9
d4d8f411c1e7193005e2e718d4ffe6fb
# Keras Layer (derived): Conv Kernel Plane - OutputChannel=11, InputChannel=10
cbf9e6f50a3322350614f0fdf82618fb
# Keras Layer (derived): Conv Kernel Plane - OutputChannel=11, InputChannel=11
f9e405fbe0de19d70f13ff17ecf213ff
# Keras Layer (derived): Conv Kernel Plane - OutputChannel=11, InputChannel=12
13e2d4ec1406f7f105f0d1da01d8edfc
# Keras Layer (derived): Conv Kernel Plane - OutputChannel=11, InputChannel=13
1400f3ff0c10fdfc0b04eb00ec0d0707
# Keras Layer (derived): Conv Kernel Plane - OutputChannel=11, InputChannel=14
12fb16cb211207f4220ffad93d00e803
# Keras Layer (derived): Conv Kernel Plane - OutputChannel=11, InputChannel=15
d6f1def80d180d0d2228f4df0411f106
# Keras Layer (derived): Conv Kernel Plane - OutputChannel=12, InputChannel=0
affbda2ed2e59c16e9259537cf8cbc23
# Keras Layer (derived): Conv Kernel Plane - OutputChannel=12, InputChannel=1
d0f5c646d19281c4fbb1ca30a8190d0c
# Keras Layer (derived): Conv Kernel Plane - OutputChannel=12, InputChannel=2
ef0de1f20702ad019afe84e2f0e6c3ca
# Keras Layer (derived): Conv Kernel Plane - OutputChannel=12, InputChannel=3
cef907eae4daf8f7dcae2df7311df749
# Keras Layer (derived): Conv Kernel Plane - OutputChannel=12, InputChannel=4
dce0e8e00c03b710facd0bc90009d2d8
# Keras Layer (derived): Conv Kernel Plane - OutputChannel=12, InputChannel=5
07be13dfc4af14e1dad0a225a0cf1bf6
# Keras Layer (derived): Conv Kernel Plane - OutputChannel=12, InputChannel=6
c6d8d8f800fbcf06a1e0d3d827f005d3
# Keras Layer (derived): Conv Kernel Plane - OutputChannel=12, InputChannel=7
21dd00c9e507f59da7ffdc25eab200b8
# Keras Layer (derived): Conv Kernel Plane - OutputChannel=12, InputChannel=8
d9c823d70dbdbefd1ef4a8e7dc1ee3fd
# Keras Layer (derived): Conv Kernel Plane - OutputChannel=12, InputChannel=9
1a1dff0d030afcccf5f234f0e8e22336
# Keras Layer (derived): Conv Kernel Plane - OutputChannel=12, InputChannel=10
c7c6bad52de8c116efa2f6a6bd96a9ae
# Keras Layer (derived): Conv Kernel Plane - OutputChannel=12, InputChannel=11
cebbedf3c0fbf5f6cc9e0c0bfcedf2c1
# Keras Layer (derived): Conv Kernel Plane - OutputChannel=12, InputChannel=12
c7edbad11fb1ae0dcadf1bd8c6c017eb
# Keras Layer (derived): Conv Kernel Plane - OutputChannel=12, InputChannel=13
0fe0c4edd4e214eb05bbecd5fab2e8ee
# Keras Layer (derived): Conv Kernel Plane - OutputChannel=12, InputChannel=14
ba03c2ede3cf0805c6b8f4accf05fede
# Keras Layer (derived): Conv Kernel Plane - OutputChannel=12, InputChannel=15
fde3e8c7c89ccccbdcdc181bbff2f015
# Keras Layer (derived): Conv Kernel Plane - OutputChannel=13, InputChannel=0
e52e09e84c61fe030436352917ff3919
# Keras Layer (derived): Conv Kernel Plane - OutputChannel=13, InputChannel=1
2224f6fa677ff6ec0f440fe40dfc0c1a
# Keras Layer (derived): Conv Kernel Plane - OutputChannel=13, InputChannel=2
10f1ebea4b3603d61e1e21240adcc8ee
# Keras Layer (derived): Conv Kernel Plane - OutputChannel=13, InputChannel=3
07facef0edb81b372bdcea3630f2d6d2
# Keras Layer (derived): Conv Kernel Plane - OutputChannel=13, InputChannel=4
c31f0c129a0c2d1aa9ee282c1ff5ee0b
# Keras Layer (derived): Conv Kernel Plane - OutputChannel=13, InputChannel=5
04f8cde2590fb6f634ff02dd2a0318e1
# Keras Layer (derived): Conv Kernel Plane - OutputChannel=13, InputChannel=6
09fa25e90b17240119333e0417d20e09
# Keras Layer (derived): Conv Kernel Plane - OutputChannel=13, InputChannel=7
d3f8e9d5f20d0011f0f7142f1103f804
# Keras Layer (derived): Conv Kernel Plane - OutputChannel=13, InputChannel=8
260adb01ef9804052101ef0c20dbeee1
# Keras Layer (derived): Conv Kernel Plane - OutputChannel=13, InputChannel=9
ebe8ebdbb41907e9d81a0205b8eff909
# Keras Layer (derived): Conv Kernel Plane - OutputChannel=13, InputChannel=10
c60dfa0c1e0817f4c4d7f506eaeef8f1
# Keras Layer (derived): Conv Kernel Plane - OutputChannel=13, InputChannel=11
3af60c11df0015f13f33eff2dfd9eae4
# Keras Layer (derived): Conv Kernel Plane - OutputChannel=13, InputChannel=12
cdc513f8dee3f3fadf0801ed04141518
# Keras Layer (derived): Conv Kernel Plane - OutputChannel=13, InputChannel=13
0ce1cc0131f3deddfa0eeecc04f9de0c
# Keras Layer (derived): Conv Kernel Plane - OutputChannel=13, InputChannel=14
d2d9091ced9d235339d0dc393b3301e4
# Keras Layer (derived): Conv Kernel Plane - OutputChannel=13, InputChannel=15
040b040dcf341915eedb1817dd02ddf7
# Keras Layer (derived): Conv Kernel Plane - OutputChannel=14, InputChannel=0
d5f00211f4ece00beaea2805464a2e09
# Keras Layer (derived): Conv Kernel Plane - OutputChannel=14, InputChannel=1
160ff01c2935221b30e501092a1bf7e1
# Keras Layer (derived): Conv Kernel Plane - OutputChannel=14, InputChannel=2
e7effb33e5fbed13f91bf0f7061e0afb
# Keras Layer (derived): Conv Kernel Plane - OutputChannel=14, InputChannel=3
1a0ffd2ad7bdd7ff13f9c6fd311f1913
# Keras Layer (derived): Conv Kernel Plane - OutputChannel=14, InputChannel=4
fcc8f3f4d6c5ff3fded1082cfb1e0e0d
# Keras Layer (derived): Conv Kernel Plane - OutputChannel=14, InputChannel=5
28191fef1015051807e9f80bd8e6f5f4
# Keras Layer (derived): Conv Kernel Plane - OutputChannel=14, InputChannel=6
deda0becc0e208f3ef2326ee2211fcf1
# Keras Layer (derived): Conv Kernel Plane - OutputChannel=14, InputChannel=7
e5dee917dfee1d221a2dfa201a020e27
# Keras Layer (derived): Conv Kernel Plane - OutputChannel=14, InputChannel=8
09e0f520bb81c515efe0d0fd37301729
# Keras Layer (derived): Conv Kernel Plane - OutputChannel=14, InputChannel=9
d2e02025c1a1f929fff13ae63634fbdd
# Keras Layer (derived): Conv Kernel Plane - OutputChannel=14, InputChannel=10
f1ce0634e2c4f305d4c7e90d0f00f5f4
# Keras Layer (derived): Conv Kernel Plane - OutputChannel=14, InputChannel=11
edf9ed132f08f3101bf4fd0e114931dc
# Keras Layer (derived): Conv Kernel Plane - OutputChannel=14, InputChannel=12
e6e2eff4cfe1f70fcfe10820edf3020e
# Keras Layer (derived): Conv Kernel Plane - OutputChannel=14, InputChannel=13
01e11917eae90b19e8e6f60313111711
# Keras Layer (derived): Conv Kernel Plane - OutputChannel=14, InputChannel=14
1919eff12c1905153700fbef04ebdb09
# Keras Layer (derived): Conv Kernel Plane - OutputChannel=14, InputChannel=15
e6d3fe42c895dc08f2f8b8f625211a11
# Keras Layer (derived): Conv Kernel Plane - OutputChannel=15, InputChannel=0
819a99afb9c1f1fd050be2270c293bf9
# Keras Layer (derived): Conv Kernel Plane - OutputChannel=15, InputChannel=1
07e605c5fcf6e5ccaf95b7d937405a57
# Keras Layer (derived): Conv Kernel Plane - OutputChannel=15, InputChannel=2
150bf3f5fbe3f3fb250d351dcdee3302
# Keras Layer (derived): Conv Kernel Plane - OutputChannel=15, InputChannel=3
160b401cf2da02dcfc243407f7dba3ab
# Keras Layer (derived): Conv Kernel Plane - OutputChannel=15, InputChannel=4
082a19f5f01f1a0cca000c22ead1ef0d
# Keras Layer (derived): Conv Kernel Plane - OutputChannel=15, InputChannel=5
c0e711e8d503ce0e15ddcd10d1fee4c9
# Keras Layer (derived): Conv Kernel Plane - OutputChannel=15, InputChannel=6
2ee5ce12e5afb4a12a090ff6f3150f0a
# Keras Layer (derived): Conv Kernel Plane - OutputChannel=15, InputChannel=7
f608123bc4e802dce911262d04fcca09
# Keras Layer (derived): Conv Kernel Plane - OutputChannel=15, InputChannel=8
f5172b2deedcf605d1071527e6f4eefa
# Keras Layer (derived): Conv Kernel Plane - OutputChannel=15, InputChannel=9
0e00f10ea9d8f8f715033b2d09f1e916
# Keras Layer (derived): Conv Kernel Plane - OutputChannel=15, InputChannel=10
25011b13f9eafbe70f2d06c20a04e5eb
# Keras Layer (derived): Conv Kernel Plane - OutputChannel=15, InputChannel=11
05a1d5fbcd94cab427f5e512ff281604
# Keras Layer (derived): Conv Kernel Plane - OutputChannel=15, InputChannel=12
332b1df7291e2f1f0927231ed7b70907
# Keras Layer (derived): Conv Kernel Plane - OutputChannel=15, InputChannel=13
fd37ee1909182bf1f019193ae7d9e926
# Keras Layer (derived): Conv Kernel Plane - OutputChannel=15, InputChannel=14
cbdc0e2ba3e20814ccfaf6e406cfed30
# Keras Layer (derived): Conv Kernel Plane - OutputChannel=15, InputChannel=15
2b1f1c0d15eedadd1a3bff05e6ecead5
# Keras Layer (derived): Conv Kernel Plane - OutputChannel=16, InputChannel=0
89e0c9f2d9efb8a9c3daced0d1d5e2e4
# Keras Layer (derived): Conv Kernel Plane - OutputChannel=16, InputChannel=1
e4d03425f3be1b1ce0d5a8fec5f6c1fb
# Keras Layer (derived): Conv Kernel Plane - OutputChannel=16, InputChannel=2
eb14f20e09f0edf706de0cfd2a052afb
# Keras Layer (derived): Conv Kernel Plane - OutputChannel=16, InputChannel=3
1203ee3533feeefff9dfc9d40ffbfbf6
# Keras Layer (derived): Conv Kernel Plane - OutputChannel=16, InputChannel=4
385e2441eacef51ce511f3e92909eef5
# Keras Layer (derived): Conv Kernel Plane - OutputChannel=16, InputChannel=5
ea201f4deff5f4f0b4df14ddb1d617e0
# Keras Layer (derived): Conv Kernel Plane - OutputChannel=16, InputChannel=6
fefee2c8120ce3d85d7f33e5e7341c15
# Keras Layer (derived): Conv Kernel Plane - OutputChannel=16, InputChannel=7
f3412c00612f324003cce6dbe4cdc2fb
# Keras Layer (derived): Conv Kernel Plane - OutputChannel=16, InputChannel=8
fd47450ffb11ecdef4f4cebe08feeef9
# Keras Layer (derived): Conv Kernel Plane - OutputChannel=16, InputChannel=9
fa0ae2e5eef7c3aefa09c4bfb7edebf6
# Keras Layer (derived): Conv Kernel Plane - OutputChannel=16, InputChannel=10
f53e2c1d301a0ef33804e3bf1a05c5f6
# Keras Layer (derived): Conv Kernel Plane - OutputChannel=16, InputChannel=11
f8fb06dfb2f3f3bd453ce6e53a22e90e
# Keras Layer (derived): Conv Kernel Plane - OutputChannel=16, InputChannel=12
e51c0c00fc14201bc6fa271b03182023
# Keras Layer (derived): Conv Kernel Plane - OutputChannel=16, InputChannel=13
deefea120bfdf323e40e2affeffd2a11
# Keras Layer (derived): Conv Kernel Plane - OutputChannel=16, InputChannel=14
2c2c2a0e4224e104dad1c0e5151dd808
# Keras Layer (derived): Conv Kernel Plane - OutputChannel=16, InputChannel=15
01faf91607021437f5f2d9cbf8d9c7df
# Keras Layer (derived): Conv Kernel Plane - OutputChannel=17, InputChannel=0
1881c3e80de6030fd6c9e517c6d1f40b
# Keras Layer (derived): Conv Kernel Plane - OutputChannel=17, InputChannel=1
c3d1facc1b2035f4fc85deca3a20140c
# Keras Layer (derived): Conv Kernel Plane - OutputChannel=17, InputChannel=2
2ae5f922d9cac919cad1f50abdc31f12
# Keras Layer (derived): Conv Kernel Plane - OutputChannel=17, InputChannel=3
f91aebcbf21d25273723011effe7d8dc
# Keras Layer (derived): Conv Kernel Plane - OutputChannel=17, InputChannel=4
1f50ea026715b0c842f28a9a3cf9dfcd
# Keras Layer (derived): Conv Kernel Plane - OutputChannel=17, InputChannel=5
2ddc1028e60c2020ea0830f1162415f2
# Keras Layer (derived): Conv Kernel Plane - OutputChannel=17, InputChannel=6
f2e5efd4ef16bfed5025dadd130bc5fa
# Keras Layer (derived): Conv Kernel Plane - OutputChannel=17, InputChannel=7
4e03f6fc1b25d0c61203bddce1efeff6
# Keras Layer (derived): Conv Kernel Plane - OutputChannel=17, InputChannel=8
36520904113e0fdb0d26e9e61a2cedfb
# Keras Layer (derived): Conv Kernel Plane - OutputChannel=17, InputChannel=9
190403096acee3f148e5aa1b4216eae4
# Keras Layer (derived): Conv Kernel Plane - OutputChannel=17, InputChannel=10
330703ee2c5f1eed01ff93ae270dd806
# Keras Layer (derived): Conv Kernel Plane - OutputChannel=17, InputChannel=11
eb0502ea5c47c2e443f199f8590afcfb
# Keras Layer (derived): Conv Kernel Plane - OutputChannel=17, InputChannel=12
09f7bde011f1bde401d0ebcb351f1d1d
# Keras Layer (derived): Conv Kernel Plane - OutputChannel=17, InputChannel=13
14dedfdf03c7fadee4b20d031c01391b
# Keras Layer (derived): Conv Kernel Plane - OutputChannel=17, InputChannel=14
ccd7e31d3d1f0e3533f71813241421e7
# Keras Layer (derived): Conv Kernel Plane - OutputChannel=17, InputChannel=15
0a4406d6202ddcc2e5efd4f50122cee9
# Keras Layer (derived): Conv Kernel Plane - OutputChannel=18, InputChannel=0
f20e1305d5f91012f8de10fdf8fecbbe
# Keras Layer (derived): Conv Kernel Plane - OutputChannel=18, InputChannel=1
e90af9fb3116c6febdf6dd3cdce40c00
# Keras Layer (derived): Conv Kernel Plane - OutputChannel=18, InputChannel=2
003640012922ff031de7bc071e351c32
# Keras Layer (derived): Conv Kernel Plane - OutputChannel=18, InputChannel=3
f3c81c05d8cbe3f629161c1e0001fcf8
# Keras Layer (derived): Conv Kernel Plane - OutputChannel=18, InputChannel=4
faf210d5e802e4f7dae400e9f8f92719
# Keras Layer (derived): Conv Kernel Plane - OutputChannel=18, InputChannel=5
261428e90fa6d907e081e3f80ce2eb00
# Keras Layer (derived): Conv Kernel Plane - OutputChannel=18, InputChannel=6
1a5b3c4210536134083f0faef3fb13f4
# Keras Layer (derived): Conv Kernel Plane - OutputChannel=18, InputChannel=7
1f1632121c0018fd381117ed18e7e202
# Keras Layer (derived): Conv Kernel Plane - OutputChannel=18, InputChannel=8
21ff18e1e2e1f5f6223403181b1d0afa
# Keras Layer (derived): Conv Kernel Plane - OutputChannel=18, InputChannel=9
f4ebfd08f305f4cbc5b1deadf4cfe3f8
# Keras Layer (derived): Conv Kernel Plane - OutputChannel=18, InputChannel=10
0c11361817462002072a050a283c380c
# Keras Layer (derived): Conv Kernel Plane - OutputChannel=18, InputChannel=11
1220fa243d4412f0fe2bce9a100c051b
# Keras Layer (derived): Conv Kernel Plane - OutputChannel=18, InputChannel=12
2b09ed0f1ad7bdf204a1dd0f33232d34
# Keras Layer (derived): Conv Kernel Plane - OutputChannel=18, InputChannel=13
1decf300ebdcdd0509daf51e2e2e0e30
# Keras Layer (derived): Conv Kernel Plane - OutputChannel=18, InputChannel=14
360c4aee31e3fd0206e8e9c7f9cfc7f0
# Keras Layer (derived): Conv Kernel Plane - OutputChannel=18, InputChannel=15
efe3f4d0f003100bdef7f2d516ea1917
# Keras Layer (derived): Conv Kernel Plane - OutputChannel=19, InputChannel=0
d0e8f601d5aee7e8d31a3215e10f2830
# Keras Layer (derived): Conv Kernel Plane - OutputChannel=19, InputChannel=1
2bf6f60502e3e60ad101dff1e90c150a
# Keras Layer (derived): Conv Kernel Plane - OutputChannel=19, InputChannel=2
c2e2eaf20fce84c2312ff83a2341ee27
# Keras Layer (derived): Conv Kernel Plane - OutputChannel=19, InputChannel=3
0b06d812103df4f11bff16e3e5e0d7b7
# Keras Layer (derived): Conv Kernel Plane - OutputChannel=19, InputChannel=4
00e92c1ceebfdef0e7e71739c0f9bae4
# Keras Layer (derived): Conv Kernel Plane - OutputChannel=19, InputChannel=5
0bfcd1ede904e20035f4f8301fd4fee3
# Keras Layer (derived): Conv Kernel Plane - OutputChannel=19, InputChannel=6
ef565221300613cefb387fce16083bf7
# Keras Layer (derived): Conv Kernel Plane - OutputChannel=19, InputChannel=7
08d6052b0f421c072939e235e5cfb7f2
# Keras Layer (derived): Conv Kernel Plane - OutputChannel=19, InputChannel=8
3712ec2506f4e3f0ed3b19f3d823e9bd
# Keras Layer (derived): Conv Kernel Plane - OutputChannel=19, InputChannel=9
08154c24e9a9dcd623e4f924fcf1d6ea
# Keras Layer (derived): Conv Kernel Plane - OutputChannel=19, InputChannel=10
0bf3e90d113112fa162fedddec14feda
# Keras Layer (derived): Conv Kernel Plane - OutputChannel=19, InputChannel=11
13281340cf07e80320590edb153a200f
# Keras Layer (derived): Conv Kernel Plane - OutputChannel=19, InputChannel=12
d1d4c40ff3adce0b2701245d0ffd1416
# Keras Layer (derived): Conv Kernel Plane - OutputChannel=19, InputChannel=13
cbbee5212ea1ab242def0623fd1d031a
# Keras Layer (derived): Conv Kernel Plane - OutputChannel=19, InputChannel=14
fdf3f4be0618f4db22f0e7ecfce61d09
# Keras Layer (derived): Conv Kernel Plane - OutputChannel=19, InputChannel=15
0b0a1f1fec16ded8f12310dde308e2e4
# Keras Layer (derived): Conv Kernel Plane - OutputChannel=20, InputChannel=0
da83e82dc9e6e0f95f5ce207f9ea04ff
# Keras Layer (derived): Conv Kernel Plane - OutputChannel=20, InputChannel=1
96cfedb726d3feee2b0befb903131546
# Keras Layer (derived): Conv Kernel Plane - OutputChannel=20, InputChannel=2
e9bbea04374200d0fb5834bbe2da0304
# Keras Layer (derived): Conv Kernel Plane - OutputChannel=20, InputChannel=3
4100ddf0053907afe4fd080a0bf8f3f3
# Keras Layer (derived): Conv Kernel Plane - OutputChannel=20, InputChannel=4
0908081ec141fe1acf031520db1be1eb
# Keras Layer (derived): Conv Kernel Plane - OutputChannel=20, InputChannel=5
a7cf02e81c00170a40eb04ef0b0f1b24
# Keras Layer (derived): Conv Kernel Plane - OutputChannel=20, InputChannel=6
d6ebd10209dbe0100b000ab4fef5de23
# Keras Layer (derived): Conv Kernel Plane - OutputChannel=20, InputChannel=7
a7eee213f2b8dff801eed307dcd10114
# Keras Layer (derived): Conv Kernel Plane - OutputChannel=20, InputChannel=8
ecf314140c44fdf40f06e9020f0a230a
# Keras Layer (derived): Conv Kernel Plane - OutputChannel=20, InputChannel=9
1629ff1f4501de1c2e410dc80119df27
# Keras Layer (derived): Conv Kernel Plane - OutputChannel=20, InputChannel=10
f6e4f51d060b12d70e02f6f6c0e8f2b7
# Keras Layer (derived): Conv Kernel Plane - OutputChannel=20, InputChannel=11
ada73123d098fc3243400ecdc4c0022a
# Keras Layer (derived): Conv Kernel Plane - OutputChannel=20, InputChannel=12
f1e801023405ff04eefe1d00fb0b0f07
# Keras Layer (derived): Conv Kernel Plane - OutputChannel=20, InputChannel=13
e0e0e5f5500afaf5192dedd60118ff06
# Keras Layer (derived): Conv Kernel Plane - OutputChannel=20, InputChannel=14
e3caa8fc81e80d09d1f41a2800ecc8b4
# Keras Layer (derived): Conv Kernel Plane - OutputChannel=20, InputChannel=15
2bfdf6195745fac0e656420dd503f5fb
# Keras Layer (derived): Conv Kernel Plane - OutputChannel=21, InputChannel=0
e6e3edfa00df5128100f3302971e240d
# Keras Layer (derived): Conv Kernel Plane - OutputChannel=21, InputChannel=1
24c098ccd6b9cf35b19ea0faf3321b40
# Keras Layer (derived): Conv Kernel Plane - OutputChannel=21, InputChannel=2
df98f80be7c117ef1f0e472df820253b
# Keras Layer (derived): Conv Kernel Plane - OutputChannel=21, InputChannel=3
c69394b001d9f805dfe3222ee1bec0dc
# Keras Layer (derived): Conv Kernel Plane - OutputChannel=21, InputChannel=4
0bedd5f4f8d4f415d1e0dff017bcb123
# Keras Layer (derived): Conv Kernel Plane - OutputChannel=21, InputChannel=5
fb0a14c808052c1ce6e825eec90f23c4
# Keras Layer (derived): Conv Kernel Plane - OutputChannel=21, InputChannel=6
0d204f16e3d72d1ceedc2302e126371a
# Keras Layer (derived): Conv Kernel Plane - OutputChannel=21, InputChannel=7
db81a8c4eae2c40a04e61b46fdfaf7d0
# Keras Layer (derived): Conv Kernel Plane - OutputChannel=21, InputChannel=8
e7f2a9d111faf202002417372604c917
# Keras Layer (derived): Conv Kernel Plane - OutputChannel=21, InputChannel=9
d2abc6dfb4fdc607e6fe24c601ecbcae
# Keras Layer (derived): Conv Kernel Plane - OutputChannel=21, InputChannel=10
06e5c907edc7aef8341651290d1f562c
# Keras Layer (derived): Conv Kernel Plane - OutputChannel=21, InputChannel=11
f7f4e1dfce0c2e37dd0d38c71411e5de
# Keras Layer (derived): Conv Kernel Plane - OutputChannel=21, InputChannel=12
40ee0ed33e6651371ef40ad8e0dbd3d1
# Keras Layer (derived): Conv Kernel Plane - OutputChannel=21, InputChannel=13
f9dcf7cb2d2634e6250f430aed0300f3
# Keras Layer (derived): Conv Kernel Plane - OutputChannel=21, InputChannel=14
2c1ee842cbeabe14f1f9fa070df8cbac
# Keras Layer (derived): Conv Kernel Plane - OutputChannel=21, InputChannel=15
efcfaa9d0a0482b72d2e19eee7e92403
# Keras Layer (derived): Conv Kernel Plane - OutputChannel=22, InputChannel=0
16d6ede90903efde172020ecdfefe3ed
# Keras Layer (derived): Conv Kernel Plane - OutputChannel=22, InputChannel=1
f0de1a1ff2e9f7dbecc2f0eb01f9fefe
# Keras Layer (derived): Conv Kernel Plane - OutputChannel=22, InputChannel=2
000c13f7facfe9f70de5c82014bddb27
# Keras Layer (derived): Conv Kernel Plane - OutputChannel=22, InputChannel=3
f5f3ed17ecf2d400dd09deee0502e6f5
# Keras Layer (derived): Conv Kernel Plane - OutputChannel=22, InputChannel=4
ef181007fb0901fb04f3e8081800f517
# Keras Layer (derived): Conv Kernel Plane - OutputChannel=22, InputChannel=5
1cf914080cb0ddfb0781ce0cfcd2d80e
# Keras Layer (derived): Conv Kernel Plane - OutputChannel=22, InputChannel=6
0afd0df5f6020dfcd9f316f0df0b0010
# Keras Layer (derived): Conv Kernel Plane - OutputChannel=22, InputChannel=7
f404fc08ed06ef0b05ebd7f9f2ebf0fc
# Keras Layer (derived): Conv Kernel Plane - OutputChannel=22, InputChannel=8
fe2022070406edf00a22f7fb2312091a
# Keras Layer (derived): Conv Kernel Plane - OutputChannel=22, InputChannel=9
07261001ec1213fce3130e01f9110211
# Keras Layer (derived): Conv Kernel Plane - OutputChannel=22, InputChannel=10
e4031febe91f0be60a0e00f900150900
# Keras Layer (derived): Conv Kernel Plane - OutputChannel=22, InputChannel=11
fe3109f7ee3c0df5c81a17df09150509
# Keras Layer (derived): Conv Kernel Plane - OutputChannel=22, InputChannel=12
f5130cfdf2e5f50fffb4d21d09c2fe31
# Keras Layer (derived): Conv Kernel Plane - OutputChannel=22, InputChannel=13
fefd160209da07161eb1f51f06b60516
# Keras Layer (derived): Conv Kernel Plane - OutputChannel=22, InputChannel=14
0afcf016e904e8f0041cf5ebf520ccde
# Keras Layer (derived): Conv Kernel Plane - OutputChannel=22, InputChannel=15
ec1d0d04e70108fdf80af618f9f2fb07
# Keras Layer (derived): Conv Kernel Plane - OutputChannel=23, InputChannel=0
ce9af704e9dd239c3642e708d03f35fe
# Keras Layer (derived): Conv Kernel Plane - OutputChannel=23, InputChannel=1
fff5cb35b603e5ee041ca1081310b314
# Keras Layer (derived): Conv Kernel Plane - OutputChannel=23, InputChannel=2
ce8109f322461aee3cf7e33ff6de020c
# Keras Layer (derived): Conv Kernel Plane - OutputChannel=23, InputChannel=3
e6cb0af004eac019da9ed4e407031324
# Keras Layer (derived): Conv Kernel Plane - OutputChannel=23, InputChannel=4
07f5d4d6f10426fc1d2f17dc0bf001f5
# Keras Layer (derived): Conv Kernel Plane - OutputChannel=23, InputChannel=5
8fe61c12172a140f1a0cf20ff9001d0d
# Keras Layer (derived): Conv Kernel Plane - OutputChannel=23, InputChannel=6
bbe2c91bd502e91d2eead5d0dcf1f7f5
# Keras Layer (derived): Conv Kernel Plane - OutputChannel=23, InputChannel=7
d32007ce3526001cf2cc06f916ece520
# Keras Layer (derived): Conv Kernel Plane - OutputChannel=23, InputChannel=8
01303cd9f053181b1b00f309edf5ed16
# Keras Layer (derived): Conv Kernel Plane - OutputChannel=23, InputChannel=9
0e5218cef67d75eb0a4433e4bd1e283a
# Keras Layer (derived): Conv Kernel Plane - OutputChannel=23, InputChannel=10
4744efb919eebb0fe5f1ebcbfbc4d0d8
# Keras Layer (derived): Conv Kernel Plane - OutputChannel=23, InputChannel=11
cec6b1050bc70d28f31dcab40ead0500
# Keras Layer (derived): Conv Kernel Plane - OutputChannel=23, InputChannel=12
c0def9fe1d374540fd06050904e00704
# Keras Layer (derived): Conv Kernel Plane - OutputChannel=23, InputChannel=13
c5f2f4cb0c432a1a1c27061402e6fa38
# Keras Layer (derived): Conv Kernel Plane - OutputChannel=23, InputChannel=14
f0e5dbfdf1e3e208f5e60a1113133bf6
# Keras Layer (derived): Conv Kernel Plane - OutputChannel=23, InputChannel=15
dee61cf6edf7c9e2ffecb4ff01e0d9e1
# Keras Layer (derived): Conv Kernel Plane - OutputChannel=24, InputChannel=0
01effed82a30d9d821fae1f712bdc2f0
# Keras Layer (derived): Conv Kernel Plane - OutputChannel=24, InputChannel=1
2612eba3e8f1101dec070309eeebf801
# Keras Layer (derived): Conv Kernel Plane - OutputChannel=24, InputChannel=2
1d050f1d0bbeeae919f4090201041016
# Keras Layer (derived): Conv Kernel Plane - OutputChannel=24, InputChannel=3
e1cff7e1c5100904e720150ecaf2f1f6
# Keras Layer (derived): Conv Kernel Plane - OutputChannel=24, InputChannel=4
dce7f3fe0024240e2c38f9e5f9e2050a
# Keras Layer (derived): Conv Kernel Plane - OutputChannel=24, InputChannel=5
020300cdfeb3d3feff0209032112fef4
# Keras Layer (derived): Conv Kernel Plane - OutputChannel=24, InputChannel=6
f8250e091b7f5b310a201e1efeff2619
# Keras Layer (derived): Conv Kernel Plane - OutputChannel=24, InputChannel=7
16302ce5110edb14fe1600ec091614ef
# Keras Layer (derived): Conv Kernel Plane - OutputChannel=24, InputChannel=8
f4ddf4e9200eddf82c3a280df3e2eefd
# Keras Layer (derived): Conv Kernel Plane - OutputChannel=24, InputChannel=9
fe213afb242d1be416ebcde7eee8fff8
# Keras Layer (derived): Conv Kernel Plane - OutputChannel=24, InputChannel=10
d3d5d1f1f5f4daffe2e6ef0fe51f0b26
# Keras Layer (derived): Conv Kernel Plane - OutputChannel=24, InputChannel=11
1c2306fa223c1cdecc0f14e5f606d70d
# Keras Layer (derived): Conv Kernel Plane - OutputChannel=24, InputChannel=12
e4f4020bf6db01f215fef2f735212206
# Keras Layer (derived): Conv Kernel Plane - OutputChannel=24, InputChannel=13
effbe4daefe1021a311010ed201409f8
# Keras Layer (derived): Conv Kernel Plane - OutputChannel=24, InputChannel=14
f7ef2414e3b6dfe6f41311f9dd0e300e
# Keras Layer (derived): Conv Kernel Plane - OutputChannel=24, InputChannel=15
feccf9e1f519291cdef6f919c5fa0a10
# Keras Layer (derived): Conv Kernel Plane - OutputChannel=25, InputChannel=0
a2c4e7a4dfb2c0bdeee417bed4fbe4c3
# Keras Layer (derived): Conv Kernel Plane - OutputChannel=25, InputChannel=1
1003fbdab9c6e9dddab8ff05f8cbd71d
# Keras Layer (derived): Conv Kernel Plane - OutputChannel=25, InputChannel=2
d9332fb62d0508c8d0cbedf6b3e1e53a
# Keras Layer (derived): Conv Kernel Plane - OutputChannel=25, InputChannel=3
0aff05e818b528ea1a061328fbf303e8
# Keras Layer (derived): Conv Kernel Plane - OutputChannel=25, InputChannel=4
cfea0630f0fcf60ad8c0a8fcccc2d6ef
# Keras Layer (derived): Conv Kernel Plane - OutputChannel=25, InputChannel=5
0902eeae163e23c2e40e2cf0b8f42623
# Keras Layer (derived): Conv Kernel Plane - OutputChannel=25, InputChannel=6
511d090ef412f418c0f855fb35133622
# Keras Layer (derived): Conv Kernel Plane - OutputChannel=25, InputChannel=7
f8071320a8baebd4e2e701f509dfd404
# Keras Layer (derived): Conv Kernel Plane - OutputChannel=25, InputChannel=8
3c33f6f52c191aefd901faeddba3d203
# Keras Layer (derived): Conv Kernel Plane - OutputChannel=25, InputChannel=9
f9f7f9f7562ee5c6d21f00d4ecfbe8e1
# Keras Layer (derived): Conv Kernel Plane - OutputChannel=25, InputChannel=10
5026194cc8cde5deea09eedcf201fb24
# Keras Layer (derived): Conv Kernel Plane - OutputChannel=25, InputChannel=11
66db0921644b0f1a09e9f308db2a07fd
# Keras Layer (derived): Conv Kernel Plane - OutputChannel=25, InputChannel=12
1a4920df0c412fdcfbee32eec2df3df9
# Keras Layer (derived): Conv Kernel Plane - OutputChannel=25, InputChannel=13
243e0281f3461ad9db0d070dd3fe2815
# Keras Layer (derived): Conv Kernel Plane - OutputChannel=25, InputChannel=14
f8ea2f11ffd01232280a16270142020f
# Keras Layer (derived): Conv Kernel Plane - OutputChannel=25, InputChannel=15
32071d2de4ef0c02fe070000eaebd816
# Keras Layer (derived): Conv Kernel Plane - OutputChannel=26, InputChannel=0
24f9f81ffeea03020baa192a99f819ed
# Keras Layer (derived): Conv Kernel Plane - OutputChannel=26, InputChannel=1
e3aceaf910130332241bfe1b0aac15e8
# Keras Layer (derived): Conv Kernel Plane - OutputChannel=26, InputChannel=2
1e2129072e23ff14e2d181e4e6d700e1
# Keras Layer (derived): Conv Kernel Plane - OutputChannel=26, InputChannel=3
29f205e0fcb1c2cb24fc14f9f80e1e10
# Keras Layer (derived): Conv Kernel Plane - OutputChannel=26, InputChannel=4
0cda181af901faf1050df10a1bf4f1fc
# Keras Layer (derived): Conv Kernel Plane - OutputChannel=26, InputChannel=5
4730180441de0edf11bbf2f018ff01fa
# Keras Layer (derived): Conv Kernel Plane - OutputChannel=26, InputChannel=6
1dd707f6f1f5121228fdf2e520d21403
# Keras Layer (derived): Conv Kernel Plane - OutputChannel=26, InputChannel=7
330a0e0309d0cce5f0ddeaf1e10e1ff2
# Keras Layer (derived): Conv Kernel Plane - OutputChannel=26, InputChannel=8
f62bfffc01ecdcd0ebee0506fb302606
# Keras Layer (derived): Conv Kernel Plane - OutputChannel=26, InputChannel=9
07eacfeb0322270f18210a2b12f703fa
# Keras Layer (derived): Conv Kernel Plane - OutputChannel=26, InputChannel=10
1d272d08def00cfaf6e2e9f0cd1314fe
# Keras Layer (derived): Conv Kernel Plane - OutputChannel=26, InputChannel=11
d9e70907e4383e11f3f60110daf0ccfc
# Keras Layer (derived): Conv Kernel Plane - OutputChannel=26, InputChannel=12
41150d111f11fd0103d4b7e105f3dbfc
# Keras Layer (derived): Conv Kernel Plane - OutputChannel=26, InputChannel=13
1efa1e141328f6edd901d6d42122e501
# Keras Layer (derived): Conv Kernel Plane - OutputChannel=26, InputChannel=14
34e5eafbeac51e0a12cd0a12040b1ff4
# Keras Layer (derived): Conv Kernel Plane - OutputChannel=26, InputChannel=15
d8e8eacc0d1208f81b00f3e6fa130cf0
# Keras Layer (derived): Conv Kernel Plane - OutputChannel=27, InputChannel=0
c3ee11dbf714e1134a3f3525222b1719
# Keras Layer (derived): Conv Kernel Plane - OutputChannel=27, InputChannel=1
a1dbadffbd05a928f204b8d52b1613cf
# Keras Layer (derived): Conv Kernel Plane - OutputChannel=27, InputChannel=2
0b29eeeeed19efb2f8c3dbfef599a123
# Keras Layer (derived): Conv Kernel Plane - OutputChannel=27, InputChannel=3
de0c0f2ae9ff13ea08e504d0e6d0bf08
# Keras Layer (derived): Conv Kernel Plane - OutputChannel=27, InputChannel=4
c00805b11f2b36fa2a6148ebffee24ed
# Keras Layer (derived): Conv Kernel Plane - OutputChannel=27, InputChannel=5
e2b7e5b3bb9afd1081b713051ada0ee6
# Keras Layer (derived): Conv Kernel Plane - OutputChannel=27, InputChannel=6
beff36f90d030fe1102315d0fe300fb6
# Keras Layer (derived): Conv Kernel Plane - OutputChannel=27, InputChannel=7
07d8fcec08ff231e072514071eecd109
# Keras Layer (derived): Conv Kernel Plane - OutputChannel=27, InputChannel=8
f8f1030ce6d21a1a1038372330e2cfcb
# Keras Layer (derived): Conv Kernel Plane - OutputChannel=27, InputChannel=9
c5b13633e811fdd1fb164a26d2ee29fb
# Keras Layer (derived): Conv Kernel Plane - OutputChannel=27, InputChannel=10
f413f1ad1620f94f24130dd62b2a08db
# Keras Layer (derived): Conv Kernel Plane - OutputChannel=27, InputChannel=11
fcfff8fdfffe1325f612d1edf9100fff
# Keras Layer (derived): Conv Kernel Plane - OutputChannel=27, InputChannel=12
fd332dbe2a3d4f3bc9c0e3e4bdb007f5
# Keras Layer (derived): Conv Kernel Plane - OutputChannel=27, InputChannel=13
da0f1f1bf02d232eefe0efe0bad801ff
# Keras Layer (derived): Conv Kernel Plane - OutputChannel=27, InputChannel=14
c2172ef0e1ea121c190b0ceb14f34e16
# Keras Layer (derived): Conv Kernel Plane - OutputChannel=27, InputChannel=15
9dd5f3dc261422c9141dd7dadef3d8b7
# Keras Layer (derived): Conv Kernel Plane - OutputChannel=28, InputChannel=0
addf2e718eef7f2d1424604828a40535
# Keras Layer (derived): Conv Kernel Plane - OutputChannel=28, InputChannel=1
999ac600a6b6edffa5a3ddb6171cc3c1
# Keras Layer (derived): Conv Kernel Plane - OutputChannel=28, InputChannel=2
f1ddc1d7c696c9ab21382deaf730f6d4
# Keras Layer (derived): Conv Kernel Plane - OutputChannel=28, InputChannel=3
b7d0e8d40efac5cf0d0bf3f7e4391a16
# Keras Layer (derived): Conv Kernel Plane - OutputChannel=28, InputChannel=4
d2e9f7eefe07f42dd82319e7e915ee06
# Keras Layer (derived): Conv Kernel Plane - OutputChannel=28, InputChannel=5
dccd02e1a5f920cf3e3225f51fc2e4e9
# Keras Layer (derived): Conv Kernel Plane - OutputChannel=28, InputChannel=6
9db8cac5a5d2a6990be2cece09e9dafa
# Keras Layer (derived): Conv Kernel Plane - OutputChannel=28, InputChannel=7
f0234a483920fd893f3c0edcefede811
# Keras Layer (derived): Conv Kernel Plane - OutputChannel=28, InputChannel=8
09342e6ffe5046fb45392107f9c8c40b
# Keras Layer (derived): Conv Kernel Plane - OutputChannel=28, InputChannel=9
15434916e24214f6171b3f1216e5fd0d
# Keras Layer (derived): Conv Kernel Plane - OutputChannel=28, InputChannel=10
450c0220fedde3d83c31efcae6f30ad0
# Keras Layer (derived): Conv Kernel Plane - OutputChannel=28, InputChannel=11
dd14f1d8d0e50eeeeca6e5ec3203e608
# Keras Layer (derived): Conv Kernel Plane - OutputChannel=28, InputChannel=12
d7c0bae6deb8eff4e427f7df0b14fe12
# Keras Layer (derived): Conv Kernel Plane - OutputChannel=28, InputChannel=13
f70c160ef82d08e0f80204000439ddce
# Keras Layer (derived): Conv Kernel Plane - OutputChannel=28, InputChannel=14
2cefcba804f3d5a21efcfa8bcffc10ed
# Keras Layer (derived): Conv Kernel Plane - OutputChannel=28, InputChannel=15
e9dbd1c710e7f6dbf630f1d20d430bd3
# Keras Layer (derived): Conv Kernel Plane - OutputChannel=29, InputChannel=0
c40c2c02361e02fe17fed5d40702f3eb
# Keras Layer (derived): Conv Kernel Plane - OutputChannel=29, InputChannel=1
c9e7e7de1413212230142e3dd6114c26
# Keras Layer (derived): Conv Kernel Plane - OutputChannel=29, InputChannel=2
e2e1fd151a02fdfe2702c8cbef20141c
# Keras Layer (derived): Conv Kernel Plane - OutputChannel=29, InputChannel=3
1df10405e5bde91fb5c7c7f2410c1037
# Keras Layer (derived): Conv Kernel Plane - OutputChannel=29, InputChannel=4
eaed1727f2c3fd10deb3c3c01f06d506
# Keras Layer (derived): Conv Kernel Plane - OutputChannel=29, InputChannel=5
e1f8c0cc2b02f3d629eadfd419080ed5
# Keras Layer (derived): Conv Kernel Plane - OutputChannel=29, InputChannel=6
fc251cdf99ccfc14e9ddf6231c10130e
# Keras Layer (derived): Conv Kernel Plane - OutputChannel=29, InputChannel=7
f4000ff0f3e2ffd91bb298ef141d01ea
# Keras Layer (derived): Conv Kernel Plane - OutputChannel=29, InputChannel=8
1b2922f723f7ebf221acc9b4fa0af0ed
# Keras Layer (derived): Conv Kernel Plane - OutputChannel=29, InputChannel=9
1d0817f35610fd120fdeaf9a0fdacefb
# Keras Layer (derived): Conv Kernel Plane - OutputChannel=29, InputChannel=10
f220fffa070e08ee03f4103f00a8d1ff
# Keras Layer (derived): Conv Kernel Plane - OutputChannel=29, InputChannel=11
ed180bfdf306380d05d2f5f140f3e447
# Keras Layer (derived): Conv Kernel Plane - OutputChannel=29, InputChannel=12
f50df12aeaf9f2110ed8c6f208e0db0a
# Keras Layer (derived): Conv Kernel Plane - OutputChannel=29, InputChannel=13
14381313080f06f428f3e8ff1900fced
# Keras Layer (derived): Conv Kernel Plane - OutputChannel=29, InputChannel=14
20b5c5e2e8d4defd1d1ad6fc02f6f108
# Keras Layer (derived): Conv Kernel Plane - OutputChannel=29, InputChannel=15
0834362fe3e4142081b4ff3be6b2e81b
# Keras Layer (derived): Conv Kernel Plane - OutputChannel=30, InputChannel=0
98d10a532aa41c270b22de0f10f80f1c
# Keras Layer (derived): Conv Kernel Plane - OutputChannel=30, InputChannel=1
6f3733367d09dc1fb701b9c62311df1d
# Keras Layer (derived): Conv Kernel Plane - OutputChannel=30, InputChannel=2
07ef1e1ae7e9ad18032def0815151c03
# Keras Layer (derived): Conv Kernel Plane - OutputChannel=30, InputChannel=3
363ec229142a4fea2503284abfaee8b2
# Keras Layer (derived): Conv Kernel Plane - OutputChannel=30, InputChannel=4
c6e5d7d1d621120df6fe1d0fe5f71cfd
# Keras Layer (derived): Conv Kernel Plane - OutputChannel=30, InputChannel=5
d2291d09f1c0fe21d4e3a400ece7ffe4
# Keras Layer (derived): Conv Kernel Plane - OutputChannel=30, InputChannel=6
f7d8ffd42cd80ada1afb17e408310fef
# Keras Layer (derived): Conv Kernel Plane - OutputChannel=30, InputChannel=7
c0f7e0fee6072f070c3211f2f9e7dded
# Keras Layer (derived): Conv Kernel Plane - OutputChannel=30, InputChannel=8
8ad5adffa8e8350e0f2a1e37f9f812f6
# Keras Layer (derived): Conv Kernel Plane - OutputChannel=30, InputChannel=9
81c1ce14c8b6eb0fdce5d7d3d0e9d50a
# Keras Layer (derived): Conv Kernel Plane - OutputChannel=30, InputChannel=10
d9df06f0cee90010164a3728fa1d050f
# Keras Layer (derived): Conv Kernel Plane - OutputChannel=30, InputChannel=11
d0eddb2405dca5e302f1eca60230ee1a
# Keras Layer (derived): Conv Kernel Plane - OutputChannel=30, InputChannel=12
e3f5e0e712e1dbe402f2d3d51e102b2d
# Keras Layer (derived): Conv Kernel Plane - OutputChannel=30, InputChannel=13
d3e5ee0802d502282704d2f10002ea10
# Keras Layer (derived): Conv Kernel Plane - OutputChannel=30, InputChannel=14
0e28d0d40bfac6dcf711f5c72f0526f5
# Keras Layer (derived): Conv Kernel Plane - OutputChannel=30, InputChannel=15
7d28000e0e7e4c0af51b322dff11e30f
# Keras Layer (derived): Conv Kernel Plane - OutputChannel=31, InputChannel=0
1941360a092807f8140b0a0e15f9eef6
# Keras Layer (derived): Conv Kernel Plane - OutputChannel=31, InputChannel=1
f9f72410d10cecd9df161a11fe363314
# Keras Layer (derived): Conv Kernel Plane - OutputChannel=31, InputChannel=2
35e613120e20011632240a1af9f72005
# Keras Layer (derived): Conv Kernel Plane - OutputChannel=31, InputChannel=3
08e8e2e2bad4cff0e1f7cdf704081eed
# Keras Layer (derived): Conv Kernel Plane - OutputChannel=31, InputChannel=4
feecddebf6e5f2031307f91e242ffcfc
# Keras Layer (derived): Conv Kernel Plane - OutputChannel=31, InputChannel=5
ecce1d14fbe4f4fbfd08f5ffd1362214
# Keras Layer (derived): Conv Kernel Plane - OutputChannel=31, InputChannel=6
eebcecdbd2ddd6022d3bfdb94453e0dd
# Keras Layer (derived): Conv Kernel Plane - OutputChannel=31, InputChannel=7
16f100eeead2cac2c7df8fe1e5faaf02
# Keras Layer (derived): Conv Kernel Plane - OutputChannel=31, InputChannel=8
0f0df3d7fcdbc5d4f0fee70107ecfd1e
# Keras Layer (derived): Conv Kernel Plane - OutputChannel=31, InputChannel=9
1007d0db0d0fed101017261b1038160f
# Keras Layer (derived): Conv Kernel Plane - OutputChannel=31, InputChannel=10
040d0afe10f01318bab391d4aad7b2e8
# Keras Layer (derived): Conv Kernel Plane - OutputChannel=31, InputChannel=11
ecda9d818abc8fe42008e3e253300605
# Keras Layer (derived): Conv Kernel Plane - OutputChannel=31, InputChannel=12
11f70703fdf7ee070cf50a0918210af8
# Keras Layer (derived): Conv Kernel Plane - OutputChannel=31, InputChannel=13
f0f2f2f0f8ecee15f91d111d03141e0e
# Keras Layer (derived): Conv Kernel Plane - OutputChannel=31, InputChannel=14
0ef3de0bfbcb9ea1139bbcdd3809fdf1
# Keras Layer (derived): Conv Kernel Plane - OutputChannel=31, InputChannel=15
f6dbe311f3e20604090c0640fff2f8f1
# End Tensor

# Tensor Name (TFLite): tfl.pseudo_qconst5
# Original Shape: [np.int32(64), np.int32(4), np.int32(4), np.int32(32)]
# Dtype: <class 'numpy.int8'>
# Keras Layer (derived): Conv Kernel Plane - OutputChannel=0, InputChannel=0
3df90ee6e1ea12b4eef0310415eb11ea
# Keras Layer (derived): Conv Kernel Plane - OutputChannel=0, InputChannel=1
ca1a03f3e50007f107205ef2b7f51b21
# Keras Layer (derived): Conv Kernel Plane - OutputChannel=0, InputChannel=2
fbd9bcdf1806d6e80bfe15ffef001eeb
# Keras Layer (derived): Conv Kernel Plane - OutputChannel=0, InputChannel=3
a504000009051a20f8233718c50b4d02
# Keras Layer (derived): Conv Kernel Plane - OutputChannel=0, InputChannel=4
ebfff117e90e35132226021ceaef0002
# Keras Layer (derived): Conv Kernel Plane - OutputChannel=0, InputChannel=5
f73a240f26023d15fbcef90deb01f607
# Keras Layer (derived): Conv Kernel Plane - OutputChannel=0, InputChannel=6
010bd9140903edcff1e3192ccdd1dafd
# Keras Layer (derived): Conv Kernel Plane - OutputChannel=0, InputChannel=7
d4c4bfe8b1191530d12f3a17f6de12ef
# Keras Layer (derived): Conv Kernel Plane - OutputChannel=0, InputChannel=8
922c090614ca07f1ee0b0420130e21fc
# Keras Layer (derived): Conv Kernel Plane - OutputChannel=0, InputChannel=9
d0f22224ff002a042f0519de070e22f6
# Keras Layer (derived): Conv Kernel Plane - OutputChannel=0, InputChannel=10
c8cb02ec1de80f061df3e8e807f311db
# Keras Layer (derived): Conv Kernel Plane - OutputChannel=0, InputChannel=11
a5f3efe8fb10bf232613212ede03e0fc
# Keras Layer (derived): Conv Kernel Plane - OutputChannel=0, InputChannel=12
0801feff0efbf9030c06fcfafb05090c
# Keras Layer (derived): Conv Kernel Plane - OutputChannel=0, InputChannel=13
e8eee7e514222dd5f8180ae5f10922c9
# Keras Layer (derived): Conv Kernel Plane - OutputChannel=0, InputChannel=14
12f5d4f91205feea1f1b0c45e3f3de07
# Keras Layer (derived): Conv Kernel Plane - OutputChannel=0, InputChannel=15
eacee713efdf292713e5db00daf2efd9
# Keras Layer (derived): Conv Kernel Plane - OutputChannel=0, InputChannel=16
d82efeedddd12513fd1e1432b4ecfe17
# Keras Layer (derived): Conv Kernel Plane - OutputChannel=0, InputChannel=17
8106170d1d00f617f0f0fd2a03190a10
# Keras Layer (derived): Conv Kernel Plane - OutputChannel=0, InputChannel=18
1b0ae9dbe1b8c8d5d50c1b0516fb0d25
# Keras Layer (derived): Conv Kernel Plane - OutputChannel=0, InputChannel=19
e8fdfafaf03af623eaf6ffe9f5fdfeed
# Keras Layer (derived): Conv Kernel Plane - OutputChannel=0, InputChannel=20
fe082f2b1e36fdebd7eaf8e70c3cf8f7
# Keras Layer (derived): Conv Kernel Plane - OutputChannel=0, InputChannel=21
91ebcffbffebe8fa1b37d90cfb02e7e8
# Keras Layer (derived): Conv Kernel Plane - OutputChannel=0, InputChannel=22
f4e10dfeddc817d9fed8052c08d7edf7
# Keras Layer (derived): Conv Kernel Plane - OutputChannel=0, InputChannel=23
07f4f52522fc0e1311d7ddfe3203d5e1
# Keras Layer (derived): Conv Kernel Plane - OutputChannel=0, InputChannel=24
1d0d0cf8161ff6d2b6ea07cd3f13eb0f
# Keras Layer (derived): Conv Kernel Plane - OutputChannel=0, InputChannel=25
e2e10b1ac8192303ca0112ffeec308f5
# Keras Layer (derived): Conv Kernel Plane - OutputChannel=0, InputChannel=26
dcfec1effef1fbfe00e5ee09d5eeeaf7
# Keras Layer (derived): Conv Kernel Plane - OutputChannel=0, InputChannel=27
c4ef14fc2bdd530b08d91f0c06de0df3
# Keras Layer (derived): Conv Kernel Plane - OutputChannel=0, InputChannel=28
213328302814e5efcfee200c271c22f3
# Keras Layer (derived): Conv Kernel Plane - OutputChannel=0, InputChannel=29
17f317f3f2e7dacdfc04ed0beec6cf9d
# Keras Layer (derived): Conv Kernel Plane - OutputChannel=0, InputChannel=30
10ff09f1fbf6effae000101110fe2e35
# Keras Layer (derived): Conv Kernel Plane - OutputChannel=0, InputChannel=31
383d15fe1ffb0ed420fe08edec18f0d5
# Keras Layer (derived): Conv Kernel Plane - OutputChannel=1, InputChannel=0
cea283cbdef6b237fddcb9ff07eee0f9
# Keras Layer (derived): Conv Kernel Plane - OutputChannel=1, InputChannel=1
1519e8542226d731d2f7cf1452c60a51
# Keras Layer (derived): Conv Kernel Plane - OutputChannel=1, InputChannel=2
050914fe14d91cbb100d29f807061896
# Keras Layer (derived): Conv Kernel Plane - OutputChannel=1, InputChannel=3
0f17ef3911ecf903d8c6f5054317e401
# Keras Layer (derived): Conv Kernel Plane - OutputChannel=1, InputChannel=4
1c99e9d9ba1928e8f6dfe14409e716fa
# Keras Layer (derived): Conv Kernel Plane - OutputChannel=1, InputChannel=5
04180a2f04cb5a0106d32023e2e04bc3
# Keras Layer (derived): Conv Kernel Plane - OutputChannel=1, InputChannel=6
2b0a151324210f1c0aefed16faeff6f7
# Keras Layer (derived): Conv Kernel Plane - OutputChannel=1, InputChannel=7
e9cec6ff20e7192324ff0ee12617ed21
# Keras Layer (derived): Conv Kernel Plane - OutputChannel=1, InputChannel=8
481cfee635232454f72045380c15011b
# Keras Layer (derived): Conv Kernel Plane - OutputChannel=1, InputChannel=9
f1df02eb03f4fec7012b35e511f1e8f4
# Keras Layer (derived): Conv Kernel Plane - OutputChannel=1, InputChannel=10
20220b02d9fa0a0c42df1d0df2a1ed0d
# Keras Layer (derived): Conv Kernel Plane - OutputChannel=1, InputChannel=11
e0d81019060cf0ec091b06fde8b82009
# Keras Layer (derived): Conv Kernel Plane - OutputChannel=1, InputChannel=12
f6030515050c1601fcf8f503060cfe08
# Keras Layer (derived): Conv Kernel Plane - OutputChannel=1, InputChannel=13
0ceb0aeb2d10f5dc160211f328040cd7
# Keras Layer (derived): Conv Kernel Plane - OutputChannel=1, InputChannel=14
09f4fb42192af6fc04f530fc34f8ede3
# Keras Layer (derived): Conv Kernel Plane - OutputChannel=1, InputChannel=15
dbb4a8f4ef07090211d3c4ab10c1da9e
# Keras Layer (derived): Conv Kernel Plane - OutputChannel=1, InputChannel=16
28c1d11709eb06fd01ef2230ff1ff6c5
# Keras Layer (derived): Conv Kernel Plane - OutputChannel=1, InputChannel=17
530113b810be0af7ea1deb22ebdf151b
# Keras Layer (derived): Conv Kernel Plane - OutputChannel=1, InputChannel=18
cc9f06ebcaa59af00905fc25dde1f215
# Keras Layer (derived): Conv Kernel Plane - OutputChannel=1, InputChannel=19
2becef70fbfef82dfe31fb2a090b07f7
# Keras Layer (derived): Conv Kernel Plane - OutputChannel=1, InputChannel=20
b806c308e1df0bca0500ff2e07f017fa
# Keras Layer (derived): Conv Kernel Plane - OutputChannel=1, InputChannel=21
b8e50c15dcd922f7ddf40ff0380e2d17
# Keras Layer (derived): Conv Kernel Plane - OutputChannel=1, InputChannel=22
11fad63132b1eae91ae304c61c0adc03
# Keras Layer (derived): Conv Kernel Plane - OutputChannel=1, InputChannel=23
08f0b5f1c8c916ff2f16f71bfde6f6d0
# Keras Layer (derived): Conv Kernel Plane - OutputChannel=1, InputChannel=24
37e3f4db4bfc0d02e71a0b2d070f1a18
# Keras Layer (derived): Conv Kernel Plane - OutputChannel=1, InputChannel=25
20fc0bf123a8ddd8212bf808e90a0dea
# Keras Layer (derived): Conv Kernel Plane - OutputChannel=1, InputChannel=26
d0d7efcfc9c826dc3afb144bf1def422
# Keras Layer (derived): Conv Kernel Plane - OutputChannel=1, InputChannel=27
35e5b8b3e908ec31dfce011c21e60411
# Keras Layer (derived): Conv Kernel Plane - OutputChannel=1, InputChannel=28
fbfdbb07f925140d1fff0a11f80418d6
# Keras Layer (derived): Conv Kernel Plane - OutputChannel=1, InputChannel=29
e1fd21f605b6f6d9e8d30b2c13f421e5
# Keras Layer (derived): Conv Kernel Plane - OutputChannel=1, InputChannel=30
cef20c21f9ece5fd1308f41f0b282df7
# Keras Layer (derived): Conv Kernel Plane - OutputChannel=1, InputChannel=31
551b02eea2ff23cb1c2315ea81d9c1b3
# Keras Layer (derived): Conv Kernel Plane - OutputChannel=2, InputChannel=0
92ce2c1fd21215d808d7e41394040c2e
# Keras Layer (derived): Conv Kernel Plane - OutputChannel=2, InputChannel=1
8cb406312fc881dbd8fd02b615f0ea07
# Keras Layer (derived): Conv Kernel Plane - OutputChannel=2, InputChannel=2
0a29fa04f21127effedb031409e72203
# Keras Layer (derived): Conv Kernel Plane - OutputChannel=2, InputChannel=3
eadff6da02e4f2defee9fdfb100a4b12
# Keras Layer (derived): Conv Kernel Plane - OutputChannel=2, InputChannel=4
cff1021a0a04ea18f420ff1dcede01e2
# Keras Layer (derived): Conv Kernel Plane - OutputChannel=2, InputChannel=5
06fefe1500d2120a28111bdc4ced1dde
# Keras Layer (derived): Conv Kernel Plane - OutputChannel=2, InputChannel=6
02db0c210c1e19f3f12f002008b6f905
# Keras Layer (derived): Conv Kernel Plane - OutputChannel=2, InputChannel=7
20f9face211055e2170122fefb201a1c
# Keras Layer (derived): Conv Kernel Plane - OutputChannel=2, InputChannel=8
d6cad7202b1a0ae2e7010700cd000805
# Keras Layer (derived): Conv Kernel Plane - OutputChannel=2, InputChannel=9
fde7e02c18181ddbc83722b3081b08f5
# Keras Layer (derived): Conv Kernel Plane - OutputChannel=2, InputChannel=10
2a16dc042a24eded0b050deb0af024e0
# Keras Layer (derived): Conv Kernel Plane - OutputChannel=2, InputChannel=11
f5ea1a0718fee51305d9ed06c4f6272d
# Keras Layer (derived): Conv Kernel Plane - OutputChannel=2, InputChannel=12
1017fa04fdfd06010509fbfa08fff30c
# Keras Layer (derived): Conv Kernel Plane - OutputChannel=2, InputChannel=13
342cf007a3cceae3dcedd2f73efb163a
# Keras Layer (derived): Conv Kernel Plane - OutputChannel=2, InputChannel=14
ccd6332ce40bc8b0a3eaf18c273f081f
# Keras Layer (derived): Conv Kernel Plane - OutputChannel=2, InputChannel=15
f2ef06d63adacaf40ff4f624e6d4fe29
# Keras Layer (derived): Conv Kernel Plane - OutputChannel=2, InputChannel=16
000ae6efee02f42a3b130dfdf7efc0e8
# Keras Layer (derived): Conv Kernel Plane - OutputChannel=2, InputChannel=17
02ce030a1be5c8092420d606eeddc601
# Keras Layer (derived): Conv Kernel Plane - OutputChannel=2, InputChannel=18
d4eb3703d8bef0c32303cadfb526c717
# Keras Layer (derived): Conv Kernel Plane - OutputChannel=2, InputChannel=19
9eee2933d0e2e4f0dd05f5cf224af222
# Keras Layer (derived): Conv Kernel Plane - OutputChannel=2, InputChannel=20
f8f91107cbd2fc220defcbc6db0bfa06
# Keras Layer (derived): Conv Kernel Plane - OutputChannel=2, InputChannel=21
d502051ffdee16eb41fd203109eb020d
# Keras Layer (derived): Conv Kernel Plane - OutputChannel=2, InputChannel=22
060fe1081319ef2c02caeb0ab0f62c31
# Keras Layer (derived): Conv Kernel Plane - OutputChannel=2, InputChannel=23
ecd0e2e1001616f31903fef8d5f9e8ef
# Keras Layer (derived): Conv Kernel Plane - OutputChannel=2, InputChannel=24
c3c00206cdd9083002f415250d0c2b20
# Keras Layer (derived): Conv Kernel Plane - OutputChannel=2, InputChannel=25
1219ecf1f5e9e30ef5eed923fdf0fbfd
# Keras Layer (derived): Conv Kernel Plane - OutputChannel=2, InputChannel=26
1209efe1d30fd4f52ff6ec13f9d3ecf9
# Keras Layer (derived): Conv Kernel Plane - OutputChannel=2, InputChannel=27
f6ca07fbc01ae6bd2d080d29b1d8e20e
# Keras Layer (derived): Conv Kernel Plane - OutputChannel=2, InputChannel=28
d3ee0903d301f8fcf52d22e6dffeedfe
# Keras Layer (derived): Conv Kernel Plane - OutputChannel=2, InputChannel=29
bde5c7198edd19d3f90c0624e9ebf4d0
# Keras Layer (derived): Conv Kernel Plane - OutputChannel=2, InputChannel=30
bcdefd15d805fbd0f4fcd2e5ead2f20f
# Keras Layer (derived): Conv Kernel Plane - OutputChannel=2, InputChannel=31
b518cefa1326fff604276e0d0916391b
# Keras Layer (derived): Conv Kernel Plane - OutputChannel=3, InputChannel=0
31dee140c3b6e2ef0500f303e80b08fd
# Keras Layer (derived): Conv Kernel Plane - OutputChannel=3, InputChannel=1
231d01324ad5d61ee1c809f2e9ff10af
# Keras Layer (derived): Conv Kernel Plane - OutputChannel=3, InputChannel=2
e41e000dcf0f0b26f6eb140d14fded07
# Keras Layer (derived): Conv Kernel Plane - OutputChannel=3, InputChannel=3
e8340214e9f5f825e2040eea08121bc1
# Keras Layer (derived): Conv Kernel Plane - OutputChannel=3, InputChannel=4
f31eca590701eef102fa1ff000c6f9ef
# Keras Layer (derived): Conv Kernel Plane - OutputChannel=3, InputChannel=5
df28e31b03e0d60c2b13123d3014fbdd
# Keras Layer (derived): Conv Kernel Plane - OutputChannel=3, InputChannel=6
dbcddad5e53627dbf7f8101a06dc0200
# Keras Layer (derived): Conv Kernel Plane - OutputChannel=3, InputChannel=7
04e40603e6ea1810c0f115e01b0b1908
# Keras Layer (derived): Conv Kernel Plane - OutputChannel=3, InputChannel=8
e1ffe70ffd3f1fbadd1f0a15eb091c14
# Keras Layer (derived): Conv Kernel Plane - OutputChannel=3, InputChannel=9
e8cde5cf330b1a06ed0c4b16f307d4fd
# Keras Layer (derived): Conv Kernel Plane - OutputChannel=3, InputChannel=10
e32f220716252a010b03fc0121d71312
# Keras Layer (derived): Conv Kernel Plane - OutputChannel=3, InputChannel=11
ced6faf7ffe3d6e70417ee29ea0c113a
# Keras Layer (derived): Conv Kernel Plane - OutputChannel=3, InputChannel=12
fb04fd0005fcf8f6f1f0fd0608f907eb
# Keras Layer (derived): Conv Kernel Plane - OutputChannel=3, InputChannel=13
d20d00f3d416f0f6070209fd2e16f60d
# Keras Layer (derived): Conv Kernel Plane - OutputChannel=3, InputChannel=14
1a353f36bee9fd02daf52d23310e0bdc
# Keras Layer (derived): Conv Kernel Plane - OutputChannel=3, InputChannel=15
1528d2bd4dff04000407f80d021aecc7
# Keras Layer (derived): Conv Kernel Plane - OutputChannel=3, InputChannel=16
f2ec32eda2dc13e80917d6ecf60015d0
# Keras Layer (derived): Conv Kernel Plane - OutputChannel=3, InputChannel=17
1beff50496f9d8dcdd30f6dc09e9e2e9
# Keras Layer (derived): Conv Kernel Plane - OutputChannel=3, InputChannel=18
ceb61ce4adde04f8ca06f4d3ec02eef4
# Keras Layer (derived): Conv Kernel Plane - OutputChannel=3, InputChannel=19
fbc2e006ddc4c5e4dd0216fbca1d1fdd
# Keras Layer (derived): Conv Kernel Plane - OutputChannel=3, InputChannel=20
d4d3bde70ee9eff82f0c252cfb0ae7ff
# Keras Layer (derived): Conv Kernel Plane - OutputChannel=3, InputChannel=21
e93f0c1913322212f6f7100ef9f5f63d
# Keras Layer (derived): Conv Kernel Plane - OutputChannel=3, InputChannel=22
3a0518fbfcfc1cff02effb1835bddbe5
# Keras Layer (derived): Conv Kernel Plane - OutputChannel=3, InputChannel=23
d820e2e2082be6dbfbee1a10f7ee0f08
# Keras Layer (derived): Conv Kernel Plane - OutputChannel=3, InputChannel=24
a581e030c4ecddd0010b03e7f2efe100
# Keras Layer (derived): Conv Kernel Plane - OutputChannel=3, InputChannel=25
cc060303f3dae4011be50e0afc06b600
# Keras Layer (derived): Conv Kernel Plane - OutputChannel=3, InputChannel=26
e1e41500dd0e10d71c0dfc19fdf401f4
# Keras Layer (derived): Conv Kernel Plane - OutputChannel=3, InputChannel=27
dedac311f3ede0bbe9f61007e6eeece1
# Keras Layer (derived): Conv Kernel Plane - OutputChannel=3, InputChannel=28
1cd4d3d61d110c0815261402fe1a17ff
# Keras Layer (derived): Conv Kernel Plane - OutputChannel=3, InputChannel=29
10272ee9abf723e02d1f40f40908e8e9
# Keras Layer (derived): Conv Kernel Plane - OutputChannel=3, InputChannel=30
1cead72bf5e104f007e705050d01d909
# Keras Layer (derived): Conv Kernel Plane - OutputChannel=3, InputChannel=31
f9c9edea16071dd0d01e20d4130a04e0
# Keras Layer (derived): Conv Kernel Plane - OutputChannel=4, InputChannel=0
0af9f4f805f1f7e9f2edf0f5061adef4
# Keras Layer (derived): Conv Kernel Plane - OutputChannel=4, InputChannel=1
14ce222e04bddb1e2a01fe380b13411e
# Keras Layer (derived): Conv Kernel Plane - OutputChannel=4, InputChannel=2
e6fbfe14d82113d5ff1d16130c16ee14
# Keras Layer (derived): Conv Kernel Plane - OutputChannel=4, InputChannel=3
f8b32412f0b0f934d2ffe80a1a221a4c
# Keras Layer (derived): Conv Kernel Plane - OutputChannel=4, InputChannel=4
e1f6f53715200ef514061cda13fbccee
# Keras Layer (derived): Conv Kernel Plane - OutputChannel=4, InputChannel=5
ee4606ec1afd02cdcddfdcea2bfc18e2
# Keras Layer (derived): Conv Kernel Plane - OutputChannel=4, InputChannel=6
e60624eeeab2f9002b29160aecf5dbf6
# Keras Layer (derived): Conv Kernel Plane - OutputChannel=4, InputChannel=7
f5d5fe1ac7df08430cf5f9f3f6e50af7
# Keras Layer (derived): Conv Kernel Plane - OutputChannel=4, InputChannel=8
e4052125fa020710e73e341f33393745
# Keras Layer (derived): Conv Kernel Plane - OutputChannel=4, InputChannel=9
2421fdf3e70becdafb10e6e3f41fcc24
# Keras Layer (derived): Conv Kernel Plane - OutputChannel=4, InputChannel=10
2ae71411ed0ef50adcf6f4f81204f509
# Keras Layer (derived): Conv Kernel Plane - OutputChannel=4, InputChannel=11
10fcd5080ce7e10510d3fdf009ea2027
# Keras Layer (derived): Conv Kernel Plane - OutputChannel=4, InputChannel=12
fcfa050105f807fcfa0cfc070ff6020b
# Keras Layer (derived): Conv Kernel Plane - OutputChannel=4, InputChannel=13
042dd6d50301fff4fb150a10eb11df10
# Keras Layer (derived): Conv Kernel Plane - OutputChannel=4, InputChannel=14
0bd8cf1af3f3e4391b09e516dcf2f41d
# Keras Layer (derived): Conv Kernel Plane - OutputChannel=4, InputChannel=15
effc0505fd051f1af6f80000dd2607db
# Keras Layer (derived): Conv Kernel Plane - OutputChannel=4, InputChannel=16
f6f4e5cc09dcecebf6e01b0bf10002f3
# Keras Layer (derived): Conv Kernel Plane - OutputChannel=4, InputChannel=17
a7fd13d8eadc141fbe25f41fee022cff
# Keras Layer (derived): Conv Kernel Plane - OutputChannel=4, InputChannel=18
19e9f51ad1f3def9d800dbfb1f20ff02
# Keras Layer (derived): Conv Kernel Plane - OutputChannel=4, InputChannel=19
fee3eaed4907ef14ebde0a22edf6fc0e
# Keras Layer (derived): Conv Kernel Plane - OutputChannel=4, InputChannel=20
0202f4dc1bf42101e4eed6e8df28ee04
# Keras Layer (derived): Conv Kernel Plane - OutputChannel=4, InputChannel=21
1e2ad706fab1ea0304f21a221c14141a
# Keras Layer (derived): Conv Kernel Plane - OutputChannel=4, InputChannel=22
dec9ed269a11c5ef22f9eef044efe625
# Keras Layer (derived): Conv Kernel Plane - OutputChannel=4, InputChannel=23
042dbbfaf30a07030f0f2812fb0907d8
# Keras Layer (derived): Conv Kernel Plane - OutputChannel=4, InputChannel=24
f3030005f519141d230af5f41fdc0225
# Keras Layer (derived): Conv Kernel Plane - OutputChannel=4, InputChannel=25
cfdce9c4bbe607e125092deffae0eeeb
# Keras Layer (derived): Conv Kernel Plane - OutputChannel=4, InputChannel=26
b7f7f2040124db1ffb221a0afa0d07e4
# Keras Layer (derived): Conv Kernel Plane - OutputChannel=4, InputChannel=27
0ccde41b1be2e6d9fe0325f3080c10fb
# Keras Layer (derived): Conv Kernel Plane - OutputChannel=4, InputChannel=28
3e1ff2400bf6e6ee23e1e5070bdded25
# Keras Layer (derived): Conv Kernel Plane - OutputChannel=4, InputChannel=29
81ebe224f6b8bff7372e2d10f914e321
# Keras Layer (derived): Conv Kernel Plane - OutputChannel=4, InputChannel=30
1103fa0d15da0f16f6e8e901ff351b0f
# Keras Layer (derived): Conv Kernel Plane - OutputChannel=4, InputChannel=31
04fae0c21504e9d1f8faefeaf6f6e3d2
# Keras Layer (derived): Conv Kernel Plane - OutputChannel=5, InputChannel=0
eff58cfbf9cada19d0f7fa3720241a1f
# Keras Layer (derived): Conv Kernel Plane - OutputChannel=5, InputChannel=1
9ff7199cad9dace415e8ec3103aa5eb8
# Keras Layer (derived): Conv Kernel Plane - OutputChannel=5, InputChannel=2
40f513dc403804061b0ae2eef7c604d9
# Keras Layer (derived): Conv Kernel Plane - OutputChannel=5, InputChannel=3
025c02d62221a507ff51813edef4cbae
# Keras Layer (derived): Conv Kernel Plane - OutputChannel=5, InputChannel=4
06c70fdb281c26027adcf9110df11a3f
# Keras Layer (derived): Conv Kernel Plane - OutputChannel=5, InputChannel=5
eb302203ce08d403e7470cf6f706133b
# Keras Layer (derived): Conv Kernel Plane - OutputChannel=5, InputChannel=6
fdc94821c151433504e906134add4322
# Keras Layer (derived): Conv Kernel Plane - OutputChannel=5, InputChannel=7
e95ebb62e214bfce0b43d7ee2ef338eb
# Keras Layer (derived): Conv Kernel Plane - OutputChannel=5, InputChannel=8
0fda0ee427f9109af8d466ca3d1d43f2
# Keras Layer (derived): Conv Kernel Plane - OutputChannel=5, InputChannel=9
0123ebc8daec0cf538f037ef0bf1adda
# Keras Layer (derived): Conv Kernel Plane - OutputChannel=5, InputChannel=10
1b85db1046f2d0301214fc47f9b717e0
# Keras Layer (derived): Conv Kernel Plane - OutputChannel=5, InputChannel=11
d7de6044d5c4171b141aac2851f86213
# Keras Layer (derived): Conv Kernel Plane - OutputChannel=5, InputChannel=12
0efb06ed12f8f2190aecf80f04f1ee0b
# Keras Layer (derived): Conv Kernel Plane - OutputChannel=5, InputChannel=13
0cfc2318e7e81e1f00b40126cb4728fb
# Keras Layer (derived): Conv Kernel Plane - OutputChannel=5, InputChannel=14
a408f0f7c655effc1131e41ae4fdf306
# Keras Layer (derived): Conv Kernel Plane - OutputChannel=5, InputChannel=15
e4f221fc5a1209aa20293e58a7fe3100
# Keras Layer (derived): Conv Kernel Plane - OutputChannel=5, InputChannel=16
f51cb666f7f738c9da262accf7d1e00a
# Keras Layer (derived): Conv Kernel Plane - OutputChannel=5, InputChannel=17
bbe827253aa1240724c21400fac310fe
# Keras Layer (derived): Conv Kernel Plane - OutputChannel=5, InputChannel=18
cdd5c63de8eb21e50e0a35c2f3f7b5ff
# Keras Layer (derived): Conv Kernel Plane - OutputChannel=5, InputChannel=19
e0cecb54d23d45c3d90cc9bf332b1d17
# Keras Layer (derived): Conv Kernel Plane - OutputChannel=5, InputChannel=20
d0ff1d1049d209c11df8ffc7fad92e0f
# Keras Layer (derived): Conv Kernel Plane - OutputChannel=5, InputChannel=21
e3034937fa27b6c1e4da1ee317fc3bcc
# Keras Layer (derived): Conv Kernel Plane - OutputChannel=5, InputChannel=22
b4dbcf372d069f6d5ed0124e4e09d200
# Keras Layer (derived): Conv Kernel Plane - OutputChannel=5, InputChannel=23
3bf4140bfffce0e1090523a90b9827d5
# Keras Layer (derived): Conv Kernel Plane - OutputChannel=5, InputChannel=24
1ff6d5f4df2e2338ca0322f3f23516d6
# Keras Layer (derived): Conv Kernel Plane - OutputChannel=5, InputChannel=25
f951fbff08c7b3e7fe9eea1215e1fd38
# Keras Layer (derived): Conv Kernel Plane - OutputChannel=5, InputChannel=26
fdb90adbbe94dbfff7def8e0f50df9f9
# Keras Layer (derived): Conv Kernel Plane - OutputChannel=5, InputChannel=27
5205d0d407079798ef00e30ee3170b1f
# Keras Layer (derived): Conv Kernel Plane - OutputChannel=5, InputChannel=28
e595cafaddb307dff1f3e1e6d5e30f06
# Keras Layer (derived): Conv Kernel Plane - OutputChannel=5, InputChannel=29
33913e2d44ea2cf9ddcfccb704173f20
# Keras Layer (derived): Conv Kernel Plane - OutputChannel=5, InputChannel=30
3734d02d263ffde1f935d6c5e4e2f4c9
# Keras Layer (derived): Conv Kernel Plane - OutputChannel=5, InputChannel=31
05f92e3fc1e530172e212c21e60ef890
# Keras Layer (derived): Conv Kernel Plane - OutputChannel=6, InputChannel=0
201012e808f0ce2504ec05200deef135
# Keras Layer (derived): Conv Kernel Plane - OutputChannel=6, InputChannel=1
eb312ee88de699b20bd3fb030bee0209
# Keras Layer (derived): Conv Kernel Plane - OutputChannel=6, InputChannel=2
81f203defd0dea00225b1b10400d04da
# Keras Layer (derived): Conv Kernel Plane - OutputChannel=6, InputChannel=3
064744e4beff18f5d84b42dcacd198c7
# Keras Layer (derived): Conv Kernel Plane - OutputChannel=6, InputChannel=4
fe3759e92020e637dadbdf4ff10f1d07
# Keras Layer (derived): Conv Kernel Plane - OutputChannel=6, InputChannel=5
0b0347430bb9efeff8f30efb020cd6e5
# Keras Layer (derived): Conv Kernel Plane - OutputChannel=6, InputChannel=6
bcebe7b8ee01f408c90df1521b24091a
# Keras Layer (derived): Conv Kernel Plane - OutputChannel=6, InputChannel=7
ccefd83eba17e3e9f4e02bce1801091c
# Keras Layer (derived): Conv Kernel Plane - OutputChannel=6, InputChannel=8
25c0e024e5045bedfc1e0d0c21050707
# Keras Layer (derived): Conv Kernel Plane - OutputChannel=6, InputChannel=9
f2fe0e32d2090415f4c6128df30adca5
# Keras Layer (derived): Conv Kernel Plane - OutputChannel=6, InputChannel=10
cac60a04e3d0fc251c12f33e19ec1f04
# Keras Layer (derived): Conv Kernel Plane - OutputChannel=6, InputChannel=11
1f153428c129d2e984e5aeeda0999fd7
# Keras Layer (derived): Conv Kernel Plane - OutputChannel=6, InputChannel=12
01f4040becfbfdfdfe0302f9f6fb07ec
# Keras Layer (derived): Conv Kernel Plane - OutputChannel=6, InputChannel=13
f33ad7d5bee405ffcfe8202e01b5d7a2
# Keras Layer (derived): Conv Kernel Plane - OutputChannel=6, InputChannel=14
eb101afbe337f8fdd9e8f7d0fef4dced
# Keras Layer (derived): Conv Kernel Plane - OutputChannel=6, InputChannel=15
05e621f10e1518df0cab0045faeef5c2
# Keras Layer (derived): Conv Kernel Plane - OutputChannel=6, InputChannel=16
13451a142fd03cc11a260f06f9f2f9d6
# Keras Layer (derived): Conv Kernel Plane - OutputChannel=6, InputChannel=17
3ff1e003d8f71ad8ee18083ae4f3f40e
# Keras Layer (derived): Conv Kernel Plane - OutputChannel=6, InputChannel=18
57c6cd292b0725f6180be3e2e1cbd727
# Keras Layer (derived): Conv Kernel Plane - OutputChannel=6, InputChannel=19
2d13ee16430508d01e0b14d6f3cccafe
# Keras Layer (derived): Conv Kernel Plane - OutputChannel=6, InputChannel=20
bcf6eddd2514dcf41dde18fa1efbebca
# Keras Layer (derived): Conv Kernel Plane - OutputChannel=6, InputChannel=21
001cf1d391210ae236fb284425070a0e
# Keras Layer (derived): Conv Kernel Plane - OutputChannel=6, InputChannel=22
02056a58e6e109f7233530f616e606c8
# Keras Layer (derived): Conv Kernel Plane - OutputChannel=6, InputChannel=23
edd5eef11614fbdafcf3fc090d0a1aba
# Keras Layer (derived): Conv Kernel Plane - OutputChannel=6, InputChannel=24
1012f4fe2a10f01af9171326f4cefafc
# Keras Layer (derived): Conv Kernel Plane - OutputChannel=6, InputChannel=25
f1eeea31cefc19d1f900001b240e2413
# Keras Layer (derived): Conv Kernel Plane - OutputChannel=6, InputChannel=26
e1c5baf1e4cff4cd12cd0ffc551c3727
# Keras Layer (derived): Conv Kernel Plane - OutputChannel=6, InputChannel=27
4bf5fa181800dbcae1da232aef03ef30
# Keras Layer (derived): Conv Kernel Plane - OutputChannel=6, InputChannel=28
1715110317dede1ed60dea1acafce1f4
# Keras Layer (derived): Conv Kernel Plane - OutputChannel=6, InputChannel=29
a54ea513f50fe51e18e7daf63217f8cf
# Keras Layer (derived): Conv Kernel Plane - OutputChannel=6, InputChannel=30
0cf208160dea02f1f822fc13bcbabcb3
# Keras Layer (derived): Conv Kernel Plane - OutputChannel=6, InputChannel=31
cd02dac72a22ea36f9fce544e702b1de
# Keras Layer (derived): Conv Kernel Plane - OutputChannel=7, InputChannel=0
ee0be44025fcf8211c0ee20ce4f1dea0
# Keras Layer (derived): Conv Kernel Plane - OutputChannel=7, InputChannel=1
d52c1bd2eff30ccacedf1f02b9140bd3
# Keras Layer (derived): Conv Kernel Plane - OutputChannel=7, InputChannel=2
053c2bcfc6c1ab0ec6ccf7211206161d
# Keras Layer (derived): Conv Kernel Plane - OutputChannel=7, InputChannel=3
ceea080417d5f9eb120b1311fe13e8ed
# Keras Layer (derived): Conv Kernel Plane - OutputChannel=7, InputChannel=4
29a8141a54fc0336d7cecef1f5edd9ce
# Keras Layer (derived): Conv Kernel Plane - OutputChannel=7, InputChannel=5
fb98f8ead4bde2bf31c5e11c191f1033
# Keras Layer (derived): Conv Kernel Plane - OutputChannel=7, InputChannel=6
05e9fae6f214130e3b16402d2a0d2b0c
# Keras Layer (derived): Conv Kernel Plane - OutputChannel=7, InputChannel=7
d5c409e154f1f32a2cebc62a1ddf210e
# Keras Layer (derived): Conv Kernel Plane - OutputChannel=7, InputChannel=8
f7c712f01de54748fac8f62a441835fb
# Keras Layer (derived): Conv Kernel Plane - OutputChannel=7, InputChannel=9
ebddf68cfefaea0016be8104e418ceb3
# Keras Layer (derived): Conv Kernel Plane - OutputChannel=7, InputChannel=10
ef0cee1dc9c7fb23adf003f1440e1dfe
# Keras Layer (derived): Conv Kernel Plane - OutputChannel=7, InputChannel=11
151bdef9ddf810e805e3fa0428de2ffd
# Keras Layer (derived): Conv Kernel Plane - OutputChannel=7, InputChannel=12
0706100d08f706ff00030ff2ffefedf7
# Keras Layer (derived): Conv Kernel Plane - OutputChannel=7, InputChannel=13
0600f6c997d2a0ce1df9f62b3442273a
# Keras Layer (derived): Conv Kernel Plane - OutputChannel=7, InputChannel=14
f9ea22e90bbde4bafa1fe912fb0f2dcc
# Keras Layer (derived): Conv Kernel Plane - OutputChannel=7, InputChannel=15
ef05cfe9e43714bd3f2902a20918e7cb
# Keras Layer (derived): Conv Kernel Plane - OutputChannel=7, InputChannel=16
03def9d431f7061c09f4ca061df8d9f7
# Keras Layer (derived): Conv Kernel Plane - OutputChannel=7, InputChannel=17
12d0f72427c51e19d7ea130ff6fe13ec
# Keras Layer (derived): Conv Kernel Plane - OutputChannel=7, InputChannel=18
0e1b0ef831e2fd1c13ebf71ff503cddb
# Keras Layer (derived): Conv Kernel Plane - OutputChannel=7, InputChannel=19
16f7e32710d61c0154110d06101bd79d
# Keras Layer (derived): Conv Kernel Plane - OutputChannel=7, InputChannel=20
daf80f42acf1ecaa16021fcddc1b15fd
# Keras Layer (derived): Conv Kernel Plane - OutputChannel=7, InputChannel=21
f6ddc9c3e318300d2d1f501c50df1202
# Keras Layer (derived): Conv Kernel Plane - OutputChannel=7, InputChannel=22
