# Dense Kernel Weights (int8) - Keras Layer Order. Stored row-major flattened, one hex byte per line
# Tensor Name (TFLite): tfl.pseudo_qconst3
# Original Shape: [np.int32(64), np.int32(256)]
# Dtype: <class 'numpy.int8'>
# Scales: [0.00455289 0.00617473 0.00151172 0.00609318 0.01001991 0.00802343
 0.00202366 0.00881262 0.00624982 0.00180784 0.00744018 0.00630894
 0.00591822 0.00903334 0.00709361 0.00547405 0.0085705  0.00873892
 0.00178628 0.00175591 0.00940502 0.00640796 0.00703858 0.00195507
 0.00607209 0.00178712 0.00880937 0.00928457 0.00846199 0.00739413
 0.00314937 0.00666667 0.00727286 0.00890896 0.00825485 0.00752373
 0.00823601 0.00802468 0.00572151 0.0068086  0.00570264 0.00748618
 0.00722014 0.00775716 0.00149164 0.00164747 0.00849587 0.01491768
 0.00832103 0.00727052 0.00147177 0.00741907 0.00683434 0.00611978
 0.00162446 0.00820078 0.00608634 0.0090715  0.00855342 0.00723316
 0.00859038 0.00775667 0.00768595 0.00638717]
# Zero Points: [0 0 0 0 0 0 0 0 0 0 0 0 0 0 0 0 0 0 0 0 0 0 0 0 0 0 0 0 0 0 0 0 0 0 0 0 0
 0 0 0 0 0 0 0 0 0 0 0 0 0 0 0 0 0 0 0 0 0 0 0 0 0 0 0]
ee
da
d3
dc
1b
f0
dd
08
f1
c1
e8
14
f5
25
02
d4
0a
de
e4
01
18
06
10
db
24
05
f6
f9
3f
e2
f5
fb
16
f1
07
ff
ff
ee
e6
ba
19
42
0f
c4
3a
43
29
1c
dd
12
1b
1b
c4
40
ac
f7
f5
e3
41
09
1c
02
ea
b8
0e
3a
4c
b1
24
1a
18
dd
29
09
d3
fb
1e
e6
ce
e3
e6
fa
c4
fb
fc
e8
24
9f
21
0d
f8
03
ea
cf
36
44
00
bd
16
c1
fc
e8
fd
2c
ed
f4
1c
15
f8
f6
27
0f
ee
e9
c4
e8
2d
29
12
1b
21
f8
0f
03
d1
c9
cf
de
f1
46
3e
cc
ba
12
1a
fd
ca
14
09
ec
cc
d1
47
26
e8
e3
36
0c
ef
e2
1d
f4
04
bf
c4
ed
f7
cc
15
fe
c0
34
fc
0f
13
c4
d7
31
00
c0
e9
00
ff
02
c5
e5
1f
27
1a
d1
f7
88
dc
aa
f1
0c
c2
19
e5
f1
d2
1d
f1
f1
18
cf
c5
fe
20
0a
1d
da
db
18
16
10
03
02
d8
03
cc
0d
ea
fa
b2
02
f6
e9
11
26
cb
03
29
20
bb
bf
c6
20
dc
22
c5
2a
28
20
1a
fe
3a
10
1d
0d
08
81
f2
be
20
de
e6
9c
0f
ff
12
06
2a
1c
07
de
bd
df
36
11
d6
24
18
e7
2c
fe
f4
f5
ae
11
d7
2f
df
c8
ef
c0
17
d8
f7
d9
4a
81
2c
46
f5
31
a9
05
e9
1d
f9
f3
bf
11
2a
34
e1
e4
f9
e1
e9
a1
26
e3
d4
f5
1d
d0
dc
d5
f8
bc
f4
f7
40
f9
6e
0c
12
14
e1
dc
32
11
dd
f6
14
4f
02
20
a6
02
f5
bf
38
d8
37
01
3a
50
43
fb
02
eb
f7
2c
15
11
4d
da
f9
4a
0e
f4
e4
bb
da
ff
01
00
26
0d
18
b6
f7
44
12
43
cf
cc
c6
03
b1
3b
0c
04
e0
f3
fc
f9
a8
25
10
0c
ef
1a
4f
fd
2c
da
18
ea
18
08
0c
fc
f0
47
e6
00
fe
2c
e0
e5
fd
c6
c4
ce
33
1a
16
0e
05
f2
54
af
f6
24
f0
d7
10
a7
0d
eb
fc
d6
02
f5
b2
1d
27
4b
db
1c
cc
07
1d
d8
37
06
da
f1
f9
00
09
e6
1e
2c
33
17
18
11
0b
1d
0c
e3
4a
ef
27
fe
f1
d8
1c
dd
c1
27
36
ea
c7
17
1d
21
0f
01
f9
fe
fb
23
ef
37
09
f2
32
ca
5a
f4
f7
c0
28
c1
02
eb
07
dd
1b
6c
00
ed
fa
cf
c0
bd
fd
1f
41
1b
f9
07
f0
bd
f6
f1
d7
e8
cb
ae
be
b5
17
ab
e2
dc
ba
fb
fa
dc
a7
d0
02
e1
d7
34
2d
0b
19
41
e5
05
fa
e2
0f
02
9f
c4
ef
02
f2
d5
04
aa
1f
0d
2a
fc
b2
2a
de
fb
9d
12
d8
ce
00
f1
fb
c2
da
20
b9
24
c4
ea
c2
d2
1b
1d
19
9e
be
e2
b1
ab
15
bc
b5
22
18
cf
05
e8
1e
21
ea
c5
ac
ec
42
26
17
2b
94
ee
9c
f7
c0
b5
ba
ea
15
1d
c0
ca
3b
d5
aa
d2
d4
af
23
e7
83
f6
ce
1a
12
f9
1a
8d
f2
c3
27
90
ae
13
90
af
d4
37
17
86
aa
f9
b2
22
f4
33
d7
9b
e2
a4
24
52
3e
cd
9d
08
88
d3
cc
10
88
d2
0d
bd
ef
ec
1a
c1
e7
81
d1
c9
e5
d7
9d
b8
03
b1
bf
b7
b1
38
4c
3b
e9
94
de
30
c4
1b
f2
1e
3c
0e
28
b5
0a
b1
19
d2
2c
0d
c1
fb
bf
98
b7
bc
e9
52
10
cd
28
31
b2
08
d1
f6
9a
30
e1
f9
2a
18
bb
2b
1f
0e
b5
e2
08
40
98
a6
9e
26
8c
e3
01
bf
98
f5
1e
f2
c2
0a
02
8f
1f
c7
12
02
e1
e1
07
d5
de
07
e3
25
d6
e4
b6
3d
3d
c8
bd
c1
11
51
cd
1f
cb
05
4e
ed
ff
e1
ba
08
0a
b1
f3
3d
f0
d3
f5
a2
f4
ca
d4
e4
a7
dc
0e
08
2e
08
dd
61
fd
f9
1d
fd
ea
52
07
ef
b4
e9
01
07
08
f2
11
da
cc
3b
c9
14
fa
bf
ba
f4
b0
01
22
05
1b
e1
1c
06
24
3a
3b
d0
1b
d6
0a
0b
19
fc
ab
fd
36
a4
3e
c1
29
1c
19
28
31
d7
05
e3
2a
f5
0e
cd
2e
a6
14
0c
fe
44
20
e0
13
35
0b
2b
a9
5a
f2
07
f5
25
01
2a
05
0d
45
71
00
a8
58
24
8c
c2
06
f2
ba
ff
c3
32
0f
61
6c
0c
ec
0e
1e
f8
4c
cb
33
11
2d
ab
a3
45
ca
19
bf
13
e2
1a
7f
05
f5
95
c6
f2
e2
fb
46
c9
18
f4
a6
27
b7
f9
e4
46
43
fc
08
fe
e9
11
20
27
e2
32
b2
0c
31
eb
20
b1
b5
e3
2a
ff
e0
a5
00
00
17
05
03
21
0c
29
f4
74
f8
d9
ab
fb
3c
d0
4a
0e
21
2d
ff
f3
a0
e7
c8
1b
09
ed
e6
7c
3d
11
f8
e0
db
02
06
b1
10
b7
c6
dd
be
15
17
f7
19
b6
1c
1b
7e
0c
f9
f6
22
ed
3e
ff
f3
e0
08
f1
cd
10
bc
ec
c8
0c
1d
0f
03
fb
bf
fb
24
dd
29
01
81
00
c9
ff
05
f2
16
c3
26
ee
fe
ea
e7
f5
10
2e
0f
12
0f
c5
0b
fd
e2
e1
e6
df
0e
f5
f6
40
07
ee
e7
dd
d0
15
0b
07
20
cb
fb
42
29
13
13
ee
e7
06
23
06
c8
14
e6
f8
0f
f1
08
c9
02
1b
c1
09
c8
f0
58
14
fd
1b
fb
fa
f6
1b
00
0f
de
c4
15
e9
15
38
03
04
03
bc
f0
fc
ee
0b
fd
0c
de
da
39
04
01
f1
03
04
f1
ed
fc
05
e5
fa
10
6a
1c
13
17
f3
06
03
d2
0c
04
23
06
12
02
f9
0f
e9
f3
05
1f
ef
f8
08
f8
0e
fa
0b
2a
03
36
15
22
1a
13
1e
fa
1a
17
1c
e1
06
f6
ec
01
10
2c
d4
1c
f8
f4
fe
1c
ea
0e
09
e9
12
f1
3c
28
03
f6
f7
02
d2
1f
07
14
da
e5
06
cf
d5
22
0b
11
f8
08
fd
05
e9
11
d0
1c
0b
fd
09
db
0b
fe
f1
f0
02
4c
10
bc
f9
3f
06
1e
e1
d5
01
f3
00
13
d6
1d
00
ee
fc
17
08
17
05
12
fa
f5
02
de
13
11
04
24
05
fe
ff
08
a0
f4
08
05
32
ef
0d
03
23
17
05
18
24
ed
e6
14
f7
18
f2
29
27
0d
fc
ee
ac
d5
1d
d8
15
e1
04
07
36
15
ca
36
40
9d
f1
04
16
23
f7
b0
14
17
01
2c
08
d6
fe
d6
44
0f
e5
0b
dc
0b
29
df
e2
c9
d1
f1
14
d7
29
fb
2b
18
f6
d0
dd
ef
06
14
e9
e2
d3
c5
e1
ff
20
13
02
08
0e
f2
7f
ac
05
e1
1e
c4
23
d3
01
f4
ed
da
22
fd
32
15
13
27
a8
e5
b0
06
f8
0b
f0
cf
3f
0e
fe
f1
ef
4c
27
c3
22
fc
33
41
00
e6
f3
0f
ea
ff
10
cf
0e
3c
47
fb
26
15
17
a9
14
f4
17
f1
e6
d5
fe
b5
03
03
e9
1c
10
03
e2
00
d9
03
cc
d6
f9
14
0b
09
00
c9
e7
94
0e
32
d0
1f
1c
0a
1b
cd
f7
02
12
10
ea
f6
0b
e2
0b
40
cf
08
22
28
1c
c8
04
39
e2
2a
0b
3a
fa
f8
d3
e5
f1
20
2d
0c
f1
fc
fb
33
1b
1d
f2
07
02
e1
f4
05
bc
14
f2
2b
ec
1d
19
18
f4
0f
02
39
de
34
f8
f3
ec
e9
c7
ad
dd
1d
06
10
24
06
f9
e7
0e
0f
9f
17
0d
13
eb
06
15
2d
2c
fe
09
13
fe
ed
1d
ab
f3
09
dc
21
2a
b2
b4
17
e6
25
99
dd
31
f9
e5
96
d8
c7
e0
fd
42
02
bc
e2
c5
0a
42
11
e6
ae
06
ae
37
ae
c9
e3
c0
dd
c4
9e
0d
d2
d9
ef
be
e2
22
da
11
a4
13
06
db
8a
f6
fa
0e
e4
cb
17
e5
1f
08
c6
9c
11
ff
ff
f8
d8
f2
1a
b6
22
f8
00
c1
d1
1f
de
b4
14
aa
a0
fd
d6
f9
9c
27
36
c6
14
0e
d2
c8
e7
34
e1
fe
c5
b5
dd
0a
dc
e8
fe
06
22
24
39
ea
c4
a3
0f
f6
ee
ef
c4
0a
27
cf
ec
e3
2e
15
3f
2b
ea
20
bc
a7
08
97
b6
de
d1
98
ef
cc
12
be
c4
1d
ea
17
27
df
98
5e
0e
10
db
19
d2
03
e9
c2
89
1f
a8
1a
1e
0c
81
12
bb
b1
d9
a3
fe
02
1b
14
c4
d7
07
f5
d6
a5
3a
81
04
de
06
f0
22
9b
b2
cd
d3
d8
dc
a6
ab
b2
a0
a1
24
ff
f6
e8
ba
c5
31
1d
3b
29
b9
8f
ee
e9
a7
c1
02
e9
0d
e5
1a
c9
b3
1b
ae
e8
f7
b8
a2
bb
25
be
f3
f1
b9
30
e7
0e
d8
ed
e5
fc
ca
1a
ba
97
aa
b1
be
29
0a
03
e9
db
db
cc
fe
da
cf
18
25
00
f3
4c
ce
f0
1a
2b
ef
21
cf
06
02
d3
d8
f1
e4
0b
0f
fe
06
da
30
de
1b
02
08
11
15
fd
07
5f
0a
d1
11
dc
05
22
0d
02
37
0e
f9
ec
fc
db
24
f7
e8
0c
de
e3
00
f3
f9
cb
03
17
3b
ff
27
f9
1a
1c
18
ec
09
fd
06
0f
15
09
f5
ef
08
fa
3c
04
16
03
ee
11
fd
19
43
fd
f5
e9
19
0e
ca
2f
f4
14
12
10
f4
e7
20
d4
0e
f4
fe
03
0b
01
ff
22
fc
05
ea
f7
f7
f6
0e
12
ed
1b
fa
df
d9
30
11
fb
f8
72
fc
fe
f4
d6
0d
2e
14
4a
f9
fd
f3
05
d9
ff
4e
e6
de
fa
f3
ff
de
dc
15
17
dc
fd
0e
06
2f
28
ff
e5
c9
06
2c
ea
f3
05
09
02
00
05
20
09
ff
c3
14
e0
d6
2a
de
e8
ef
f7
05
1c
2f
b3
f8
1a
20
f6
47
f5
c2
e7
26
f2
00
f2
d9
c5
05
eb
d9
02
14
fc
0e
49
fa
fb
1c
03
f7
e6
e5
fb
16
4f
25
07
33
d4
12
0e
ec
16
fa
2e
0c
1c
ee
07
07
1a
eb
27
09
e8
2e
04
f4
f6
eb
e4
e5
27
f4
28
f2
34
f5
25
05
f8
81
0a
01
28
0a
3a
cd
a4
fe
ca
ee
f9
26
0f
e6
0f
c9
2b
f2
dd
f4
b2
30
c5
03
19
e2
e1
0c
da
23
2a
c7
24
fc
31
e4
e3
18
d1
dc
ee
0a
12
1f
ec
07
f5
d2
18
07
1d
39
e9
e2
05
e6
ee
79
0b
bb
ce
22
f5
fc
03
33
1d
d6
57
08
23
ed
be
27
01
16
fe
1c
fd
52
0d
bb
bd
10
ee
2f
05
c4
06
0e
e4
d9
0d
55
37
18
d6
3e
e0
e0
d3
dd
db
0f
23
e7
13
30
04
f9
c0
12
15
f2
ed
3c
cc
27
cf
19
9e
12
1e
07
0b
12
12
e6
0c
35
e7
32
e2
0e
cb
37
f8
2f
13
20
d7
0b
09
a5
c8
b4
16
ed
1c
2c
ea
f6
c5
06
e4
ec
14
1c
c4
3a
0e
1f
ee
ef
10
33
1a
16
12
fb
1f
22
df
12
a6
fa
30
ed
04
50
e5
eb
0a
20
f5
0d
ee
e4
f9
8a
f3
4c
07
35
09
54
d1
f7
12
02
29
08
34
46
26
0f
ed
fa
b9
11
33
16
15
21
1a
81
d0
2b
05
20
e0
08
f6
40
e9
0f
56
51
20
0f
fc
44
1e
2d
18
25
e5
f0
ee
ef
d2
d4
0c
00
0a
d8
16
d0
bd
ed
fb
20
9c
d9
0c
1d
bd
ec
25
26
d1
2c
a8
28
02
0e
09
22
1c
dd
43
d8
41
9e
06
b7
c4
f5
29
2a
22
27
d5
ac
fa
ce
ee
c8
e2
fb
ed
cb
f7
8e
b5
d2
13
1b
aa
98
e6
e8
d0
1d
a2
b8
f3
b6
de
11
ba
b2
0a
93
9d
bb
fa
fa
fe
e2
8f
be
f9
30
a5
ce
c3
dd
fc
a8
e6
03
1b
04
37
46
1e
ec
a2
b2
af
81
f6
b5
ee
aa
f6
96
f8
fa
34
bf
01
e8
de
c1
11
08
f1
d2
02
d3
e6
3c
ef
1b
ec
b4
a2
b5
e9
02
08
06
b7
ba
cf
aa
f4
46
a4
00
0f
a0
03
a8
ad
db
d4
1c
ac
a8
27
bc
b3
15
c2
f9
bd
41
c8
d2
00
0c
26
d8
ba
97
c7
f8
1f
1f
12
bc
0f
b8
e1
17
fb
ae
07
bf
29
fb
d8
f3
1b
93
21
cc
f2
0c
e2
c1
d1
b5
a2
1a
8e
c0
e7
d5
01
bf
de
38
34
f3
ea
f6
2d
09
9f
b1
ca
20
30
fa
bf
d5
a5
1f
0f
b9
ba
10
e8
b7
b5
db
e9
26
bd
13
35
ac
05
fd
04
be
ed
99
a7
12
b0
92
f6
cf
c4
1d
b2
11
be
ff
e9
f5
f6
11
b5
dc
fe
fc
0f
0f
05
a4
ac
db
10
97
2e
69
e9
db
08
f8
16
1f
f8
d4
fc
3a
fd
28
e2
09
fc
c1
0d
02
b8
ea
eb
15
07
2b
0d
1c
f4
0b
a5
f9
fb
05
42
0a
c7
ff
00
09
d3
07
0a
19
50
f4
08
09
ec
bb
32
bf
fd
eb
12
05
bc
f9
c4
07
b9
c1
0f
d4
01
e3
00
14
24
fc
c4
e9
fb
b8
cf
ee
e4
d1
07
04
f7
d2
ef
07
81
38
0f
4b
2b
af
cf
1b
f6
9c
fd
2b
fc
b2
cc
0d
e5
3c
37
0a
39
ec
ad
ff
23
26
10
0b
e4
22
e9
e2
1d
e0
16
bd
f1
2a
31
1e
f3
fc
fc
8a
f5
1b
25
0a
f5
e7
f4
1c
27
eb
06
cd
eb
1d
06
26
f4
ec
f7
4d
01
e6
cb
ee
fe
f6
02
9e
0d
09
15
20
18
ee
05
fe
d0
02
19
38
05
29
27
2b
ce
f0
00
01
0a
50
37
cc
e2
1f
9e
e6
ed
e8
c9
eb
3e
38
e9
bf
08
3e
f4
07
ee
c8
c7
25
08
90
17
f4
ec
fd
27
15
f6
eb
9c
1d
d5
bc
f9
fe
f0
ef
f8
10
cb
ed
1c
15
47
17
1e
de
3c
bf
35
f0
d4
fa
d0
ef
e6
de
33
f2
fb
d2
fd
c8
ff
2e
fc
ef
1b
12
0b
ee
32
cb
f5
bd
f1
72
97
41
34
d9
07
d6
3f
ec
1b
24
37
3d
37
2d
e9
20
cb
1b
17
18
e1
fa
e9
12
bd
4c
f3
1a
09
db
40
11
eb
f7
ea
08
fb
1d
e5
04
ff
d2
1a
f0
b0
f6
ee
e0
15
e5
10
d5
ac
1b
fc
da
5e
ec
0b
24
38
03
12
2c
e8
60
32
15
f4
f4
2a
f6
c9
1e
f1
a1
11
01
0d
2a
eb
5f
1a
26
ef
ee
d1
14
8c
07
2c
2b
f3
ea
ec
d3
4e
e4
56
11
d5
0e
f7
10
11
0a
db
ca
0b
f5
1c
ca
65
19
29
10
e9
d4
2a
e9
d6
16
df
05
ff
12
0d
0a
68
fa
3c
bb
bf
27
f1
e5
00
ee
e6
63
32
ad
0a
36
65
1d
c7
f1
08
bf
13
09
08
c6
ea
04
14
f5
e6
03
fc
11
fa
5b
3b
0d
0f
11
f2
01
a5
f9
14
f2
23
c0
19
31
f2
fb
b0
36
44
63
ba
2d
38
03
e2
12
13
1a
23
d9
e8
f6
33
f8
dd
07
a3
f1
44
05
de
ef
f0
fb
31
23
cd
e0
19
18
20
05
b2
24
e3
d1
d1
01
39
00
ea
02
1a
d3
e0
eb
f4
02
12
fb
16
1f
20
14
cc
25
00
2c
86
00
10
fa
06
ff
f5
ed
18
e3
e8
0a
00
7f
f9
f4
24
d5
d8
08
bf
3c
e9
a0
fd
3e
be
41
f9
fe
e8
f9
16
f2
2d
1b
f7
15
38
fc
f9
b8
4c
1b
82
1e
39
45
c7
df
07
9e
1f
29
e4
08
0b
94
77
e8
1e
fb
32
fe
f0
17
c7
36
12
08
34
bd
27
43
1c
9f
0b
b4
ff
c4
c1
25
01
f7
15
00
1b
0e
17
d0
22
f6
0b
8e
2b
c9
37
05
ff
d0
3b
03
24
f7
02
f9
eb
18
2b
a2
ec
ee
99
13
f0
14
23
df
3a
d2
04
b8
1d
0d
fc
0a
9e
93
e0
22
18
b9
fe
f6
35
1b
ed
45
f9
ff
0f
09
05
3a
20
14
3a
cb
16
c4
e7
57
9b
4c
17
2b
ef
aa
ad
42
d5
1c
f4
fb
f6
f9
f0
16
11
1c
f5
05
f4
04
81
0d
48
12
ec
48
ff
00
2b
e5
0d
08
f1
12
21
e1
fb
e3
9c
d1
ed
0f
f8
c3
ee
be
44
ee
f5
dc
05
c5
2a
19
d6
1b
fa
09
36
16
db
46
17
05
f6
f6
ef
28
70
2d
06
0b
e4
50
f3
61
29
fc
18
03
f0
f8
fa
dc
cb
ac
ee
10
d7
f5
32
a8
f4
3a
20
d7
2d
10
05
03
e9
d7
cf
28
ee
2a
f3
c9
ce
07
e0
1a
2e
c7
08
eb
4f
10
d8
fe
f8
20
13
ed
da
32
f7
fc
f0
f5
06
22
da
19
e6
08
e0
27
18
e2
0f
32
0f
2b
3a
fb
10
0c
eb
f0
36
17
2d
09
d5
0d
08
a2
eb
0f
c9
01
05
0b
25
16
ea
ec
22
21
31
05
54
e6
f8
be
04
fb
fa
a9
f4
12
fc
e9
06
0b
0e
28
0c
e7
eb
20
06
0e
07
db
28
fc
f5
f5
94
0f
f6
31
cd
0c
d3
f2
0a
0f
f2
d8
32
0d
2d
be
f4
01
f4
d9
26
10
21
25
c2
f5
c9
d6
81
33
1f
ef
22
2a
38
f5
13
cb
20
09
d9
01
fa
fe
14
08
f7
ef
fb
ef
ed
cb
d2
ff
fb
31
14
0d
0c
65
e0
1d
ff
d8
10
1d
c3
24
f8
dc
1b
d4
ec
f4
ce
f4
ce
e2
02
e1
15
e4
09
89
ab
f1
fe
f6
1f
0b
05
b7
f9
10
a2
17
24
c7
46
ec
eb
fb
f1
1e
21
02
0c
41
d5
03
0b
dc
03
ed
29
08
e9
0a
19
fc
38
dd
f9
d6
d7
cb
e2
03
f8
e8
0b
14
18
0b
fb
12
ed
f8
1c
ea
ab
0b
0d
21
03
f2
25
d8
f5
22
1a
f0
0a
0b
e2
f0
da
0d
ed
1d
e0
eb
e8
2d
d9
1a
cb
cc
15
f3
fe
5b
e9
cd
d7
d6
9c
e6
d9
ed
db
f1
48
fe
1f
35
0a
ef
f0
ba
de
f1
2c
f5
dd
05
37
28
d7
10
d9
c1
ce
f7
ef
19
e0
29
c4
e8
ef
e7
f9
1a
c8
f7
43
0d
fa
24
3e
29
2d
29
06
0d
28
cd
d2
d3
d3
e9
3e
21
16
f5
c2
27
06
1d
00
e6
b4
1e
f4
b8
05
f2
fb
f3
f8
0c
01
16
ad
19
0c
e5
04
01
fa
f4
b6
01
07
de
f9
e2
eb
f0
22
ce
da
05
c1
f0
c4
32
10
a7
27
11
14
19
16
0b
ed
1a
0b
07
d4
ff
28
fe
db
db
0e
fe
14
cb
d0
f1
0e
0c
11
cd
f1
e0
35
eb
30
bb
26
f5
f9
2d
10
fc
ff
fa
1d
f5
dc
19
f1
08
0d
0d
05
37
6c
d9
f2
0b
0a
4c
de
ef
e1
29
1c
d3
09
eb
07
10
d9
7e
0e
f1
3c
dd
eb
0c
f8
fb
e6
ee
19
0d
19
11
01
71
0f
ec
e8
16
5f
d4
b9
a1
25
f9
e7
30
55
1a
15
e8
45
81
e5
14
fd
0a
01
d2
14
0a
14
2e
fa
3e
13
11
17
fe
1d
05
f4
0b
08
ee
14
fc
15
38
18
0f
f8
1f
c0
00
c6
0f
f8
1b
1e
3b
00
0a
ff
da
ca
1b
f5
49
fb
70
2e
4d
41
39
27
20
5b
fe
e0
ce
06
0f
f1
fe
64
2f
14
d2
13
d8
34
e2
03
fb
f3
d3
d1
db
04
dc
c8
ca
69
df
cb
fd
3e
18
ec
34
e3
fb
2d
f1
c4
ba
d7
a5
0e
d7
45
f0
cd
12
29
5b
01
ee
a7
2c
13
5c
3e
ab
47
32
04
35
e0
da
4e
22
f8
3c
e3
71
07
1f
77
9c
60
d8
e1
14
fd
11
d6
30
20
2c
02
1f
3f
17
f8
f4
09
09
ed
3e
eb
e7
f0
05
12
53
c1
f0
e8
1c
3d
0b
d4
f2
94
c7
cd
20
ea
fb
cc
44
0c
d8
0c
58
b6
1d
d7
f6
db
db
05
1e
e6
33
20
c6
15
f7
f3
ab
1d
23
08
f2
ca
e1
18
27
67
03
d8
fd
4f
3d
b5
30
fe
31
d0
de
ca
c3
fe
00
0a
08
d7
ec
2d
18
3b
81
ee
ab
2c
b3
28
e6
35
e2
cb
03
fd
fd
d9
16
18
51
f5
bb
be
f3
fe
cc
d0
a1
65
4a
0c
d7
05
f9
18
ba
f7
23
f5
42
00
cb
2f
fe
fa
2b
fa
fa
08
f2
f5
23
3b
13
d6
b6
48
1e
6e
4d
2b
e1
30
ae
f7
03
14
ec
27
0e
0d
14
f9
16
20
0a
57
d3
c3
7d
d4
63
04
cc
ea
c2
1e
33
e4
03
0e
d0
11
99
1a
23
0f
ab
0d
07
c7
e5
20
1a
13
e5
24
10
dd
24
ed
da
fd
e8
fc
1f
e8
eb
b4
2b
16
15
c0
0d
dc
15
c7
ef
53
f1
b4
93
f0
23
ea
ec
ed
26
b4
e6
42
26
e8
c2
cc
ce
fc
c9
03
e7
f5
35
c5
19
cf
ed
1b
ce
d0
24
f1
fc
fe
28
b8
e7
25
eb
fa
03
d7
47
4c
c7
19
1f
2a
13
6b
23
f5
d4
17
ee
05
dd
f7
15
07
f7
ea
d1
fd
0c
08
18
08
da
0e
a9
01
0e
06
2d
ff
db
e4
b3
1c
fd
04
ed
0a
0f
1a
e4
1b
04
22
0b
57
e0
38
f3
0e
f5
fc
e7
22
f4
c7
ed
fa
2c
18
eb
f5
18
e3
36
0f
0f
cb
d3
14
f1
cd
dc
ec
dd
22
08
b5
f1
b7
e7
c4
05
fc
01
bb
f8
0f
22
02
0c
13
dc
00
f7
0d
07
07
21
00
f6
c7
06
04
a3
f2
fd
10
81
06
0a
0c
90
f8
ff
f6
ea
99
f2
24
fb
f6
2a
dc
3d
38
e4
fd
de
ed
26
0a
2b
ea
44
2f
cb
32
fe
bb
e2
ee
f5
1d
30
14
f6
e1
15
fa
28
e8
08
d7
de
f5
e0
fd
ee
fe
26
d3
ed
fc
ce
e6
a5
f8
0f
fb
00
e6
01
f2
e2
05
14
0e
a2
f8
1f
ea
15
0d
dd
b3
14
cd
d0
fe
12
0b
3e
11
18
fd
c5
04
0e
0a
fc
e3
1b
d3
e4
e5
d4
11
0e
07
0a
fd
f2
1f
20
e1
17
c8
f2
f9
e3
cd
3a
16
d9
e9
12
f1
22
17
16
24
f5
5d
ef
f5
05
c6
24
14
fb
11
1e
10
7f
02
ef
d5
23
ee
27
f9
e6
f4
18
04
2f
fb
24
0a
f5
fa
25
0e
00
0b
19
e0
2d
07
d2
27
05
f6
f6
22
e4
e6
13
05
2e
ee
11
25
fe
f2
13
10
d5
ff
f2
04
01
f1
37
e6
f3
f6
21
26
f3
17
05
17
09
f8
0d
08
14
1c
0c
f8
00
fa
0f
12
0c
f6
aa
25
15
f3
18
f0
e7
fe
db
0e
fa
05
f7
0e
24
0b
ef
06
27
0c
04
2b
3e
03
03
e2
cd
ec
ed
20
10
ff
09
eb
d7
fc
b6
0f
0e
ea
fc
2e
0e
eb
09
43
f1
04
01
24
0c
06
3c
00
d3
d0
22
f4
03
12
da
20
dc
eb
18
fe
10
0c
e7
f3
1a
11
f0
1f
fa
18
11
ff
e0
d3
11
23
2a
f9
05
c8
f1
e5
f6
10
1e
23
e6
e9
f8
e5
0e
d5
08
e3
0c
09
11
05
f8
01
f1
a5
dd
27
25
27
88
f8
24
de
e9
1a
c2
d6
d6
9d
0f
a8
ae
c1
fc
a6
9c
c8
d8
bc
11
53
9d
c9
23
be
c1
bc
fe
b2
e1
e2
fd
01
81
18
e9
b4
1f
0f
a8
db
c0
0a
09
f6
21
4f
ff
35
c4
d3
ba
33
22
d0
10
98
30
b0
d6
cf
21
15
f4
cf
f5
03
b5
34
c6
d8
43
b8
e7
e2
04
da
11
23
03
b1
20
c6
9e
b8
8f
e0
2e
ff
e0
ee
13
ec
b2
ca
29
f6
0a
d8
30
34
c0
e3
1d
d6
df
34
3a
2c
9c
0c
bd
09
04
ee
bf
fe
23
dc
ec
14
18
0d
1a
f0
b8
2f
c0
00
37
d0
aa
c0
0f
f7
ca
96
15
13
ee
db
b1
d7
33
26
94
e4
ae
10
2b
b0
96
d9
be
14
1d
8a
dd
36
ad
cf
dd
97
2a
b4
ff
e4
f8
e4
fa
cb
16
b9
38
bc
00
9b
36
c0
0b
47
c7
03
9b
a9
e0
f5
a2
e1
0c
3d
aa
10
d3
d8
d1
bf
bd
11
26
f5
c6
09
d0
ef
57
f4
93
cb
17
97
b3
48
fc
c5
fb
f7
be
07
d2
d4
a5
23
2d
ec
1b
e5
12
ea
d7
f1
c8
cb
02
f8
32
2f
bc
df
b4
16
0f
a2
f4
d5
c8
e6
86
bf
c2
b0
e7
27
ae
12
24
10
1e
fb
f2
30
1f
b7
d4
d4
f9
19
b1
2a
11
ac
cc
e6
0c
fd
00
d2
ed
be
dc
d0
06
d6
c2
b1
d9
a2
fd
c9
da
c6
f8
e7
0f
18
0a
30
f8
2e
bf
10
aa
ed
e2
45
31
fd
dc
09
af
0d
eb
3c
3b
c0
a1
b9
d4
fc
2e
d2
45
24
33
09
ff
c8
ce
ad
b6
e6
c3
c0
0c
ea
95
e3
d9
a2
d8
1c
e1
e1
e2
3d
27
b8
d1
be
05
c5
22
97
df
0f
c1
14
f2
26
18
16
db
b0
ce
ab
98
d0
da
de
e7
b3
e0
ef
d1
aa
e5
d8
27
09
06
c2
d2
d8
34
e8
f1
e9
a0
20
17
bb
10
08
11
bd
37
a8
ee
9e
e3
e7
16
bd
fe
2d
16
14
d9
11
07
a3
13
14
f6
a7
2d
a6
a9
04
1c
eb
06
e1
3c
02
0d
01
d9
df
93
c1
b2
0f
9d
85
26
e4
d3
e4
32
1a
01
d6
ca
b0
a7
ab
03
0b
ed
c7
a6
35
4a
06
3c
df
e0
1d
0a
fd
f1
f3
3e
23
14
cb
18
40
c9
cd
e9
c9
c8
fb
b1
dc
8e
1f
f7
b4
b5
ed
b9
c9
e7
a2
e8
f3
fb
0a
a3
81
fd
d7
f8
ed
3f
8d
15
c8
40
dd
29
f8
f5
e6
2f
c8
f8
06
de
ed
f1
f7
da
fd
16
1f
bb
16
e1
11
f7
f6
ea
13
0d
06
10
f7
de
f8
1a
1a
22
d7
01
de
d7
05
0f
18
0f
f3
03
3b
0a
eb
1b
04
17
3b
11
ca
06
f6
ca
ee
03
f5
08
1f
f1
01
4b
e8
e7
fd
09
ff
0b
05
d0
38
ef
26
23
fa
dd
03
ea
2e
24
dc
02
00
0d
f8
2c
03
03
de
f6
30
fe
30
07
1a
0a
f9
c3
c9
0b
10
d1
e4
16
21
02
25
09
f0
0a
22
0a
15
1c
12
eb
07
c6
1d
f8
17
fe
fe
13
03
08
32
05
df
05
d1
ec
e8
f6
0f
0e
f5
10
24
de
05
f8
30
fe
ea
03
ef
f7
bf
d7
de
1b
f6
ff
04
12
33
ec
ee
1b
7f
23
13
fc
e0
26
f3
15
1c
05
f5
03
0a
f4
e6
ff
ee
f5
f1
f5
ef
0f
3a
fd
fe
ef
ed
22
05
27
10
ec
0e
f5
fb
e3
08
2f
ea
13
06
2c
05
19
f3
e4
f8
18
f6
15
d6
12
00
ec
13
2d
04
eb
0b
12
fb
fd
e8
0d
06
05
27
1d
05
0d
09
0d
0e
0d
28
f9
0b
2a
fb
e5
12
16
07
15
fb
f9
e8
16
1f
dc
ff
cf
07
cb
02
0c
11
d7
0d
23
d0
ff
2e
1f
cb
0c
ba
1f
0a
10
38
c1
f2
24
1a
02
ea
e0
2f
b8
29
f5
de
eb
17
4f
33
09
6a
02
bf
e6
27
1b
40
f1
34
1a
07
17
f0
46
b4
20
fd
20
df
07
ef
cb
f0
ef
23
c4
ac
25
f9
35
f3
ce
c1
3e
de
2a
14
d8
9d
e4
1a
2d
d9
f8
f2
aa
d0
5c
df
39
f8
f9
1d
4e
aa
32
07
12
db
00
0a
52
b3
e5
45
ab
09
f5
31
ee
02
b9
21
18
1a
e9
24
15
e9
ee
44
b6
b7
f3
0b
c3
37
c3
fd
6d
cd
50
0a
2b
d1
f0
ee
1d
ec
08
26
1e
be
f6
c7
fb
00
03
17
ef
03
ed
04
d6
cf
f7
02
07
fe
06
15
1d
ef
0a
b3
cf
0e
fb
00
f0
0c
0c
0a
d0
c9
14
98
cd
06
0c
ff
ba
d6
f9
05
17
51
08
87
f8
f6
f8
e0
c7
1e
fa
13
a6
bb
2a
e9
c9
37
bc
e6
ee
74
ef
02
fa
f3
eb
06
7f
16
f8
a1
8a
05
b3
33
0d
60
eb
03
cc
ed
07
13
28
11
2f
f3
f0
f3
2f
25
10
d9
df
d2
1a
e6
eb
fe
10
6a
f9
24
21
15
1d
13
12
3a
f7
33
ae
35
0f
07
22
e9
ef
0a
c7
e4
e3
df
de
d6
df
0d
43
0c
1e
fd
b3
1a
24
f0
14
1f
26
ef
3f
f5
06
fd
09
90
31
2e
f8
16
d9
a3
f4
14
4b
df
bd
dd
19
1d
25
fe
07
2f
a8
4e
df
14
f4
cc
ec
ee
db
45
05
cc
e0
04
a3
fc
4a
f2
20
02
f2
1d
e1
20
4a
fd
1c
01
e1
0d
f9
05
18
81
ff
a9
0a
1f
2a
35
e5
25
fb
f5
99
bc
20
f3
f2
f6
0f
1f
0c
f7
ce
09
ea
0c
19
0f
cb
fd
fd
e2
0d
db
ed
c0
f4
35
0c
21
1d
b1
2e
15
bb
dc
ee
07
0a
43
dd
20
13
17
dc
31
cf
08
25
14
19
d0
3c
fc
0f
14
df
27
f6
1b
3b
1a
31
f6
11
f6
08
02
f5
26
2a
f9
11
e5
16
c7
27
e9
12
f6
e6
fe
e0
eb
ff
ca
41
15
0a
eb
28
f9
01
e0
28
fd
11
2f
ec
f8
b6
f3
f9
0c
21
3c
0e
f9
24
e4
21
26
fe
fb
d5
f4
4d
00
d4
f6
e1
1b
25
f3
ff
f2
ff
ca
2e
22
08
12
1d
0f
4a
01
04
3b
17
04
05
29
0d
96
d9
f4
37
1a
f4
f8
ea
2a
f5
e6
e1
fa
21
10
d2
d7
f9
38
d7
0a
b0
ec
59
fa
07
ea
24
e8
cb
ec
9d
0e
21
0c
0c
bd
d7
ce
f9
07
d6
2a
f7
a8
e1
1f
ae
ef
f9
ca
14
d6
10
2b
e6
d4
18
ee
cb
c2
0a
f3
ce
cd
36
9c
a0
f1
d9
dc
e8
b5
bb
f4
f3
d7
ad
09
b9
29
ad
f4
d3
e5
13
bc
3d
27
ed
da
33
ec
fc
b5
3b
ba
f7
28
dd
f0
f0
2d
18
38
23
e9
1e
97
15
27
f3
3a
09
d3
24
e5
ff
bb
e9
0b
2a
d3
22
c9
c9
33
37
1b
ca
c3
eb
0c
14
0f
e0
d2
8f
12
aa
c0
f5
da
b6
e3
cc
a8
1e
c5
0a
d8
44
fc
18
28
f7
cf
31
c4
c2
ec
cf
12
21
95
16
05
cd
33
29
0e
a6
fc
fd
3b
ba
e7
d0
9c
96
f0
a6
03
97
b6
06
11
df
e6
b5
ea
ac
05
d0
b9
0f
16
d0
a7
1c
eb
1b
81
18
fa
c4
e8
f3
df
cf
ed
fc
0a
16
ed
c2
07
35
1a
14
ac
ec
ce
ba
b6
d3
eb
f0
fc
dc
ec
f8
c2
28
cb
be
b4
f4
ca
c7
9a
ba
b2
be
b5
a0
16
d4
3b
eb
2d
24
f9
ca
0a
25
2b
e5
ee
f0
b5
c7
fe
b9
ea
fc
cc
b3
fc
9c
e3
2d
06
16
c7
1d
bc
db
3f
fb
2b
b6
db
f4
c3
41
ea
e4
fa
31
bb
39
d0
ff
ed
ca
4c
fa
d3
da
19
a4
35
00
e3
14
13
21
3b
ec
20
e4
11
d8
22
29
e8
de
d8
1a
32
f9
da
4e
6d
16
e3
31
b7
59
eb
f3
0c
f4
f5
ad
3c
e6
00
ca
cb
bc
f4
d8
fe
e7
b8
48
18
89
fd
90
31
f2
ef
c8
00
da
0e
2c
7f
23
53
de
23
de
df
1e
ed
16
e8
d0
14
fc
f0
fe
f1
19
ed
e0
c3
2c
bd
fb
d5
db
2e
01
9e
0d
cb
99
0d
36
35
e3
d4
f1
1d
06
3f
cd
2f
24
0a
e5
01
34
fe
19
3e
0e
0b
0a
22
0b
06
41
c9
40
d7
9e
0f
1b
0b
18
fe
22
f2
01
e8
ee
a7
fa
d0
d7
dd
e2
6d
20
ed
d5
a3
2c
1c
1a
23
2a
2a
ee
29
26
f1
16
ab
6e
2f
9e
ce
f3
0b
e5
39
2d
c7
25
0b
f0
26
e2
f7
13
12
c0
05
de
0f
fb
bc
2e
f8
0a
c2
a6
02
12
08
53
d5
29
12
e8
f3
28
dd
0a
be
13
1c
e6
ca
fc
e1
07
12
cb
26
d6
27
ee
c4
15
57
15
f6
40
e7
f8
25
d8
fd
bd
ae
f7
25
f3
12
e1
e8
eb
e4
e9
b2
04
f4
e5
3a
f6
28
d0
cf
34
f9
df
f4
4b
c1
00
d0
31
45
e5
19
c2
a5
b1
92
0a
ff
af
a2
e6
97
ba
e4
03
21
f4
f1
bf
31
9f
1d
16
f2
f7
cb
bc
bf
c2
f4
1e
01
13
c4
c7
20
0e
42
e1
d0
25
26
d8
cd
3a
da
d6
bc
d0
b1
a7
bb
b6
07
d3
1e
dc
f8
c1
44
bd
ff
27
37
0f
b4
c6
28
a2
f9
17
a4
11
b9
11
f8
f0
95
be
19
d7
f5
a8
46
f1
3c
1e
c0
e2
c2
c0
bc
36
34
09
3d
04
e9
ea
ad
d0
18
ea
bb
c4
2a
9f
1a
f8
00
bc
30
39
26
fe
48
ef
f9
ab
c3
be
28
f5
16
12
0a
12
c1
0f
d3
e6
cf
ca
9a
da
f9
ae
dc
f0
d5
e0
cc
c8
fd
07
c4
d9
b6
c5
1c
0d
d8
ef
f2
ff
41
a9
09
cf
c3
46
bf
06
9a
de
ed
a1
c7
db
1a
a3
b9
91
b5
b3
bc
18
11
f2
fe
17
28
04
b2
10
20
81
97
ef
d2
f6
36
e0
e5
1c
d3
22
e8
0d
9d
b2
e5
4c
bd
18
f6
cc
fe
a4
de
29
27
f8
ac
01
dc
e6
1a
f2
c2
fe
d1
e8
ef
4b
08
3d
a1
21
fe
1f
ea
98
05
2e
c2
34
22
c8
d1
da
c8
3a
e8
e3
20
09
3a
0d
fe
c1
0e
df
0b
e0
f7
cd
cb
03
0c
d6
1a
ff
f8
d8
0d
10
d6
03
e7
0b
07
da
12
06
1b
03
38
09
16
ef
f1
f8
1e
20
b3
05
00
05
e8
d2
0e
1b
25
21
d5
81
37
2d
e5
de
d1
28
fc
00
10
d9
19
0b
f6
04
11
19
fd
0f
1c
dc
14
1c
0e
f4
22
fa
e0
f5
e9
13
18
17
32
0d
12
c6
13
cc
c1
0e
05
e5
fc
dd
d9
1c
da
df
2e
fb
22
06
fc
07
dc
10
aa
ed
25
ec
1d
24
d2
fe
b2
e3
eb
3a
d3
ee
09
ee
25
24
4a
22
fe
b9
01
0b
31
3b
e4
1a
0b
03
0c
c6
e8
ee
f0
05
df
b9
aa
0e
34
fa
0b
0c
06
16
0e
07
f9
fd
fc
fd
ef
42
cb
32
0f
08
dc
ff
f4
fc
17
ab
ec
ed
3e
15
02
24
e2
d9
fc
fe
0e
0e
e2
ee
01
59
ad
bc
ea
ee
ff
dd
f2
d1
d9
fd
dc
d2
00
26
0a
08
df
1f
bc
0a
f2
00
f5
0c
f3
cd
d9
c5
e1
15
d9
12
d6
5b
0b
cb
26
0f
b5
1e
e5
11
0c
00
18
fd
da
05
f0
ea
0d
2e
03
14
b5
20
d2
c3
1b
b4
13
0a
07
04
ee
f2
14
de
aa
d7
ff
03
b6
13
0a
0f
16
09
f9
d6
16
cd
09
fa
0d
f8
fd
11
06
f1
2b
ed
f9
07
fe
fa
0c
e5
a4
35
f5
2e
f3
fa
f8
2d
f2
13
ff
08
2b
02
29
13
cc
2a
09
06
fe
2b
f8
cb
11
01
1a
f1
f7
f1
cd
fe
e8
d1
fb
00
10
31
f7
f8
0f
f3
07
06
f8
27
81
ce
dd
e3
e3
bf
f2
d8
05
17
ff
e7
fe
dd
c5
17
0f
f7
c8
03
fe
0d
06
f8
ff
3e
dc
25
00
f5
16
15
1c
0e
11
06
f5
15
ef
16
13
0f
f1
f8
10
f6
0a
1b
fd
e5
d4
f2
40
e4
f8
ec
dc
03
0a
f4
ea
d9
ff
14
11
12
21
14
fc
2c
34
19
09
04
f9
dc
fa
de
13
e4
33
33
00
ea
15
eb
17
f6
d4
14
2e
34
f5
ff
e4
1e
34
fa
d6
01
f4
f9
e3
08
39
f4
15
02
0c
0a
0e
e4
cb
e8
3a
14
24
0c
e0
1b
34
19
00
06
ea
15
0b
e8
d3
fa
08
f0
e4
de
0b
e5
fb
18
fc
ce
fc
3d
15
0c
01
05
d3
f5
0f
12
0b
10
20
f1
d9
e2
cb
ff
ee
18
07
ee
fd
e1
09
ec
17
ee
d9
13
fe
e6
09
e0
01
4d
e7
1f
15
b2
e8
04
0b
d5
26
d6
35
c9
17
55
00
b3
1e
08
1a
e9
1d
d4
f4
06
de
2b
1d
37
16
ec
f6
10
f5
e7
ab
f2
11
15
f0
04
15
16
eb
0b
ef
06
df
de
df
da
f7
f1
f9
f5
fb
36
d3
fc
f5
33
1b
cb
12
01
f8
ed
1a
d2
09
d4
0b
f4
f6
27
18
ef
0d
e8
fc
ea
dd
e9
23
27
18
1e
e7
d9
0f
fc
21
d5
28
cc
a5
27
eb
27
f4
fb
1a
26
fa
0a
e5
f5
c8
fb
b0
f7
d3
dc
e0
22
e1
f7
30
32
0a
1d
3a
f7
0d
c7
1d
f6
0f
81
4e
0a
34
04
2d
fc
3e
e8
0e
18
ee
f4
16
12
fe
ae
eb
d9
34
16
03
a4
0a
26
48
cb
e0
f1
08
45
01
13
fe
5a
e7
f8
d8
24
e0
17
35
e9
f6
e4
38
07
ff
00
0e
ff
38
17
e5
e7
0c
cd
2d
ef
11
f2
f3
f1
00
ff
0a
dd
1f
a6
1a
f5
fd
c0
34
06
c6
f7
0a
03
0e
c0
ec
d1
2f
1d
b4
1b
0a
3b
b9
e6
32
24
25
e9
e4
ea
f6
1e
c7
1b
0c
ef
05
e8
1a
fe
04
fe
3f
ff
0e
44
06
d9
cd
35
ed
ff
1e
e8
3e
f8
08
49
e7
da
f7
c7
ec
25
11
f5
3d
dc
e8
21
0e
42
21
15
c0
15
09
04
17
27
05
0b
fd
ce
05
2f
f0
d9
0b
d9
d0
df
0e
f8
f1
10
25
09
3d
3e
3a
16
0b
df
39
d2
09
fb
e6
07
c6
df
08
ff
de
c7
17
30
fd
e7
0b
20
b2
da
0a
d4
2b
c7
15
18
3d
0a
d9
0b
dc
04
05
1b
e4
21
0d
36
0e
f9
0c
04
cd
22
07
df
ba
06
0d
1c
ae
ff
e1
c5
f9
0c
c9
eb
ea
1e
00
e3
ff
ec
0e
0d
38
ef
40
0a
2c
d6
0e
ef
e7
ba
07
10
da
04
18
7f
d9
d9
f2
cd
d9
e6
1d
25
1d
34
3a
01
32
24
0d
5b
b5
d5
0c
e1
21
f1
f6
e1
d8
db
21
ea
25
1a
28
17
e9
d1
b4
ee
f2
1f
9e
ff
33
07
f8
1d
0a
ee
f3
e0
36
f7
23
df
d9
0a
23
27
fa
e6
29
fb
e5
d1
84
18
f5
af
03
04
f8
fb
fb
31
f1
e7
31
e8
f3
f0
19
ca
22
f5
08
51
32
2f
d4
e9
28
dc
d9
05
f6
03
09
00
ed
2d
20
d9
29
1a
cb
ea
cd
f6
08
f4
0c
ed
29
fc
dc
f0
07
1b
18
0c
12
13
16
ed
28
f1
4a
e5
f9
45
00
ff
09
ff
e8
dc
c2
da
1c
f2
24
1d
c6
e2
03
c3
c7
f2
0f
dc
26
8a
a8
f1
b6
f5
f3
27
23
e1
14
2c
10
c5
ec
b4
07
ce
08
e1
db
1c
dd
e2
06
b2
b5
09
47
0b
22
1a
ce
f4
f5
d6
d1
bf
d7
cc
de
ec
bd
bd
d0
b9
27
e4
dd
2f
0d
fb
9c
13
0c
21
c6
ee
da
50
23
20
e8
53
0c
37
c1
c5
0e
d1
3f
41
1d
d9
ee
ef
d2
e5
dc
d2
d7
f1
30
d5
f2
1d
c9
f2
0f
02
01
2d
17
f5
c5
ec
f8
81
de
23
22
3a
f0
1c
0c
19
d6
b7
d5
f1
ef
f4
fd
ef
17
cb
50
1a
f0
bd
c9
dd
00
c1
2a
dd
10
e5
3f
2b
cc
27
bb
e2
34
1a
ba
1b
e3
f8
f4
c7
ff
1b
1e
d5
1f
f9
d7
f6
e4
e3
08
f6
12
c4
f7
ff
40
d9
25
1b
0b
05
f4
27
33
0e
ba
f3
b6
df
de
ef
0c
d0
ab
d9
18
23
c2
e0
dc
23
34
b9
0f
9c
31
e0
14
00
03
12
cc
f6
97
e5
da
06
ec
f1
b8
e8
11
c0
0c
d0
ec
29
15
12
0f
01
c1
11
12
c2
1b
c4
16
21
c2
f8
f5
ee
f7
be
03
07
1c
12
09
f9
03
1f
21
35
17
d7
02
f2
f7
f8
b1
d7
45
d0
09
fa
f4
31
fe
15
f8
e7
f6
ce
e0
c4
f1
c3
db
39
02
09
e7
17
25
cb
cc
dd
fd
0e
2e
cd
d6
f0
c6
39
30
d5
fb
1c
e3
ef
15
d4
ed
f7
c7
df
e9
d0
09
0d
52
ff
0b
e4
0a
f9
00
68
2a
eb
ff
09
9f
e8
ee
cc
e4
f8
26
d6
ee
fd
0e
13
ba
cd
1e
0d
1b
23
d6
88
33
02
e5
21
07
e7
03
d9
f7
f0
0b
49
0f
53
df
fe
a1
ea
34
e0
41
ed
ca
e3
f1
06
ed
ce
ec
c8
b4
29
b8
34
c5
9c
3a
24
0c
06
3d
24
22
25
e6
f2
52
05
17
e7
fe
ba
3b
dd
fa
22
ef
06
19
e6
05
ab
1b
eb
38
a2
db
07
a9
07
6b
f3
06
e6
a1
ca
ec
39
e1
93
1c
ae
3a
bc
21
00
dd
21
17
f2
28
3f
10
0b
ed
15
ca
c8
db
ae
e9
8d
f8
05
c2
94
f5
0e
bb
bb
eb
1f
df
06
0a
81
64
d7
12
fe
2d
b1
c2
de
24
fd
cf
c9
d0
1c
1f
0c
1c
e3
f1
29
f1
0e
9c
c9
0e
ee
f8
e7
da
e8
d7
05
b1
10
df
1f
00
dc
e3
0b
31
f2
dd
05
d5
27
e9
fb
1d
d4
0d
a8
5a
17
d9
df
01
e4
41
0c
0b
f6
45
18
eb
13
ed
11
e2
04
de
e0
3c
bf
0a
e7
e6
19
09
7b
5e
02
e5
19
d3
e7
1d
0f
4b
f4
fb
18
13
e5
fd
c3
0b
0b
05
20
0a
de
ea
fe
c9
d9
ce
03
fb
f4
fb
4e
10
e1
07
d9
0f
df
15
f3
fd
e3
d4
0e
f8
05
0e
e3
f4
46
fd
0e
33
0f
08
fb
1d
f5
eb
03
12
09
0a
4c
3f
05
24
09
0f
1b
b7
a5
10
1f
f8
0c
eb
b2
f3
d0
e2
f0
4a
24
d9
41
d2
ed
f9
f2
02
ee
25
15
00
fe
0b
12
f6
e5
1b
cf
08
a9
03
37
38
e8
0d
eb
e8
e9
fe
e0
f9
5f
c5
00
e0
cd
b0
1c
f1
11
de
0a
28
f2
d5
ea
7f
d7
dc
f2
41
22
e7
14
da
f9
40
ea
27
27
40
0e
07
dd
e5
a9
19
c4
a7
11
4b
24
e9
0e
13
00
f2
10
fe
6d
28
11
e8
f4
19
f5
0f
04
c3
ff
d7
c9
18
e5
13
0d
43
f1
05
50
1a
f8
c9
c1
18
d9
ca
cb
af
0a
11
f8
fc
f4
b6
27
09
e5
4e
f4
0a
14
19
d6
db
0a
4e
ea
d9
2d
f1
c6
11
f9
18
9d
55
20
29
28
f1
fe
0b
20
32
d8
3d
eb
aa
0d
f4
14
b6
d0
e5
ae
1d
f1
05
7f
03
f0
dc
04
f9
0e
06
d0
2a
0e
fc
c9
42
0b
cd
bc
ed
0e
37
ed
f9
1a
14
01
ba
f7
e6
3b
f9
04
20
f4
31
02
0b
23
b8
03
44
f7
12
14
16
d8
ed
11
08
f9
f6
05
f7
f7
0e
ed
e2
18
36
17
d9
48
db
06
f1
12
61
cc
e0
c3
de
f8
d7
c5
0b
1f
f9
d5
b2
2b
27
d1
03
0a
10
07
e8
12
03
15
f8
f5
f8
f1
f5
10
db
1f
f5
f4
09
28
ed
02
d0
0a
c9
f7
e0
05
ea
2e
f7
33
f4
0e
c4
15
d4
d4
e2
de
f8
1f
26
df
05
1a
08
1e
f9
03
09
17
11
26
e2
0f
d2
fb
1c
2c
ef
10
44
03
dd
0e
54
d2
f2
0f
20
03
3d
13
6c
f6
06
fe
e0
a3
f3
0a
24
0a
22
d3
ee
15
37
1d
00
e0
fb
dc
f2
01
15
04
32
12
02
15
e9
ff
e5
0a
16
23
1a
10
06
04
0a
c4
00
fc
f5
e8
23
2e
fd
03
03
e9
01
0d
41
f7
ed
00
1b
f9
21
0a
1d
f3
0e
e4
ec
00
f2
fb
27
f8
14
d2
f2
fb
06
fe
e2
15
04
f7
f5
32
f5
ee
0a
fa
08
fa
e8
03
f1
ef
0c
0f
0b
17
16
13
cf
07
fb
95
0a
b8
03
07
de
c2
f4
05
f4
23
32
e2
14
e9
b1
b3
04
ae
4c
ad
bf
df
28
06
f9
1e
e0
d8
23
05
ee
10
eb
2b
00
cb
14
0d
14
d6
9b
fe
19
fa
d8
20
f3
16
0b
e7
03
c1
2b
fc
fe
f5
0a
e8
33
e5
d5
db
01
cb
1e
5d
ee
f8
fe
00
ea
22
e8
14
f3
f5
2a
13
1e
fc
a7
eb
23
48
ec
01
e4
31
05
43
07
2b
ec
06
28
d1
81
ec
e0
fe
fb
de
dc
05
16
19
fb
3c
df
fc
10
db
fa
0b
1d
11
0a
07
06
ff
ec
d5
dc
d2
ed
39
0e
29
ee
08
a3
d7
18
01
ed
1d
05
38
f7
2a
3d
1b
3c
c6
ff
10
05
ea
d4
1f
dc
d5
54
e3
ff
cb
c8
07
03
2d
07
15
e8
f5
fd
f5
d9
0b
2d
a1
1e
eb
f1
de
04
19
d5
1e
0f
0c
12
30
0f
d8
19
cc
ff
65
eb
e1
f1
d9
42
ed
f7
fe
05
b9
fe
7a
ee
12
f3
18
0d
e0
1e
16
16
fc
ef
d5
40
f6
1a
fe
e8
e8
04
1e
cc
fb
dd
e6
32
f4
e9
07
0a
f2
1a
07
09
b2
eb
f2
2f
30
05
17
c9
30
eb
10
1d
00
1f
c4
2a
ed
f9
01
16
f4
00
fd
bd
1a
03
12
d6
2f
d2
47
f9
21
9a
c5
36
32
07
e2
04
0d
30
e0
22
24
23
c6
11
ff
fb
35
0e
ff
d5
c6
db
dc
31
c7
04
17
08
f7
52
9d
fa
b1
ff
0d
0b
c0
42
19
0c
ff
05
e4
36
0a
ec
14
12
ab
e3
07
04
0c
22
1e
da
e6
f0
1d
00
0e
2c
07
ee
fc
f0
d9
a5
10
b1
ba
d6
cf
2d
c6
55
13
17
0a
0b
e2
f5
f0
01
01
ea
de
e7
f8
d6
08
11
09
ea
0f
14
00
10
f4
0e
cf
1b
12
27
ef
01
06
0b
06
33
08
00
01
08
e2
0d
9c
f1
13
e5
f5
18
cf
de
55
d2
76
3b
07
38
02
bf
f9
d2
d9
ff
da
e9
1e
f9
fc
0b
e7
c8
0d
e8
14
f7
81
0c
fd
1a
fb
16
da
e2
15
b4
16
27
1d
fd
f8
f1
fc
02
e4
d4
b5
eb
2e
07
1b
08
25
19
df
f9
cb
0a
3c
25
16
fa
ee
05
e3
fe
d8
4f
24
34
11
34
f4
c9
ca
dd
f1
14
dc
18
03
02
07
25
ef
e4
2e
1a
fe
40
0c
2f
0e
e2
28
dc
fc
12
f1
ea
fc
f8
ec
ed
d7
0c
1f
dc
e8
f2
21
fa
0d
e0
f2
09
d9
18
08
f2
25
05
dd
c7
18
0e
21
1f
ed
04
1a
06
fe
13
18
11
ed
06
df
0f
e7
1c
ef
18
30
20
0a
ea
ed
20
f8
0c
04
f0
e4
dd
e3
15
dd
0b
e9
f1
f3
4f
0e
cd
16
31
f6
f9
03
24
1d
39
e0
dc
cf
20
bc
03
18
ea
d3
0e
fd
02
29
33
fc
03
fe
e0
09
2d
f7
14
29
06
20
e0
09
f8
15
10
f1
ef
e0
ed
21
eb
0f
f1
1d
f7
16
d0
ff
13
db
e9
fe
0b
ee
f6
18
e0
1f
49
f8
01
f0
16
f6
03
0c
e5
0c
2b
f7
23
3b
48
d7
e3
dc
02
d4
04
81
05
b7
15
ed
f3
f4
e7
d2
00
f8
1e
e6
f8
f2
f2
2a
e7
02
05
c5
00
49
d7
0a
f1
fc
10
23
af
20
35
0e
19
19
fd
dc
f1
f9
c1
27
1e
12
1a
e4
ec
38
e9
ec
f9
22
3a
ba
d6
c3
17
c7
da
c9
da
d8
ef
e1
f1
d4
f6
ee
00
44
24
f0
d4
d9
c8
e3
ba
e4
f4
e3
f7
d1
3d
15
12
2e
09
0e
ad
d7
2c
d8
ea
05
29
fa
fe
02
2b
28
06
02
ee
1f
06
0b
14
f2
29
4e
1a
d9
ef
08
fa
f8
f0
c9
ad
e3
15
42
d6
c6
33
df
c7
e1
d1
dc
f0
f9
09
02
f0
15
ed
e2
e1
d2
d9
32
17
e9
27
12
2b
0f
f2
0a
03
f4
22
01
ea
30
2b
1c
e4
05
b5
f1
fc
35
e7
0f
04
c2
3a
e5
fb
d6
2f
cf
b0
e8
46
e4
f1
d3
f0
2d
2b
01
81
14
1a
ee
4c
09
fa
e2
fd
15
0d
c4
3f
04
1d
f2
34
20
e2
e2
26
e3
f2
cf
bf
cf
e4
de
0c
c9
ca
0b
1e
f3
1d
e5
fd
1e
1b
e4
ec
0a
de
ff
0e
da
f9
ec
14
32
17
fb
0d
41
9c
01
08
fa
fa
0a
2d
f1
e6
e7
21
f8
21
0d
60
d2
02
e8
c3
e5
09
29
34
23
f2
d6
f4
f9
0d
b7
c3
29
19
e4
2b
c9
10
e2
0c
03
dd
ce
fa
05
ce
00
26
c7
f6
d0
d8
fb
fb
3b
df
ff
d9
2b
c2
ff
d8
36
d3
2b
f7
14
f7
c1
ff
cf
d3
d7
12
f0
e8
09
16
35
e5
1c
2c
fc
10
2e
fb
0c
26
18
12
f6
19
e1
e2
10
ea
d1
04
17
2a
d8
16
1a
ed
dc
18
ff
d7
e1
d7
28
1d
06
17
2c
04
0d
f1
fd
df
c7
3f
13
d4
18
02
31
13
33
0e
a3
e8
c5
f0
fe
af
23
0f
a0
ff
e2
06
ec
07
ec
22
c0
e7
b7
07
e3
5a
ce
1a
f6
e0
e9
29
d9
15
ab
bd
01
de
25
28
fb
0b
e9
dd
e7
12
1f
e0
ff
24
18
00
ba
ed
04
1e
2e
68
d1
9f
23
b7
dc
2c
94
e1
e8
2c
fe
03
17
00
50
12
1e
ce
d5
fd
0f
bd
c8
d9
11
2c
f6
1e
23
ff
1b
dd
46
1f
2e
10
fe
20
fa
d4
16
f8
16
ca
11
11
c7
d6
54
d2
89
ba
27
f8
f3
e6
c3
00
01
0e
f2
a1
e6
23
f5
dd
f1
b7
ff
23
f5
fd
c2
fb
2d
b8
02
15
fa
c1
30
02
02
06
f2
d2
e3
c2
20
e2
e1
41
29
0b
cd
34
4a
fa
23
9c
e8
a5
b2
e7
45
9d
13
2f
1b
e7
25
11
e0
b1
22
e5
d5
d2
c9
24
d6
2b
3e
ce
fb
f6
dd
9d
9a
f3
1a
2b
21
08
d7
38
1d
eb
c8
a8
05
f9
f1
12
f1
e2
c2
e8
01
2d
f3
e3
f4
ae
22
38
ec
fc
2b
c5
49
3d
29
be
ee
25
97
e8
27
b2
12
e6
e9
67
ed
dc
ee
22
39
24
f5
cd
db
0c
a7
d8
d0
16
0c
c8
fe
f4
27
e2
f6
d8
1e
d1
ec
34
ff
2c
28
3a
20
04
81
bc
e6
e1
19
17
3c
03
08
e2
bc
cb
fa
09
e7
0f
f1
60
f8
04
d6
e2
06
02
ff
28
ea
90
b5
f9
dd
5a
c5
fc
fa
0b
bb
d7
db
2b
cc
13
e9
e4
04
fc
f1
cb
c7
04
ce
27
48
12
00
11
c1
1c
6a
45
d1
d6
fd
01
ea
39
ea
ec
c5
d3
05
10
f7
b7
e4
ce
f1
de
18
ff
40
2b
fa
df
0d
ca
08
cb
81
27
f0
e0
f8
f2
00
30
fd
1a
2a
10
23
e5
a1
09
39
f4
c5
f3
0a
fc
f5
25
fc
d7
e1
1e
5a
28
07
e4
26
d9
33
13
0f
e3
22
0c
00
14
fd
e2
27
d8
28
16
19
44
32
37
ed
f9
40
fa
eb
ec
91
26
06
34
25
16
eb
ed
56
21
07
f8
26
da
23
e7
01
f1
fc
0e
eb
0b
32
08
2b
35
19
c7
08
f7
ce
fd
ec
2e
16
44
f0
fb
08
0a
1a
b8
d0
08
b7
fa
38
dd
d9
08
fc
e2
ce
31
0f
12
fd
25
2e
b9
f9
12
36
b4
16
0d
06
17
0f
19
f8
28
31
f1
4f
01
da
44
25
f7
f1
39
21
37
1f
1a
4d
f3
26
cf
11
fe
11
d9
e2
fd
42
1f
e0
e5
f1
18
f7
19
04
eb
f8
04
c8
fb
9f
f4
ed
06
d5
f7
f4
1f
ec
f4
07
d3
25
22
fc
0f
67
e9
cf
33
10
d7
fc
fc
f7
dd
24
03
d5
1e
1f
46
ea
33
e1
bd
38
48
1e
14
e7
36
f1
16
2d
fd
ff
27
3a
27
41
e3
fe
c9
52
3e
ef
4e
c3
23
d4
04
18
fd
b9
fa
cc
ca
ca
f5
b6
f8
ff
f4
e7
c7
10
05
ff
f4
0f
ef
0e
9c
f7
de
d4
e7
45
34
37
eb
25
e6
09
a9
10
e1
02
36
db
e8
2a
e3
11
29
1d
0f
91
1d
0a
0c
2f
f8
27
0c
05
14
d0
3b
f1
bb
de
f4
55
ec
f0
fa
41
11
f6
28
14
ed
01
06
bc
fe
d6
2a
d9
23
2b
0a
ff
18
f1
35
19
2e
ff
d0
eb
fa
48
06
0b
f6
d2
6f
ff
b9
02
f8
f2
4d
20
be
01
eb
1e
2b
66
f3
f9
9f
03
fd
29
8b
f2
20
02
e9
38
0e
18
1e
f6
1b
af
0b
15
00
18
63
fb
a4
36
d6
7f
af
eb
b8
78
35
00
f0
6c
26
c3
06
0e
8c
82
05
52
1c
d7
f6
cc
31
4e
12
e9
af
2c
f9
c4
00
24
d2
1d
14
00
d1
0c
0f
f8
fd
b8
0c
c2
b6
8c
0b
33
b5
00
cd
b5
f0
f7
3d
bc
17
38
d3
1b
18
f7
01
f7
c5
20
c9
0f
06
03
d2
10
0e
39
f0
34
dc
cc
fd
e7
10
ea
16
e0
30
0d
10
27
f6
19
23
53
de
dd
20
f9
12
e9
e8
e8
ee
27
04
12
06
e6
d4
12
f8
1a
f3
0a
21
e1
15
11
36
34
e8
e3
06
cd
14
f0
fc
e9
07
37
41
17
f5
22
e1
cc
39
ef
fc
25
a9
2a
42
f3
02
cf
38
81
50
f7
08
32
c4
d1
0f
a4
1b
f9
e7
28
17
21
e2
17
ed
f2
d7
01
1c
ec
0d
12
a5
43
f1
07
f3
0a
07
d6
58
e7
de
cf
2f
00
f2
07
da
ee
d3
f3
f8
e8
0c
ea
9f
fa
0a
dc
d0
e8
0c
44
03
e2
d3
0e
cb
73
f0
fe
02
c3
e1
15
d6
fd
16
f7
07
f6
4c
ca
30
2c
f6
cf
f1
d9
0a
cf
38
f3
49
2c
c9
ad
d2
17
f6
a1
1f
d0
2b
26
22
1f
24
f1
0c
f3
1d
09
ef
a9
f2
cd
0f
25
0c
ce
dd
0c
a8
e6
08
ec
71
fe
06
0b
30
1b
1b
6d
fa
06
26
12
f9
08
ce
f4
d8
da
fc
0b
f1
d6
1f
dd
08
18
34
33
f8
0f
cf
fe
15
de
e9
ff
01
31
0e
00
ef
41
fe
b3
04
04
03
33
f1
f7
13
fb
d2
1e
07
fe
0c
1a
0b
e0
cb
bc
0b
6f
0f
ba
e9
3e
ee
c0
e6
0a
1f
e7
ec
0e
a2
27
db
ea
ed
ce
7f
00
dc
18
0e
ef
06
1e
ec
eb
fc
12
f2
fb
21
37
0e
07
61
ce
03
10
d4
e4
fd
f7
f7
4c
ee
f7
b2
13
f6
20
ba
ee
ba
ef
e0
bc
19
47
1e
f7
ff
e5
bc
d4
fd
42
f8
4b
23
4c
ac
cd
00
f3
f1
ea
d9
10
dd
11
0b
eb
4c
e7
18
2c
fd
1d
00
2c
f1
ed
f5
f0
fa
46
31
1e
e7
1d
e0
f7
da
f0
2b
f1
eb
02
f8
c5
11
ed
06
d5
11
f9
f0
1b
3a
99
25
0f
23
0d
12
3c
e0
a1
24
d9
25
fc
26
e3
02
fc
fa
22
24
45
0e
22
37
0f
be
d9
a9
bd
21
2b
16
f7
01
ea
ed
f3
ef
72
ea
00
2f
d4
0d
30
fe
0d
f1
f8
04
26
53
f2
00
fe
b9
f3
09
b7
ca
e5
dc
e0
31
ea
eb
0c
15
fd
17
22
2c
2b
e9
f8
ec
22
ed
a5
49
f8
08
02
03
01
d5
00
0b
19
43
e4
ff
27
14
c8
1b
e5
32
f5
e0
07
ee
06
f2
fb
34
eb
0d
e0
fc
07
ff
22
23
db
c0
ca
ea
2a
cf
24
19
ff
f6
a8
1a
0b
28
da
01
47
bf
32
12
25
e9
e5
20
16
29
cf
f9
1f
0a
b5
e0
08
d5
e4
e0
13
ef
e6
ec
f7
fb
ed
1a
3d
dc
32
bd
0d
b2
f9
14
0e
0e
ff
11
04
f2
fa
0a
08
fe
f2
fe
1e
1d
eb
f4
94
16
c9
d2
0a
00
e8
13
f3
4f
e8
12
f2
f5
c8
f8
c2
f4
3c
0d
3a
18
be
1e
2e
37
c8
2d
ec
02
fe
3c
0e
ec
d1
ed
3c
0f
11
13
0d
d6
e5
b9
1a
9b
f9
26
ed
77
24
02
c9
00
03
fb
ed
38
1a
16
ed
f5
eb
f7
fe
d7
bc
37
11
c4
ef
ab
26
1c
fb
1a
21
05
26
fb
ad
ff
1d
fe
12
01
a1
1e
23
14
d4
de
11
33
aa
e5
03
12
53
df
ec
e6
04
f5
f2
0b
d7
d9
df
01
08
08
e0
ea
de
4b
e6
08
fd
e5
e2
db
33
81
17
d9
35
09
e0
f8
0a
f0
04
3c
fd
09
f3
f9
fe
02
dd
02
1e
ff
29
9f
1f
04
dc
fa
dc
da
0c
27
d7
c0
17
f2
3f
2e
06
20
1f
3c
fc
12
04
15
e8
0f
ff
d1
b5
01
fc
e1
01
fb
22
e3
0c
fd
e1
e3
fa
ce
03
1a
f6
e3
15
07
16
f9
2c
07
0a
8f
a6
94
9f
cd
d8
af
dc
19
c9
ed
ea
3c
8c
20
1a
bc
95
dd
a8
e1
d6
27
aa
53
90
24
9d
af
f4
47
14
2a
f5
e6
df
0e
8d
f0
f1
ff
f5
a8
1a
f2
f1
10
e8
ef
11
96
8a
e4
ae
22
d5
2b
82
38
b8
a4
c6
d3
ff
29
e9
86
2e
eb
8f
a9
a8
ab
35
06
a6
c9
98
27
a3
f4
81
bf
da
cb
b1
3b
11
09
9d
ad
23
c2
e9
08
47
39
b7
d5
9f
1c
ed
97
18
18
cb
b1
ff
f2
e3
1d
27
1f
18
2c
cf
c0
05
fc
e6
d5
cf
59
ec
d4
f0
dc
fb
06
1f
eb
36
dc
d0
c9
4e
17
23
c4
35
e5
36
32
d8
2d
36
cb
cd
b0
d3
87
c0
ee
22
db
0e
2c
ed
4a
ee
a7
8d
96
1a
05
fc
26
ad
16
56
a0
fc
ed
ad
a3
bb
aa
1f
b9
96
cb
0f
9c
31
0c
23
c8
32
9c
c6
93
0f
e9
ec
ac
e3
09
a4
1d
a0
bb
25
31
c2
46
bf
12
25
e3
b0
e0
48
d1
0c
f6
14
2d
18
cd
40
bb
db
3a
b9
18
2c
f5
18
29
89
f9
e9
29
3c
de
29
a7
c5
cd
f9
a4
d0
c7
28
0c
e0
b6
e3
0d
19
fd
2c
b3
3c
0a
1b
da
c0
2b
98
ec
d3
9e
c3
cf
bc
1f
b1
39
27
f3
14
a9
fb
00
eb
3e
d6
f1
2d
ce
a5
1f
c7
c4
f5
05
9e
07
05
cc
c4
28
1f
01
e3
9e
50
2b
cb
d1
10
0c
b6
2a
01
b9
cc
1b
c2
f2
aa
e3
c0
cc
fa
01
f3
06
11
11
c8
21
42
f9
ff
9e
dd
dc
c3
d6
0e
d8
fa
16
bd
2e
fb
dd
00
ec
fd
b1
bf
c4
1a
e9
00
c4
99
e2
ee
b3
cd
fb
ea
c4
e8
1a
a2
aa
fb
e6
e0
c8
d3
bc
bb
f1
1d
bb
ac
49
cf
2a
c0
fb
01
19
c3
e2
bd
b0
09
d7
be
a3
b2
e4
bd
af
55
81
e1
e2
59
cc
59
00
e2
04
bf
0f
05
32
50
9c
0f
f6
ea
f5
d4
c6
08
f5
d7
1a
21
37
3a
ae
d1
d6
bf
22
ab
fa
2a
0d
ed
38
9f
f7
f6
e7
a6
ff
da
e5
d1
36
1f
c0
be
f8
f5
ce
ee
da
b7
cc
d7
5c
1f
30
ea
81
a1
40
c1
b6
e4
ca
ca
97
d2
0f
bd
bc
d1
ed
d9
dc
97
4d
00
33
0e
c2
b9
c6
ea
e4
96
2a
cd
33
c9
d7
ed
e1
02
3c
ff
00
20
eb
b7
04
e8
40
f7
ad
dd
c4
1e
c5
45
dd
c3
95
da
34
00
f3
11
fd
07
0d
e9
f2
02
02
26
ec
e4
4b
0e
2b
0a
49
1b
e8
e1
12
fd
e0
b5
21
06
00
1c
cc
dc
d9
18
14
02
d4
1b
01
dd
f8
0c
c6
0f
f5
fd
16
fd
09
16
e1
f6
ec
ee
f5
21
f7
eb
01
fd
12
26
f8
47
0b
12
f9
d5
e6
e2
20
40
04
21
ff
20
f9
bc
f9
c9
d6
f0
e7
d1
ff
d0
e0
cd
1f
cd
3a
ba
20
0e
cd
15
e9
38
0a
ca
ed
e4
27
10
f3
f4
01
fb
fb
15
1f
23
03
2d
f7
2c
e7
ee
d3
d5
0d
e7
05
03
0e
e6
1d
20
d8
ba
12
04
18
07
ed
ff
f3
0f
fd
e7
e2
e2
f5
12
c0
dd
d8
db
f7
7f
a2
d0
1d
df
f0
eb
f0
fc
1b
fc
03
d9
e2
24
0e
e9
2a
1c
e1
f3
fc
e2
e3
f0
fb
42
a4
dc
18
d6
c4
14
ef
05
e7
04
fe
48
18
e2
d3
b5
0e
0a
15
cb
ee
18
f4
a4
19
0a
ff
e3
23
15
f2
50
ee
12
f0
36
33
fa
2b
20
e6
0f
e7
05
e9
01
d1
0b
4e
ef
cf
05
2a
0b
0b
fc
26
0a
ce
44
ea
d5
c9
b1
29
f3
d0
28
40
07
3b
58
07
0c
08
dc
ee
01
13
01
fe
09
f2
02
00
07
ee
09
03
d1
fd
11
01
05
eb
0e
ef
1b
e4
d0
fd
ee
f2
fd
f5
04
db
da
0f
1f
e7
fc
0d
07
f9
0b
ff
f9
0c
e7
28
00
ff
07
06
0e
f3
0a
f3
ec
37
f0
81
01
24
ef
f8
0e
fa
f0
f7
f6
04
ea
f8
0a
08
f4
f7
f1
f2
10
f9
00
00
fb
11
17
f6
fa
04
05
f4
28
11
10
0b
01
fc
ff
f7
0c
df
13
04
ef
12
f9
0a
cd
f8
da
16
1a
15
fd
f5
e2
01
0f
03
fa
09
cc
f7
eb
f8
27
06
17
f5
10
05
1a
03
17
ed
03
0c
02
f9
f1
fe
16
01
fb
fd
1f
03
2f
06
f1
02
0f
05
0d
0a
d3
0a
1e
1d
1d
eb
f3
fa
e2
00
fc
12
fa
0b
03
1a
f8
d5
0e
f9
fd
ec
06
0e
21
fb
e6
ee
f6
fe
ec
f3
15
09
d3
f3
fa
f9
e7
08
be
0d
01
1d
19
f0
01
00
19
17
f5
13
1e
1f
10
02
fa
eb
04
eb
1a
f1
10
f8
ec
fd
da
0d
0d
07
fa
1e
11
f7
ef
2d
fd
d6
fe
ee
f7
00
f7
fa
03
ee
fb
f6
04
f3
e7
15
14
f7
01
de
0f
ff
f7
04
ef
f3
d7
00
e8
fb
e0
01
e3
f6
e3
0d
13
f4
11
02
be
14
8a
ef
10
12
24
e7
03
fe
c5
eb
f0
f1
2d
ad
08
a3
ed
03
f3
0c
26
04
15
13
eb
ca
e7
de
ed
09
da
0f
f8
1c
e3
fe
df
f9
d2
02
1d
d2
03
13
ed
e1
d8
f6
06
fe
e1
0a
e2
f6
fa
06
b1
0d
0a
19
20
3b
ff
db
3b
0f
1c
ce
17
c3
dc
1e
2f
e8
03
11
da
f1
49
1b
86
b8
af
c9
e5
e0
19
e5
c8
dc
37
f2
f6
0e
c6
0a
f9
d1
0a
fc
eb
f7
10
29
0e
cc
00
aa
4a
f2
a6
e1
17
f0
11
f4
eb
1c
20
ec
25
f3
14
2f
ef
e8
1a
e6
df
f6
cf
66
e6
f5
f4
07
b3
f3
19
ed
d4
f7
bc
08
08
2d
14
e4
fb
f3
07
b7
12
27
05
20
f9
e6
fa
ec
09
eb
d0
22
ee
3b
81
f4
eb
20
06
4b
99
2e
1b
00
e4
f8
05
f1
fc
11
e1
14
3b
f9
cc
f6
f2
c5
16
2b
f0
fe
06
0d
15
f1
13
ec
c3
01
1a
bb
a6
e7
22
10
a3
8a
1f
17
bf
d0
f3
e4
fa
ff
09
30
1d
15
ff
ca
f0
e8
e7
be
f5
0c
72
29
dd
07
19
33
f8
fa
0e
04
e4
ff
88
b1
e5
d5
eb
13
03
28
30
01
38
10
41
06
01
f3
de
18
d4
33
07
f2
fe
a2
f9
c6
e9
22
07
9d
05
18
1a
20
e8
da
fd
eb
e7
eb
07
25
0b
d4
ed
02
16
f8
31
f9
f5
e0
bb
9e
27
1e
0f
f7
85
d6
fd
e2
f9
03
dd
c9
d4
f4
bc
15
bc
f4
f0
c2
e6
16
f7
09
dc
10
fb
9b
26
f7
2a
39
e4
35
14
cc
d4
e4
18
1b
13
37
f6
04
db
2c
f2
11
f3
38
14
06
1b
ea
dd
9b
02
58
0e
09
f7
ee
f4
fb
d9
14
2a
3d
29
13
ea
11
10
f7
ee
f4
ea
eb
17
cd
e6
e8
dd
37
1e
e7
24
b1
b6
09
f4
61
e1
02
08
16
dc
c5
d9
15
2e
0e
17
b3
fc
0e
f1
f7
0f
f7
23
4c
19
d4
fe
ce
ec
f3
2c
37
f1
e7
22
ff
0b
e0
fd
1f
bf
de
ea
f8
03
d4
17
fc
29
ee
2b
16
81
0f
ff
1d
ed
14
eb
4c
1d
21
1c
af
c9
ff
ff
36
20
0a
f9
fe
02
f2
0b
e8
eb
df
11
bf
e7
fb
39
04
fb
34
fb
22
2e
35
04
08
cc
3c
50
1a
fd
de
10
00
e4
ed
0a
08
e3
00
cc
f6
23
55
ec
0f
f1
0d
78
2a
24
e7
9f
ad
2e
d6
2f
06
2b
3e
be
9d
e8
30
c1
f4
2f
2d
8d
e8
06
41
91
f1
b1
e0
98
1b
1c
27
2e
a8
fc
e4
19
c1
bb
ea
09
ce
ed
a3
e6
c6
07
bf
9c
d5
ef
f8
fe
96
b1
47
a0
54
f4
c4
9d
fb
a6
bf
36
dc
ce
f7
d2
e0
22
fd
01
b7
50
ee
e2
ca
9f
2e
12
ab
d4
bb
d0
ad
c3
06
fe
06
b0
f6
c3
2f
92
03
c7
16
ed
bb
43
ee
bc
e6
d5
1c
b8
f7
b5
ee
be
0e
d9
de
84
09
2d
26
20
2a
a3
46
d1
02
9a
af
df
b6
33
b5
9f
de
8c
c2
ef
1a
ce
eb
ad
9d
31
0a
13
50
54
b6
e8
d6
f7
b5
35
c0
bb
37
09
a2
bc
cb
eb
0e
07
d0
4c
b7
27
20
b4
e7
cf
99
33
c8
0c
1f
12
0f
00
99
0e
e6
3e
45
fe
c2
b9
a8
2d
cf
32
ad
e5
06
d0
ca
b9
9c
a6
26
38
b0
bf
10
b9
81
5d
e3
df
20
b8
14
27
3c
ab
b6
a7
93
41
ae
0c
1d
e8
a9
22
2d
8d
ed
e0
ac
28
fd
c1
d6
ae
3a
ab
2d
d5
fe
cf
12
2d
f8
10
35
f9
a9
85
df
dd
0f
19
9c
af
b0
de
ee
b2
f3
17
34
4e
fe
13
37
fd
52
ac
1a
f0
32
3a
f2
47
35
01
ea
06
1a
1f
39
05
18
db
f0
ac
18
ff
45
e8
cb
1c
0b
f1
1b
e4
4e
cd
ae
04
0d
f0
29
0b
2b
ef
e8
03
0a
ff
f6
27
0f
c9
d5
13
12
10
de
11
f9
b5
08
d8
10
0c
fa
dd
27
fc
3b
e2
1b
06
f4
4e
ef
0d
04
04
34
e7
02
f2
e7
e9
d2
f5
0f
a4
13
bc
15
0e
fc
c3
17
2d
27
05
02
05
08
28
2e
1b
bb
0f
d1
14
f8
cd
0d
1b
e9
d7
d5
00
31
ea
da
41
f8
f6
fe
5a
fc
07
e9
12
ff
dd
13
f5
03
f1
20
e9
2e
00
f4
12
3d
f5
1c
1b
f3
02
23
28
28
1b
0d
1b
42
e1
f6
e9
0c
10
f5
b4
f4
06
f9
07
14
0a
49
0b
06
03
18
c7
0c
ff
22
16
27
0d
fd
cf
bd
e3
06
da
ff
14
09
dc
a6
a7
e0
c3
20
f5
ea
19
18
ed
f1
e6
28
e1
f7
4c
e1
f2
e7
f3
d5
03
e9
0e
ee
ff
1a
d4
f1
3f
2c
e5
e1
11
ee
fe
05
0b
fd
16
05
13
0f
f3
b6
f0
eb
2a
23
48
1c
b7
d5
31
2e
05
05
f7
18
f9
12
0e
fa
9a
81
06
21
15
1f
e8
32
f9
c3
84
a7
01
1f
f9
f7
fd
8e
14
fe
ef
29
f1
0c
00
ce
e3
f8
ad
b1
e1
e1
e8
20
09
1d
ff
0b
00
f8
00
06
d0
e0
0f
39
03
16
0c
10
09
1f
e5
dd
fb
fa
c5
d4
c8
11
a0
e2
f9
0e
ec
04
1e
25
d0
d7
ca
eb
cf
fc
bd
c8
01
e0
2b
ee
03
26
1a
f1
e6
e6
20
e5
1b
39
0a
06
ef
32
25
f4
e2
fc
e9
29
c9
21
f9
e9
d6
ca
ef
f5
d5
0a
f3
fc
fa
23
f6
c1
dc
d9
1d
ed
df
f7
1b
ff
1f
fd
e6
06
e6
16
1e
f6
e5
ef
fe
23
e0
33
f2
ec
c4
00
f9
ef
87
ef
e1
0d
0e
05
22
ff
25
19
b6
f1
fd
fe
fc
19
26
27
17
3e
18
ea
20
03
d7
f7
16
20
21
ce
ef
15
de
f5
dc
4c
c7
5f
12
2d
e2
00
04
15
19
f3
0b
0a
c2
36
d6
29
cd
e0
20
f7
f6
ed
e2
c3
12
2c
e4
f6
c5
cc
03
f3
0f
e4
fe
f9
df
97
fc
d4
b3
ff
09
e7
d7
d2
e9
e9
f9
fe
1b
12
24
e1
2a
f9
f4
e4
13
02
1a
12
f8
12
c9
cd
ea
46
02
cd
f2
ea
44
fb
81
f2
4c
e4
1e
1c
b0
dd
fe
fe
33
f3
a9
2c
05
34
1d
05
c0
4d
29
96
dd
cc
ec
ea
ec
43
4b
1b
b4
30
ce
4e
e0
d8
fa
dc
fd
00
d5
3c
bb
c2
01
dc
06
19
f2
f4
b8
de
e0
ef
bf
dd
15
f5
eb
fe
a1
ff
cb
47
f8
14
14
1e
2d
bb
e2
d0
ba
25
3b
1d
0f
02
39
3a
fb
ed
d2
1e
42
ed
df
f1
0b
16
e1
19
f4
c7
1a
b6
d3
44
e4
ee
cf
10
0c
07
03
f9
1a
34
ba
f9
fe
11
f9
42
19
ce
2d
0c
3b
23
5a
be
e2
ea
20
ba
d9
0c
ed
15
3a
59
c4
ec
d8
fe
08
44
c3
56
28
fe
bd
24
db
f8
ef
0d
f0
f7
1a
0c
10
3b
e1
d9
0e
0a
d2
2f
20
9f
cd
da
fa
2e
19
b6
1c
b7
28
28
22
f5
2e
3d
17
16
d7
3b
fd
fd
de
fb
42
1c
13
34
0e
07
c7
0c
e2
07
0a
e0
0d
01
e4
53
dc
c8
2a
b1
17
dd
0f
dc
ae
dd
0d
0f
6e
da
42
fa
21
d6
c3
e6
06
0e
b7
34
cc
52
d8
22
ed
81
fb
25
c7
fa
29
40
1f
b9
f3
b8
04
f4
74
79
0d
cd
e3
0a
02
3a
f6
f3
f7
f0
f9
07
40
eb
31
d6
13
1d
9a
a9
c0
b6
fc
d3
00
a9
17
aa
36
25
bd
11
06
d3
fd
a3
09
ec
05
d7
f5
fc
b4
b6
11
f3
e3
fc
13
4d
ea
2c
0a
dc
2b
c5
f9
ec
18
24
22
ae
3d
da
0d
03
b2
cb
c2
30
38
f0
9f
e3
c8
2d
ff
2f
ba
95
97
9b
04
d6
bc
b3
98
2c
81
9e
b6
d9
34
42
00
cc
f7
f8
bf
c5
c0
e2
2b
e4
30
c3
b0
fe
b2
d0
29
33
de
b4
ff
07
d6
13
9f
f9
0c
b5
0a
93
b4
fa
b7
f4
0d
e0
91
23
db
26
e4
09
09
a4
ba
f1
d0
1b
02
46
fd
1e
de
bc
39
f8
de
12
f5
bc
3e
fa
0d
cd
d9
f4
39
fa
ef
03
41
2a
27
f8
0e
92
0c
05
09
4c
9e
c3
23
3c
cd
dc
17
ee
ab
9c
f9
b3
b4
f2
00
ac
20
f1
32
9b
c8
cd
e7
3c
14
f2
db
34
0c
98
a7
c1
29
1d
88
c8
ed
e4
2b
fd
d8
09
03
bf
d0
b3
93
4e
d7
50
2b
37
a4
d6
3e
92
01
ef
fc
1a
f7
b8
b4
4d
b0
dc
e2
ef
ab
ab
07
e8
33
24
d3
8d
bc
ea
50
a2
dc
ef
a6
c2
e3
e1
dc
34
0d
bc
ce
09
bd
f8
0e
b4
07
bb
29
1c
3d
e1
1f
17
0c
05
c7
fb
f1
28
2e
fc
e7
ec
81
cb
ee
ea
eb
ef
0c
ea
1c
30
d5
3c
03
28
d4
c7
ba
bc
ed
07
1a
12
ea
1f
de
27
e7
e7
fb
a1
01
a7
f8
f8
17
08
06
10
0c
31
dc
0b
de
ce
06
0e
9f
f8
ff
10
fe
1f
0f
e4
43
d9
f8
43
fe
f2
09
07
2e
2b
22
1b
f3
cd
0c
21
17
29
11
0d
eb
fa
0f
20
2f
1f
ec
df
23
fc
14
09
eb
1a
24
40
cb
e2
f9
dd
04
2f
c1
ff
01
d1
e6
c8
34
89
e7
c9
f7
1a
d9
06
fd
c5
ff
1c
fc
0b
be
04
fc
0c
d1
c7
ce
e8
09
fa
15
e6
f1
a6
cd
e5
e8
d4
cb
3f
f3
de
f6
c0
00
1a
17
09
db
f8
1a
b3
f2
eb
f5
e8
fa
f9
f3
06
f3
f2
4d
0f
d6
00
f7
fe
2a
c9
ea
df
13
3e
ec
f6
06
f4
60
ff
0a
39
de
2e
16
d8
d5
a6
1c
cc
05
f8
26
02
23
fb
38
1a
05
f4
1e
10
c1
aa
2f
12
11
a5
1c
dd
0c
e2
de
18
0a
ce
ed
03
19
16
fb
df
fb
20
08
d8
e5
54
dd
2d
37
d1
01
2a
0b
2e
fa
eb
f1
2f
b3
0f
0d
c5
23
fd
6f
d6
81
d7
fa
2d
f8
da
34
e2
08
1c
76
8b
03
0d
2e
f6
3d
0a
0e
0c
d3
cd
b3
5d
31
3e
be
fa
21
dd
23
37
17
e6
de
0f
c1
15
2b
f0
00
3b
db
14
85
42
ec
be
d7
d7
04
da
0e
f9
d2
2e
24
00
c1
ce
13
12
2b
07
d5
d4
d1
28
a5
24
34
f5
fe
ff
04
46
ba
03
c4
d7
06
ea
28
c0
00
39
2b
e1
ef
13
10
fd
ef
04
ba
62
13
27
fc
16
fb
25
f4
d4
f6
d5
10
0f
0d
bb
d2
28
2f
3a
1c
ca
2a
23
b9
16
0e
11
f6
c9
21
21
06
c9
ca
be
26
2e
13
fb
f6
40
fb
0c
63
f2
5b
1c
e4
2f
0b
f8
df
ee
68
12
42
d6
df
ea
c5
fd
0a
7d
1a
26
3a
fd
22
11
0c
25
13
e8
f1
01
33
41
13
01
e1
fe
27
e7
2c
c9
02
92
b6
d8
11
f1
1e
e9
dd
12
09
eb
10
f1
02
cf
29
18
29
19
0d
f6
23
c4
d0
08
0f
0d
26
d0
7c
2b
05
4f
12
17
38
0d
33
cd
34
f9
c0
05
06
b1
02
3a
15
b3
e0
2b
0a
08
12
84
0f
13
e3
fe
e9
e6
0f
1f
ff
dd
eb
f3
d9
f4
02
27
ef
f2
f6
00
e3
e3
d8
2e
20
17
34
ef
15
f8
d0
d7
e1
0f
1c
24
f5
11
35
10
d1
02
0f
cf
2a
f4
34
12
ff
07
d4
11
f5
b8
19
13
28
d2
dd
22
08
f8
f7
04
e8
16
da
0a
01
00
f2
45
01
da
0d
05
f5
01
12
b4
11
0d
29
1a
09
2a
01
e4
f0
1f
f8
fd
01
06
ac
81
e9
e5
18
28
1b
13
24
f2
f8
0a
f0
02
ec
f0
fa
09
ff
e8
d9
23
19
19
f3
fc
09
1b
06
da
f3
fe
fc
62
27
0d
e6
16
f9
08
0d
16
12
17
e6
00
fb
f7
d4
20
cf
2c
e5
02
fd
f6
24
1c
07
d5
29
12
13
08
f5
16
0b
f6
cc
0b
bf
10
07
02
22
fa
db
14
00
db
f9
e7
24
f7
0e
0e
e8
07
01
12
e0
e5
fc
ef
00
d1
06
ef
30
18
e5
19
29
f9
16
d9
17
dd
f2
ee
20
0d
ff
0e
f3
0b
15
36
1c
10
f6
09
f6
1a
20
21
08
f3
d9
d2
d5
d1
1b
0e
fd
cb
ce
fa
f4
dc
1d
fd
ea
dd
0a
18
1f
f4
0d
00
fe
0e
0e
d6
0e
0e
f1
2f
f8
25
f8
fc
0b
fa
f9
0f
0b
00
f3
f2
25
28
2c
15
f6
fa
09
11
04
f9
15
ff
eb
d8
20
c3
dd
f8
11
eb
20
11
f1
08
22
21
0f
fd
0a
21
23
34
ef
24
f3
11
01
be
eb
19
00
dd
0d
2f
08
22
df
ce
12
f4
0c
59
08
02
16
00
e5
fd
1c
11
ea
20
10
51
2c
fa
fd
f5
bb
fd
c7
02
fe
0b
15
1a
f8
e4
fe
3c
08
ce
ed
16
1f
0e
11
da
c3
f9
f6
07
08
f2
81
02
f1
fc
ec
e5
14
20
08
fe
0b
a2
20
20
f3
3b
0f
0e
fe
1b
08
0b
06
3d
1b
fe
ff
eb
f0
0e
03
f0
50
31
15
0c
f1
f0
21
f8
f3
b5
12
fa
33
46
e1
fd
f9
f8
06
0c
15
dd
cb
f3
e6
c1
ea
20
f9
e7
1d
fe
0c
ec
df
fc
e9
f6
1b
f4
07
cf
08
2e
f5
fa
13
13
e1
0b
f4
19
f5
0d
05
04
4f
0e
00
e3
2b
f2
22
27
0e
ff
12
f7
0d
12
32
0d
93
15
2c
fe
d3
f7
ef
07
f9
2e
14
ff
bd
ef
1b
fa
30
3c
17
2a
df
13
1e
e1
08
cc
1e
0d
02
d2
df
48
d6
fa
ff
f4
2f
07
ea
34
fb
e4
06
08
f7
f6
0f
2a
c5
e2
0e
e8
ee
ee
14
fa
0a
c2
18
fd
c5
be
31
f6
fb
1e
e8
08
29
cf
d4
f9
ed
f8
07
f9
de
4b
1c
09
0a
f0
e0
f8
2c
18
00
2f
12
19
1d
1a
09
19
05
c5
d2
e7
b7
3e
22
e4
42
1a
ff
a8
12
b0
f6
0a
07
1f
f4
10
e4
f7
f2
30
b8
fe
11
de
fe
1e
14
33
01
0c
fd
e5
23
19
10
e5
0e
fa
2a
28
e8
de
fb
0f
0b
f3
17
b9
9a
2e
19
df
81
e9
df
c8
f4
2c
f9
fa
02
ba
e9
0a
f4
d4
fa
0a
17
0b
25
13
fa
fb
e8
a7
10
1c
09
05
24
e4
0d
1a
40
d7
2b
f5
02
da
a0
37
00
11
0a
28
f0
f3
f7
34
03
d5
09
eb
cf
27
da
0c
fd
16
f2
ad
1a
fd
19
f3
fc
36
0e
25
e2
05
13
01
02
00
27
f4
17
8d
e8
e6
e1
39
fd
f4
0d
13
fa
30
0c
ee
55
45
f7
3b
0f
d2
fa
35
2e
13
1e
bc
fc
f5
f1
f2
e3
bc
f6
16
0d
2b
de
b9
13
42
d0
e0
bb
06
21
0e
01
f9
c2
f9
02
11
2a
f4
da
ff
cc
c7
f7
f4
2d
e6
2c
2c
15
37
ec
0a
e1
0e
e7
f1
fb
ff
ec
94
ef
f0
ef
f4
f4
ff
cd
13
ec
ed
17
50
00
1c
24
12
f2
f0
5e
c3
2a
b4
db
1f
c9
00
ff
25
fa
05
00
ec
f9
04
29
df
12
21
05
f8
1c
1f
00
df
18
0a
fc
15
09
e5
14
21
19
da
13
27
15
f1
01
1c
d9
07
fc
ed
06
1a
13
d6
06
1b
fc
c9
29
2e
f6
2c
bc
f9
33
df
03
06
d1
13
c8
ef
1b
e2
c7
08
e9
f6
2e
df
b4
02
1b
0c
d0
27
09
fa
f4
ec
0f
1e
e4
c9
02
21
fd
22
02
b1
06
0c
07
39
f8
f1
eb
ef
03
16
e7
fa
d2
e9
0d
fa
e3
55
06
0d
e0
05
f1
2b
16
2e
07
f8
da
fc
fb
f1
1a
1f
f6
2e
18
12
06
22
00
09
e1
ef
17
21
f3
0a
12
1e
ea
0e
e7
08
f2
eb
14
fc
10
f7
3e
e6
db
59
0f
f5
0e
2b
17
11
f1
f1
02
d9
e8
d3
09
10
04
38
e1
03
05
c5
0c
04
f2
ff
ff
c6
e5
0a
30
fb
ee
0c
ee
14
14
f0
ce
14
2e
db
02
16
25
e6
37
13
fb
02
0a
25
f9
2f
13
0a
ec
f0
1e
0d
e7
d1
f9
d6
f4
1c
fa
0c
3f
05
e6
d7
0f
f4
d8
05
07
0a
23
06
00
11
17
d2
47
f9
4d
f5
1a
05
f5
e8
f2
06
bd
f5
1d
f5
7f
28
0b
e6
01
02
26
32
1b
e6
3e
10
fd
19
ed
03
ec
41
02
e9
c6
ee
ea
f7
b6
dd
2c
10
0e
0a
dc
39
43
e3
33
26
20
ae
fc
28
10
3c
08
17
01
c0
00
d6
1f
f8
30
c8
de
d3
1b
d4
e9
cc
ff
fc
f8
f8
27
fc
21
20
f1
1c
e6
f6
2d
f1
1d
1a
2e
14
09
ec
b4
f7
26
7d
19
17
12
14
27
23
15
b4
fd
f2
31
2c
f1
18
03
13
ed
4f
f3
b6
2d
da
03
de
13
fa
d3
14
08
0f
16
ca
00
20
e2
db
0e
fe
04
47
d6
2b
bb
fc
fa
00
19
f6
24
d6
c0
e3
46
23
11
ff
d9
c0
de
1c
d8
01
df
0b
bb
b9
21
f2
f5
ec
00
f2
81
ed
25
23
ee
56
f1
0c
ee
c5
1a
e5
11
f5
f6
fd
12
eb
26
19
f0
20
08
fd
e8
d6
18
ea
02
09
e5
34
1a
1f
2c
0f
d8
fe
74
1b
da
ec
18
0d
e8
e9
1a
ee
04
d2
ec
dc
df
ff
07
28
e9
15
12
fb
fd
02
54
09
14
02
17
0d
39
a5
dc
ef
e0
aa
f6
1e
17
3f
10
01
f2
12
13
dc
f3
f8
f9
1d
ef
14
12
e3
0f
4a
ec
30
01
0d
e5
0a
2d
fc
f9
05
21
0f
20
fc
e4
32
1d
09
e2
29
cf
09
df
0a
fa
f6
28
03
e9
15
0b
f7
b9
e2
1d
21
05
07
d1
e0
c5
de
f1
10
0a
e8
35
f2
e1
eb
fe
15
22
0e
f1
ec
fc
2c
f3
10
dc
29
c9
9f
1a
95
12
05
fd
f8
39
0e
2b
ff
12
41
da
11
0f
19
0e
e8
2e
41
14
d5
36
fd
66
f8
e1
25
02
db
c9
00
23
05
25
1d
02
f8
f5
81
fd
08
f8
45
0d
c4
06
f6
3a
df
f1
f5
24
ba
ed
1b
0f
07
33
e5
d5
ef
37
eb
07
b4
0d
07
b5
36
fc
03
33
f3
27
b8
d3
26
02
39
2c
aa
db
38
d2
1a
48
0c
c6
fc
e4
02
04
e7
04
0b
1a
15
ba
f2
f5
f6
ff
0b
0c
c7
1c
cd
dc
b1
02
1f
e4
49
08
12
0f
12
01
1e
7c
fe
f5
07
bd
d3
ed
f1
ed
f5
e0
db
c9
02
e4
fb
23
22
db
3a
16
17
08
1c
e9
1e
19
e1
b6
1e
f0
03
ee
f8
16
28
04
0c
d8
e7
e8
0b
0c
02
0e
00
12
93
0b
f5
0f
f3
d7
1e
f6
f4
e5
02
f4
00
e2
fb
10
42
05
fe
20
27
f3
1e
e5
05
00
ee
1b
24
03
e0
1f
0e
12
f5
ff
e7
25
04
f4
e3
26
01
fe
0f
03
ee
45
03
36
2d
f7
0d
1b
29
1c
f9
e6
ed
e6
09
ed
f8
14
ff
e9
da
04
4a
ff
0b
dd
2b
bf
fd
00
13
08
ea
f3
f1
0d
d5
2f
e4
14
14
b9
c8
f7
c7
db
fa
02
f2
1f
0d
f1
d8
db
f2
e2
94
ff
e9
e3
be
be
38
b8
b4
f1
f2
05
25
e6
e7
d0
32
36
c4
ec
f2
0b
a4
05
d9
c0
db
0d
20
b9
81
ee
26
01
d4
f7
29
fc
03
27
50
06
16
24
c1
0c
e4
19
d7
1e
03
1f
f9
2c
44
73
d4
ff
f7
19
b0
11
45
ea
26
c3
fc
e5
92
c6
13
af
e6
c8
f7
1a
bd
3f
be
cf
bf
d2
ee
dc
cf
8e
f1
e9
40
ea
06
ca
d4
e5
fe
03
d7
48
b2
eb
f1
e3
19
e1
9f
05
f3
39
f4
c0
e6
c9
2a
32
c6
b1
e7
19
0d
dc
ee
4e
fe
bb
d9
f2
11
1c
da
26
13
23
06
1f
dc
29
42
34
eb
da
2f
06
ec
04
1b
fb
fc
1d
10
d9
cf
2a
09
16
ec
0f
4a
eb
16
b1
39
e0
23
ff
f5
d0
05
e6
f5
03
fd
e3
e3
c4
67
f1
c9
0d
f8
e5
dc
c3
ae
08
f0
0f
0e
ff
26
17
ff
# End Tensor

# Tensor Name (TFLite): tfl.pseudo_qconst1
# Original Shape: [np.int32(10), np.int32(64)]
# Dtype: <class 'numpy.int8'>
# Scales: [0.00806353 0.00788968 0.00784983 0.00605195 0.00805208 0.00646984
 0.00626853 0.00877679 0.00631169 0.00648118]
# Zero Points: [0 0 0 0 0 0 0 0 0 0]
ea
e4
e0
c2
1f
ef
ea
d2
de
f4
c5
13
2a
fe
11
d4
c0
b3
0f
14
0b
e5
23
07
b8
f8
d7
38
0d
b8
0a
81
11
14
03
eb
03
35
a5
e3
25
fd
af
2a
07
11
00
ed
58
2f
10
06
30
2b
15
a2
1d
25
2a
05
1e
f1
cd
f9
f2
9c
09
cf
f8
f3
e2
00
b9
ff
fa
1e
25
b3
c2
1e
02
19
f1
ee
a8
e7
b5
fa
95
fa
10
e9
13
20
e5
23
3b
dc
ba
f6
3f
1e
81
b4
ab
30
d3
ee
08
1e
cd
dc
ea
fd
0a
fe
de
00
f5
e7
c8
e1
35
1a
2e
0c
23
03
19
d2
ea
1b
d4
03
f9
f8
1d
13
13
f8
d1
1b
24
d2
9c
21
08
f8
e4
b6
34
13
e8
e3
e2
31
94
19
10
e9
32
3d
5e
e2
f5
ed
d1
fb
19
fa
19
c0
1b
f5
a5
21
a2
bb
f0
ec
c4
0f
d8
1e
20
03
17
25
f2
e3
10
81
dd
25
dd
db
2e
ce
1b
29
22
f0
23
11
ce
b7
f6
1f
7f
24
e2
e1
18
de
1c
1d
bf
01
28
02
27
bd
0b
9b
97
f6
e2
fc
0a
f0
60
1b
ee
0e
cc
ad
fa
29
ff
db
eb
23
e5
ef
b8
46
ee
27
c1
fb
f8
c9
d3
36
09
a9
c3
1e
03
3e
0b
1b
ff
fc
1f
11
1f
1a
fc
d2
e9
e8
ae
18
d9
f5
fb
01
33
f1
bc
f1
15
c3
da
20
e5
bf
ca
e3
f9
14
07
a4
c8
04
01
aa
08
e9
18
23
24
27
d7
0d
fb
c9
ca
c6
01
81
20
24
1c
c1
1e
c5
b4
a3
dd
fe
f7
ec
ca
0d
fa
1d
fa
28
92
19
c9
60
fb
1d
88
18
e1
08
fe
1b
f7
ef
89
08
66
d5
ad
c3
f0
23
e2
16
81
40
d1
0b
cf
10
29
da
cf
15
04
f1
4e
e0
ec
f2
19
34
34
01
03
1b
2b
d7
b5
ec
21
17
00
54
1d
e6
0f
ea
18
fe
c7
a5
0c
15
ca
9f
49
0e
c2
33
7f
19
0c
1d
3c
3b
a9
0d
1b
fa
de
f8
e0
28
16
b4
be
1b
de
e2
e3
b0
f8
1b
f1
25
c5
13
04
ec
1e
3f
c4
91
e4
3c
d4
0e
0c
99
fd
c9
2c
c1
b3
0c
d1
23
18
29
12
29
a9
c8
fe
1f
e6
e4
eb
22
e4
2c
0a
bd
f2
1a
1a
fb
18
36
f5
f6
16
0b
d7
05
d7
01
0c
81
e6
e8
26
c9
aa
b6
ec
d0
1f
11
1a
be
06
01
ba
1d
e9
50
f0
e0
f1
b8
14
da
cd
fb
db
cf
28
1a
ff
f5
25
0a
08
f5
f1
a8
0e
27
cc
f8
cb
df
df
81
14
52
f8
bd
dd
0a
c0
37
f4
f0
b4
fd
cd
14
17
2d
fc
83
f4
8d
e3
ed
06
6f
4a
ff
af
d9
45
47
0e
d2
1f
92
ad
a5
e1
20
14
b1
15
be
12
44
13
44
bb
e6
1d
a7
d8
c0
16
a7
b8
38
e4
3c
c5
ec
fe
1e
1e
ce
4c
f1
81
12
e8
0d
34
e9
a4
e2
ff
ea
c5
dc
1b
e6
c2
44
43
d4
d3
af
32
e1
e7
c9
9b
05
d9
c5
11
1c
2e
f2
16
ea
f8
bf
e5
ea
dd
bb
12
2f
0b
06
ea
13
14
bd
# End Tensor

