# Fully Connected Layer Bias Weights (int32) - Layer Order
# Each 32-bit value on one line as 8 hex characters
# Order: FC1 (dense1) biases, then FC2 (output_softmax) biases

# Tensor Name (TFLite): tfl.pseudo_qconst2
# Layer: dense1
# Original Shape: [np.int32(64)]
# Dtype: <class 'numpy.int32'>
# Scales: [9.76994779e-05 3.40843835e-05 9.28903464e-05 8.38562046e-05
# 9.91109482e-05 7.77240566e-05 7.97141547e-05 4.12362351e-05
# 8.24609815e-05 5.81303539e-05 1.04293540e-04 3.25802393e-05
# 9.03578621e-05 9.70940309e-05 1.17209631e-04 8.14476516e-05
# 3.46445850e-05 3.99326345e-05 7.00560267e-05 3.77227007e-05
# 7.79640322e-05 9.60525940e-05 3.79249686e-05 3.60510749e-05
# 8.20452551e-05 8.34483144e-05 9.55929208e-05 8.45280520e-05
# 3.27693306e-05 7.58428287e-05 1.00644866e-04 1.09906352e-04
# 3.13267774e-05 3.38578939e-05 8.53730089e-05 9.75247458e-05
# 1.06913278e-04 5.89581941e-05 3.51494200e-05 9.45769425e-05
# 1.20390818e-04 1.13395552e-04 8.75665719e-05 9.01535022e-05
# 8.34315506e-05 3.87354776e-05 7.67387610e-05 6.50900693e-05
# 9.81781777e-05 7.15942588e-05 8.68184070e-05 3.53564610e-05
# 3.61249840e-05 8.76556660e-05 3.87492328e-05 8.31032667e-05
# 9.41910985e-05 4.59054172e-05 3.85522580e-05 8.26598844e-05
# 4.45057558e-05 8.46066469e-05 8.38234264e-05 3.45868102e-05]
# Zero Points: [0 0 0 0 0 0 0 0 0 0 0 0 0 0 0 0 0 0 0 0 0 0 0 0 0 0 0 0 0 0 0 0 0 0 0 0 0
# 0 0 0 0 0 0 0 0 0 0 0 0 0 0 0 0 0 0 0 0 0 0 0 0 0 0 0]
fffffde3
fffffda0
00000288
0000018c
0000076a
00000310
000000bc
fffffc67
0000003a
fffffef7
00000285
ffffffde
fffffd06
000000db
ffffffe9
0000057a
000000c0
fffff900
fffffac8
fffffc0e
00000503
000000d9
fffffae7
fffffe4a
00000638
00000709
ffffff80
00000007
fffffacb
000001cc
00000637
fffffe35
fffffdbd
fffffdb1
000004c8
00000450
00000371
fffffeb5
fffffad6
ffffffe5
000000e4
fffffc7e
00000079
00000255
fffffaa7
fffff871
fffff907
00000096
000003b3
00000338
000006db
fffffdb8
fffffb41
0000020c
fffffa27
000001d5
fffffec8
fffffe81
fffffbae
fffffc63
fffffdb1
00000498
00000047
fffffc6d
# End Tensor

# Tensor Name (TFLite): tfl.pseudo_qconst
# Layer: output_softmax
# Original Shape: [np.int32(10)]
# Dtype: <class 'numpy.int32'>
# Scales: [8.1222832e-05 1.3010220e-04 7.7390090e-05 6.7493318e-05 9.6817821e-05
# 8.6783599e-05 1.2556995e-04 1.1181495e-04 1.0449225e-04 1.0240002e-04]
# Zero Points: [0 0 0 0 0 0 0 0 0 0]
fffffec5
fffffcca
00000110
fffffa0f
0000087d
000001f2
000002bc
fffffc95
0000002d
fffffe65
# End Tensor

