# Conv2D Kernel Weights (int8) - Stored as 4x4 planes, column-major flattened
# Tensor Name: tfl.pseudo_qconst11
# Original Shape: [8 4 4 1]
# Dtype: <class 'numpy.int8'>
# Scales: [0.00298985 0.00255314 0.00296776 0.00232027 0.00271508 0.00231588
 0.00312009 0.00260504]
# Zero Points: [0 0 0 0 0 0 0 0]
# Processing as Conv2D Kernel. Output Channels: 8, Input Channels: 1, H: 4, W: 4
# Kernel Plane: OutputChannel=0, InputChannel=0
81
17
49
43
cc
af
4f
37
e9
d7
13
08
12
01
24
c2
# Kernel Plane: OutputChannel=1, InputChannel=0
05
ad
2e
f8
54
8a
41
e4
5e
81
4b
eb
3d
b7
29
e2
# Kernel Plane: OutputChannel=2, InputChannel=0
04
ef
df
29
e8
36
a4
81
17
ff
73
25
2c
f6
0f
bc
# Kernel Plane: OutputChannel=3, InputChannel=0
7f
e4
0a
96
68
44
af
d4
58
53
e9
19
e6
e3
d1
34
# Kernel Plane: OutputChannel=4, InputChannel=0
16
4a
39
3d
c2
25
42
21
57
07
a7
e1
cd
81
db
ba
# Kernel Plane: OutputChannel=5, InputChannel=0
f6
9c
aa
cf
9f
e6
c0
f7
42
14
5d
e9
01
7f
1a
75
# Kernel Plane: OutputChannel=6, InputChannel=0
0f
61
13
21
81
ca
9d
d0
4b
f4
0b
18
37
cd
1e
15
# Kernel Plane: OutputChannel=7, InputChannel=0
38
61
c2
d3
3e
cc
81
2c
f3
db
ad
73
e7
bd
07
6d
# End Tensor

# Tensor Name: tfl.pseudo_qconst5
# Original Shape: [64  4  4 32]
# Dtype: <class 'numpy.int8'>
# Scales: [0.00464353 0.00391885 0.00443908 0.00468429 0.00458152 0.00304651
 0.00358547 0.00405366 0.0040101  0.00407889 0.00487682 0.00296232
 0.00478029 0.00073564 0.00149014 0.00386521 0.00456377 0.00560392
 0.00359649 0.00466676 0.000946   0.00432088 0.00469048 0.00418816
 0.00424591 0.00432271 0.00494375 0.00576854 0.00385303 0.00430053
 0.00456684 0.00100186 0.00421704 0.0037527  0.0036065  0.00434149
 0.00431632 0.00087406 0.00099959 0.00472004 0.00440072 0.00367445
 0.004962   0.00383151 0.00166897 0.00396644 0.00371051 0.00408721
 0.00500918 0.00563584 0.00456261 0.00253503 0.00436606 0.00416633
 0.00332369 0.00514869 0.00360711 0.00361825 0.00476821 0.00080466
 0.00364477 0.00228983 0.0057393  0.00433371]
# Zero Points: [0 0 0 0 0 0 0 0 0 0 0 0 0 0 0 0 0 0 0 0 0 0 0 0 0 0 0 0 0 0 0 0 0 0 0 0 0
 0 0 0 0 0 0 0 0 0 0 0 0 0 0 0 0 0 0 0 0 0 0 0 0 0 0 0]
# Processing as Conv2D Kernel. Output Channels: 64, Input Channels: 32, H: 4, W: 4
# Kernel Plane: OutputChannel=0, InputChannel=0
3d
e1
ee
15
f9
ea
f0
eb
0e
12
31
11
e6
b4
04
ea
# Kernel Plane: OutputChannel=0, InputChannel=1
ca
e5
07
b7
1a
00
20
f5
03
07
5e
1b
f3
f1
f2
21
# Kernel Plane: OutputChannel=0, InputChannel=2
fb
18
0b
ef
d9
06
fe
00
bc
d6
15
1e
df
e8
ff
eb
# Kernel Plane: OutputChannel=0, InputChannel=3
a5
09
f8
c5
04
05
23
0b
00
1a
37
4d
00
20
18
02
# Kernel Plane: OutputChannel=0, InputChannel=4
eb
e9
22
ea
ff
0e
26
ef
f1
35
02
00
17
13
1c
02
# Kernel Plane: OutputChannel=0, InputChannel=5
f7
26
fb
eb
3a
02
ce
01
24
3d
f9
f6
0f
15
0d
07
# Kernel Plane: OutputChannel=0, InputChannel=6
01
09
f1
cd
0b
03
e3
d1
d9
ed
19
da
14
cf
2c
fd
# Kernel Plane: OutputChannel=0, InputChannel=7
d4
b1
d1
f6
c4
19
2f
de
bf
15
3a
12
e8
30
17
ef
# Kernel Plane: OutputChannel=0, InputChannel=8
92
14
ee
13
2c
ca
0b
0e
09
07
04
21
06
f1
20
fc
# Kernel Plane: OutputChannel=0, InputChannel=9
d0
ff
2f
07
f2
00
05
0e
22
2a
19
22
24
04
de
f6
# Kernel Plane: OutputChannel=0, InputChannel=10
c8
1d
1d
07
cb
e8
f3
f3
02
0f
e8
11
ec
06
e8
db
# Kernel Plane: OutputChannel=0, InputChannel=11
a5
fb
26
de
f3
10
13
03
ef
bf
21
e0
e8
23
2e
fc
# Kernel Plane: OutputChannel=0, InputChannel=12
08
0e
0c
fb
01
fb
06
05
fe
f9
fc
09
ff
03
fa
0c
# Kernel Plane: OutputChannel=0, InputChannel=13
e8
14
f8
f1
ee
22
18
09
e7
2d
0a
22
e5
d5
e5
c9
# Kernel Plane: OutputChannel=0, InputChannel=14
12
12
1f
e3
f5
05
1b
f3
d4
fe
0c
de
f9
ea
45
07
# Kernel Plane: OutputChannel=0, InputChannel=15
ea
ef
13
da
ce
df
e5
f2
e7
29
db
ef
13
27
00
d9
# Kernel Plane: OutputChannel=0, InputChannel=16
d8
dd
fd
b4
2e
d1
1e
ec
fe
25
14
fe
ed
13
32
17
# Kernel Plane: OutputChannel=0, InputChannel=17
81
1d
f0
03
06
00
f0
19
17
f6
fd
0a
0d
17
2a
10
# Kernel Plane: OutputChannel=0, InputChannel=18
1b
e1
d5
16
0a
b8
0c
fb
e9
c8
1b
0d
db
d5
05
25
# Kernel Plane: OutputChannel=0, InputChannel=19
e8
f0
ea
f5
fd
3a
f6
fd
fa
f6
ff
fe
fa
23
e9
ed
# Kernel Plane: OutputChannel=0, InputChannel=20
fe
1e
d7
0c
08
36
ea
3c
2f
fd
f8
f8
2b
eb
e7
f7
# Kernel Plane: OutputChannel=0, InputChannel=21
91
ff
1b
fb
eb
eb
37
02
cf
e8
d9
e7
fb
fa
0c
e8
# Kernel Plane: OutputChannel=0, InputChannel=22
f4
dd
fe
08
e1
c8
d8
d7
0d
17
05
ed
fe
d9
2c
f7
# Kernel Plane: OutputChannel=0, InputChannel=23
07
22
11
32
f4
fc
d7
03
f5
0e
dd
d5
25
13
fe
e1
# Kernel Plane: OutputChannel=0, InputChannel=24
1d
16
b6
3f
0d
1f
ea
13
0c
f6
07
eb
f8
d2
cd
0f
# Kernel Plane: OutputChannel=0, InputChannel=25
e2
c8
ca
ee
e1
19
01
c3
0b
23
12
08
1a
03
ff
f5
# Kernel Plane: OutputChannel=0, InputChannel=26
dc
fe
00
d5
fe
f1
e5
ee
c1
fb
ee
ea
ef
fe
09
f7
# Kernel Plane: OutputChannel=0, InputChannel=27
c4
2b
08
06
ef
dd
d9
de
14
53
1f
0d
fc
0b
0c
f3
# Kernel Plane: OutputChannel=0, InputChannel=28
21
28
cf
27
33
14
ee
1c
28
e5
20
22
30
ef
0c
f3
# Kernel Plane: OutputChannel=0, InputChannel=29
17
f2
fc
ee
f3
e7
04
c6
17
da
ed
cf
f3
cd
0b
9d
# Kernel Plane: OutputChannel=0, InputChannel=30
10
fb
e0
10
ff
f6
00
fe
09
ef
10
2e
f1
fa
11
35
# Kernel Plane: OutputChannel=0, InputChannel=31
38
1f
20
ec
3d
fb
fe
18
15
0e
08
f0
fe
d4
ed
d5
# Kernel Plane: OutputChannel=1, InputChannel=0
ce
de
fd
07
a2
f6
dc
ee
83
b2
b9
e0
cb
37
ff
f9
# Kernel Plane: OutputChannel=1, InputChannel=1
15
22
d2
52
19
26
f7
c6
e8
d7
cf
0a
54
31
14
51
# Kernel Plane: OutputChannel=1, InputChannel=2
05
14
10
07
09
d9
0d
06
14
1c
29
18
fe
bb
f8
96
# Kernel Plane: OutputChannel=1, InputChannel=3
0f
11
d8
43
17
ec
c6
17
ef
f9
f5
e4
39
03
05
01
# Kernel Plane: OutputChannel=1, InputChannel=4
1c
ba
f6
09
99
19
df
e7
e9
28
e1
16
d9
e8
44
fa
# Kernel Plane: OutputChannel=1, InputChannel=5
04
04
06
e2
18
cb
d3
e0
0a
5a
20
4b
2f
01
23
c3
# Kernel Plane: OutputChannel=1, InputChannel=6
2b
24
0a
fa
0a
21
ef
ef
15
0f
ed
f6
13
1c
16
f7
# Kernel Plane: OutputChannel=1, InputChannel=7
e9
20
24
26
ce
e7
ff
17
c6
19
0e
ed
ff
23
e1
21
# Kernel Plane: OutputChannel=1, InputChannel=8
48
35
f7
0c
1c
23
20
15
fe
24
45
01
e6
54
38
1b
# Kernel Plane: OutputChannel=1, InputChannel=9
f1
03
01
11
df
f4
2b
f1
02
fe
35
e8
eb
c7
e5
f4
# Kernel Plane: OutputChannel=1, InputChannel=10
20
d9
42
f2
22
fa
df
a1
0b
0a
1d
ed
02
0c
0d
0d
# Kernel Plane: OutputChannel=1, InputChannel=11
e0
06
09
e8
d8
0c
1b
b8
10
f0
06
20
19
ec
fd
09
# Kernel Plane: OutputChannel=1, InputChannel=12
f6
05
fc
06
03
0c
f8
0c
05
16
f5
fe
15
01
03
08
# Kernel Plane: OutputChannel=1, InputChannel=13
0c
2d
16
28
eb
10
02
04
0a
f5
11
0c
eb
dc
f3
d7
# Kernel Plane: OutputChannel=1, InputChannel=14
09
19
04
34
f4
2a
f5
f8
fb
f6
30
ed
42
fc
fc
e3
# Kernel Plane: OutputChannel=1, InputChannel=15
db
ef
11
10
b4
07
d3
c1
a8
09
c4
da
f4
02
ab
9e
# Kernel Plane: OutputChannel=1, InputChannel=16
28
09
01
ff
c1
eb
ef
1f
d1
06
22
f6
17
fd
30
c5
# Kernel Plane: OutputChannel=1, InputChannel=17
53
10
ea
eb
01
be
1d
df
13
0a
eb
15
b8
f7
22
1b
# Kernel Plane: OutputChannel=1, InputChannel=18
cc
ca
09
dd
9f
a5
05
e1
06
9a
fc
f2
eb
f0
25
15
# Kernel Plane: OutputChannel=1, InputChannel=19
2b
fb
fe
09
ec
fe
31
0b
ef
f8
fb
07
70
2d
2a
f7
# Kernel Plane: OutputChannel=1, InputChannel=20
b8
e1
05
07
06
df
00
f0
c3
0b
ff
17
08
ca
2e
fa
# Kernel Plane: OutputChannel=1, InputChannel=21
b8
dc
dd
38
e5
d9
f4
0e
0c
22
0f
2d
15
f7
f0
17
# Kernel Plane: OutputChannel=1, InputChannel=22
11
32
1a
1c
fa
b1
e3
0a
d6
ea
04
dc
31
e9
c6
03
# Kernel Plane: OutputChannel=1, InputChannel=23
08
c8
2f
fd
f0
c9
16
e6
b5
16
f7
f6
f1
ff
1b
d0
# Kernel Plane: OutputChannel=1, InputChannel=24
37
4b
e7
07
e3
fc
1a
0f
f4
0d
0b
1a
db
02
2d
18
# Kernel Plane: OutputChannel=1, InputChannel=25
20
23
21
e9
fc
a8
2b
0a
0b
dd
f8
0d
f1
d8
08
ea
# Kernel Plane: OutputChannel=1, InputChannel=26
d0
c9
3a
f1
d7
c8
fb
de
ef
26
14
f4
cf
dc
4b
22
# Kernel Plane: OutputChannel=1, InputChannel=27
35
e9
df
21
e5
08
ce
e6
b8
ec
01
04
b3
31
1c
11
# Kernel Plane: OutputChannel=1, InputChannel=28
fb
f9
1f
f8
fd
25
ff
04
bb
14
0a
18
07
0d
11
d6
# Kernel Plane: OutputChannel=1, InputChannel=29
e1
05
e8
13
fd
b6
d3
f4
21
f6
0b
21
f6
d9
2c
e5
# Kernel Plane: OutputChannel=1, InputChannel=30
ce
f9
13
0b
f2
ec
08
28
0c
e5
f4
2d
21
fd
1f
f7
# Kernel Plane: OutputChannel=1, InputChannel=31
55
a2
1c
81
1b
ff
23
d9
02
23
15
c1
ee
cb
ea
b3
# Kernel Plane: OutputChannel=2, InputChannel=0
92
d2
08
94
ce
12
d7
04
2c
15
e4
0c
1f
d8
13
2e
# Kernel Plane: OutputChannel=2, InputChannel=1
8c
2f
d8
15
b4
c8
fd
f0
06
81
02
ea
31
db
b6
07
# Kernel Plane: OutputChannel=2, InputChannel=2
0a
f2
fe
09
29
11
db
e7
fa
27
03
22
04
ef
14
03
# Kernel Plane: OutputChannel=2, InputChannel=3
ea
02
fe
10
df
e4
e9
0a
f6
f2
fd
4b
da
de
fb
12
# Kernel Plane: OutputChannel=2, InputChannel=4
cf
0a
f4
ce
f1
04
20
de
02
ea
ff
01
1a
18
1d
e2
# Kernel Plane: OutputChannel=2, InputChannel=5
06
00
28
4c
fe
d2
11
ed
fe
12
1b
1d
15
0a
dc
de
# Kernel Plane: OutputChannel=2, InputChannel=6
02
0c
f1
08
db
1e
2f
b6
0c
19
00
f9
21
f3
20
05
# Kernel Plane: OutputChannel=2, InputChannel=7
20
21
17
fb
f9
10
01
20
fa
55
22
1a
ce
e2
fe
1c
# Kernel Plane: OutputChannel=2, InputChannel=8
d6
2b
e7
cd
ca
1a
01
00
d7
0a
07
08
20
e2
00
05
# Kernel Plane: OutputChannel=2, InputChannel=9
fd
18
c8
08
e7
18
37
1b
e0
1d
22
08
2c
db
b3
f5
# Kernel Plane: OutputChannel=2, InputChannel=10
2a
2a
0b
0a
16
24
05
f0
dc
ed
0d
24
04
ed
eb
e0
# Kernel Plane: OutputChannel=2, InputChannel=11
f5
18
05
c4
ea
fe
d9
f6
1a
e5
ed
27
07
13
06
2d
# Kernel Plane: OutputChannel=2, InputChannel=12
10
fd
05
08
17
fd
09
ff
fa
06
fb
f3
04
01
fa
0c
# Kernel Plane: OutputChannel=2, InputChannel=13
34
a3
dc
3e
2c
cc
ed
fb
f0
ea
d2
16
07
e3
f7
3a
# Kernel Plane: OutputChannel=2, InputChannel=14
cc
e4
a3
27
d6
0b
ea
3f
33
c8
f1
08
2c
b0
8c
1f
# Kernel Plane: OutputChannel=2, InputChannel=15
f2
3a
0f
e6
ef
da
f4
d4
06
ca
f6
fe
d6
f4
24
29
# Kernel Plane: OutputChannel=2, InputChannel=16
00
ee
3b
f7
0a
02
13
ef
e6
f4
0d
c0
ef
2a
fd
e8
# Kernel Plane: OutputChannel=2, InputChannel=17
02
1b
24
ee
ce
e5
20
dd
03
c8
d6
c6
0a
09
06
01
# Kernel Plane: OutputChannel=2, InputChannel=18
d4
d8
23
b5
eb
be
03
26
37
f0
ca
c7
03
c3
df
17
# Kernel Plane: OutputChannel=2, InputChannel=19
9e
d0
dd
22
ee
e2
05
4a
29
e4
f5
f2
33
f0
cf
22
# Kernel Plane: OutputChannel=2, InputChannel=20
f8
cb
0d
db
f9
d2
ef
0b
11
fc
cb
fa
07
22
c6
06
# Kernel Plane: OutputChannel=2, InputChannel=21
d5
fd
41
09
02
ee
fd
eb
05
16
20
02
1f
eb
31
0d
# Kernel Plane: OutputChannel=2, InputChannel=22
06
13
02
b0
0f
19
ca
f6
e1
ef
eb
2c
08
2c
0a
31
# Kernel Plane: OutputChannel=2, InputChannel=23
ec
00
19
d5
d0
16
03
f9
e2
16
fe
e8
e1
f3
f8
ef
# Kernel Plane: OutputChannel=2, InputChannel=24
c3
cd
02
0d
c0
d9
f4
0c
02
08
15
2b
06
30
25
20
# Kernel Plane: OutputChannel=2, InputChannel=25
12
f5
f5
fd
19
e9
ee
f0
ec
e3
d9
fb
f1
0e
23
fd
# Kernel Plane: OutputChannel=2, InputChannel=26
12
d3
2f
f9
09
0f
f6
d3
ef
d4
ec
ec
e1
f5
13
f9
# Kernel Plane: OutputChannel=2, InputChannel=27
f6
c0
2d
b1
ca
1a
08
d8
07
e6
0d
e2
fb
bd
29
0e
# Kernel Plane: OutputChannel=2, InputChannel=28
d3
d3
f5
df
ee
01
2d
fe
09
f8
22
ed
03
fc
e6
fe
# Kernel Plane: OutputChannel=2, InputChannel=29
bd
8e
f9
e9
e5
dd
0c
eb
c7
19
06
f4
19
d3
24
d0
# Kernel Plane: OutputChannel=2, InputChannel=30
bc
d8
f4
ea
de
05
fc
d2
fd
fb
d2
f2
15
d0
e5
0f
# Kernel Plane: OutputChannel=2, InputChannel=31
b5
13
04
09
18
26
27
16
ce
ff
6e
39
fa
f6
0d
1b
# Kernel Plane: OutputChannel=3, InputChannel=0
31
c3
05
e8
de
b6
00
0b
e1
e2
f3
08
40
ef
03
fd
# Kernel Plane: OutputChannel=3, InputChannel=1
23
4a
e1
e9
1d
d5
c8
ff
01
d6
09
10
32
1e
f2
af
# Kernel Plane: OutputChannel=3, InputChannel=2
e4
cf
f6
14
1e
0f
eb
fd
00
0b
14
ed
0d
26
0d
07
# Kernel Plane: OutputChannel=3, InputChannel=3
e8
e9
e2
08
34
f5
04
12
02
f8
0e
1b
14
25
ea
c1
# Kernel Plane: OutputChannel=3, InputChannel=4
f3
07
02
00
1e
01
fa
c6
ca
ee
1f
f9
59
f1
f0
ef
# Kernel Plane: OutputChannel=3, InputChannel=5
df
03
2b
30
28
e0
13
14
e3
d6
12
fb
1b
0c
3d
dd
# Kernel Plane: OutputChannel=3, InputChannel=6
db
e5
f7
06
cd
36
f8
dc
da
27
10
02
d5
db
1a
00
# Kernel Plane: OutputChannel=3, InputChannel=7
04
e6
c0
1b
e4
ea
f1
0b
06
18
15
19
03
10
e0
08
# Kernel Plane: OutputChannel=3, InputChannel=8
e1
fd
dd
eb
ff
3f
1f
09
e7
1f
0a
1c
0f
ba
15
14
# Kernel Plane: OutputChannel=3, InputChannel=9
e8
33
ed
f3
cd
0b
0c
07
e5
1a
4b
d4
cf
06
16
fd
# Kernel Plane: OutputChannel=3, InputChannel=10
e3
16
0b
21
2f
25
03
d7
22
2a
fc
13
07
01
01
12
# Kernel Plane: OutputChannel=3, InputChannel=11
ce
ff
04
ea
d6
e3
17
0c
fa
d6
ee
11
f7
e7
29
3a
# Kernel Plane: OutputChannel=3, InputChannel=12
fb
05
f1
08
04
fc
f0
f9
fd
f8
fd
07
00
f6
06
eb
# Kernel Plane: OutputChannel=3, InputChannel=13
d2
d4
07
2e
0d
16
02
16
00
f0
09
f6
f3
f6
fd
0d
# Kernel Plane: OutputChannel=3, InputChannel=14
1a
be
da
31
35
e9
f5
0e
3f
fd
2d
0b
36
02
23
dc
# Kernel Plane: OutputChannel=3, InputChannel=15
15
4d
04
02
28
ff
07
1a
d2
04
f8
ec
bd
00
0d
c7
# Kernel Plane: OutputChannel=3, InputChannel=16
f2
a2
09
f6
ec
dc
17
00
32
13
d6
15
ed
e8
ec
d0
# Kernel Plane: OutputChannel=3, InputChannel=17
1b
96
dd
09
ef
f9
30
e9
f5
d8
f6
e2
04
dc
dc
e9
# Kernel Plane: OutputChannel=3, InputChannel=18
ce
ad
ca
ec
b6
de
06
02
1c
04
f4
ee
e4
f8
d3
f4
# Kernel Plane: OutputChannel=3, InputChannel=19
fb
dd
dd
ca
c2
c4
02
1d
e0
c5
16
1f
06
e4
fb
dd
# Kernel Plane: OutputChannel=3, InputChannel=20
d4
0e
2f
fb
d3
e9
0c
0a
bd
ef
25
e7
e7
f8
2c
ff
# Kernel Plane: OutputChannel=3, InputChannel=21
e9
13
f6
f9
3f
32
f7
f5
0c
22
10
f6
19
12
0e
3d
# Kernel Plane: OutputChannel=3, InputChannel=22
3a
fc
02
35
05
fc
ef
bd
18
1c
fb
db
fb
ff
18
e5
# Kernel Plane: OutputChannel=3, InputChannel=23
d8
08
fb
f7
20
2b
ee
ee
e2
e6
1a
0f
e2
db
10
08
# Kernel Plane: OutputChannel=3, InputChannel=24
a5
c4
01
f2
81
ec
0b
ef
e0
dd
03
e1
30
d0
e7
00
# Kernel Plane: OutputChannel=3, InputChannel=25
cc
f3
1b
fc
06
da
e5
06
03
e4
0e
b6
03
01
0a
00
# Kernel Plane: OutputChannel=3, InputChannel=26
e1
dd
1c
fd
e4
0e
0d
f4
15
10
fc
01
00
d7
19
f4
# Kernel Plane: OutputChannel=3, InputChannel=27
de
f3
e9
e6
da
ed
f6
ee
c3
e0
10
ec
11
bb
07
e1
# Kernel Plane: OutputChannel=3, InputChannel=28
1c
1d
15
fe
d4
11
26
1a
d3
0c
14
17
d6
08
02
ff
# Kernel Plane: OutputChannel=3, InputChannel=29
10
ab
2d
09
27
f7
1f
08
2e
23
40
e8
e9
e0
f4
e9
# Kernel Plane: OutputChannel=3, InputChannel=30
1c
f5
07
0d
ea
e1
e7
01
d7
04
05
d9
2b
f0
05
09
# Kernel Plane: OutputChannel=3, InputChannel=31
f9
16
d0
13
c9
07
1e
0a
ed
1d
20
04
ea
d0
d4
e0
# Kernel Plane: OutputChannel=4, InputChannel=0
0a
05
f2
06
f9
f1
ed
1a
f4
f7
f0
de
f8
e9
f5
f4
# Kernel Plane: OutputChannel=4, InputChannel=1
14
04
2a
0b
ce
bd
01
13
22
db
fe
41
2e
1e
38
1e
# Kernel Plane: OutputChannel=4, InputChannel=2
e6
d8
ff
0c
fb
21
1d
16
fe
13
16
ee
14
d5
13
14
# Kernel Plane: OutputChannel=4, InputChannel=3
f8
f0
d2
1a
b3
b0
ff
22
24
f9
e8
1a
12
34
0a
4c
# Kernel Plane: OutputChannel=4, InputChannel=4
e1
15
14
13
f6
20
06
fb
f5
0e
1c
cc
37
f5
da
ee
# Kernel Plane: OutputChannel=4, InputChannel=5
ee
1a
cd
2b
46
fd
df
fc
06
02
dc
18
ec
cd
ea
e2
# Kernel Plane: OutputChannel=4, InputChannel=6
e6
ea
2b
ec
06
b2
29
f5
24
f9
16
db
ee
00
0a
f6
# Kernel Plane: OutputChannel=4, InputChannel=7
f5
c7
0c
f6
d5
df
f5
e5
fe
08
f9
0a
1a
43
f3
f7
# Kernel Plane: OutputChannel=4, InputChannel=8
e4
fa
e7
33
05
02
3e
39
21
07
34
37
25
10
1f
45
# Kernel Plane: OutputChannel=4, InputChannel=9
24
e7
fb
f4
21
0b
10
1f
fd
ec
e6
cc
f3
da
e3
24
# Kernel Plane: OutputChannel=4, InputChannel=10
2a
ed
dc
12
e7
0e
f6
04
14
f5
f4
f5
11
0a
f8
09
# Kernel Plane: OutputChannel=4, InputChannel=11
10
0c
10
09
fc
e7
d3
ea
d5
e1
fd
20
08
05
f0
27
# Kernel Plane: OutputChannel=4, InputChannel=12
fc
05
fa
0f
fa
f8
0c
f6
05
07
fc
02
01
fc
07
0b
# Kernel Plane: OutputChannel=4, InputChannel=13
04
03
fb
eb
2d
01
15
11
d6
ff
0a
df
d5
f4
10
10
# Kernel Plane: OutputChannel=4, InputChannel=14
0b
f3
1b
dc
d8
f3
09
f2
cf
e4
e5
f4
1a
39
16
1d
# Kernel Plane: OutputChannel=4, InputChannel=15
ef
fd
f6
dd
fc
05
f8
26
05
1f
00
07
05
1a
00
db
# Kernel Plane: OutputChannel=4, InputChannel=16
f6
09
f6
f1
f4
dc
e0
00
e5
ec
1b
02
cc
eb
0b
f3
# Kernel Plane: OutputChannel=4, InputChannel=17
a7
ea
be
ee
fd
dc
25
02
13
14
f4
2c
d8
1f
1f
ff
# Kernel Plane: OutputChannel=4, InputChannel=18
19
d1
d8
1f
e9
f3
00
20
f5
de
db
ff
1a
f9
fb
02
# Kernel Plane: OutputChannel=4, InputChannel=19
fe
49
eb
ed
e3
07
de
f6
ea
ef
0a
fc
ed
14
22
0e
# Kernel Plane: OutputChannel=4, InputChannel=20
02
1b
e4
df
02
f4
ee
28
f4
21
d6
ee
dc
01
e8
04
# Kernel Plane: OutputChannel=4, InputChannel=21
1e
fa
04
1c
2a
b1
f2
14
d7
ea
1a
14
06
03
22
1a
# Kernel Plane: OutputChannel=4, InputChannel=22
de
9a
22
44
c9
11
f9
ef
ed
c5
ee
e6
26
ef
f0
25
# Kernel Plane: OutputChannel=4, InputChannel=23
04
f3
0f
fb
2d
0a
0f
09
bb
07
28
07
fa
03
12
d8
# Kernel Plane: OutputChannel=4, InputChannel=24
f3
f5
23
1f
03
19
0a
dc
00
14
f5
02
05
1d
f4
25
# Kernel Plane: OutputChannel=4, InputChannel=25
cf
bb
25
fa
dc
e6
09
e0
e9
07
2d
ee
c4
e1
ef
eb
# Kernel Plane: OutputChannel=4, InputChannel=26
b7
01
fb
fa
f7
24
22
0d
f2
db
1a
07
04
1f
0a
e4
# Kernel Plane: OutputChannel=4, InputChannel=27
0c
1b
fe
08
cd
e2
03
0c
e4
e6
25
10
1b
d9
f3
fb
# Kernel Plane: OutputChannel=4, InputChannel=28
3e
0b
23
0b
1f
f6
e1
dd
f2
e6
e5
ed
40
ee
07
25
# Kernel Plane: OutputChannel=4, InputChannel=29
81
f6
37
f9
eb
b8
2e
14
e2
bf
2d
e3
24
f7
10
21
# Kernel Plane: OutputChannel=4, InputChannel=30
11
15
f6
ff
03
da
e8
35
fa
0f
e9
1b
0d
16
01
0f
# Kernel Plane: OutputChannel=4, InputChannel=31
04
15
f8
f6
fa
04
fa
f6
e0
e9
ef
e3
c2
d1
ea
d2
# Kernel Plane: OutputChannel=5, InputChannel=0
ef
f9
d0
20
f5
ca
f7
24
8c
da
fa
1a
fb
19
37
1f
# Kernel Plane: OutputChannel=5, InputChannel=1
9f
ad
15
03
f7
9d
e8
aa
19
ac
ec
5e
9c
e4
31
b8
# Kernel Plane: OutputChannel=5, InputChannel=2
40
40
1b
f7
f5
38
0a
c6
13
04
e2
04
dc
06
ee
d9
# Kernel Plane: OutputChannel=5, InputChannel=3
02
22
ff
de
5c
21
51
f4
02
a5
81
cb
d6
07
3e
ae
# Kernel Plane: OutputChannel=5, InputChannel=4
06
28
7a
0d
c7
1c
dc
f1
0f
26
f9
1a
db
02
11
3f
# Kernel Plane: OutputChannel=5, InputChannel=5
eb
ce
e7
f7
30
08
47
06
22
d4
0c
13
03
03
f6
3b
# Kernel Plane: OutputChannel=5, InputChannel=6
fd
c1
04
4a
c9
51
e9
dd
48
43
06
43
21
35
13
22
# Kernel Plane: OutputChannel=5, InputChannel=7
e9
e2
0b
2e
5e
14
43
f3
bb
bf
d7
38
62
ce
ee
eb
# Kernel Plane: OutputChannel=5, InputChannel=8
0f
27
f8
3d
da
f9
d4
1d
0e
10
66
43
e4
9a
ca
f2
# Kernel Plane: OutputChannel=5, InputChannel=9
01
da
38
0b
23
ec
f0
f1
eb
0c
37
ad
c8
f5
ef
da
# Kernel Plane: OutputChannel=5, InputChannel=10
1b
46
12
f9
85
f2
14
b7
db
d0
fc
17
10
30
47
e0
# Kernel Plane: OutputChannel=5, InputChannel=11
d7
d5
14
51
de
c4
1a
f8
60
17
ac
62
44
1b
28
13
# Kernel Plane: OutputChannel=5, InputChannel=12
0e
12
0a
04
fb
f8
ec
f1
06
f2
f8
ee
ed
19
0f
0b
# Kernel Plane: OutputChannel=5, InputChannel=13
0c
e7
00
cb
fc
e8
b4
47
23
1e
01
28
18
1f
26
fb
# Kernel Plane: OutputChannel=5, InputChannel=14
a4
c6
11
e4
08
55
31
fd
f0
ef
e4
f3
f7
fc
1a
06
# Kernel Plane: OutputChannel=5, InputChannel=15
e4
5a
20
a7
f2
12
29
fe
21
09
3e
31
fc
aa
58
00
# Kernel Plane: OutputChannel=5, InputChannel=16
f5
f7
da
f7
1c
f7
26
d1
b6
38
2a
e0
66
c9
cc
0a
# Kernel Plane: OutputChannel=5, InputChannel=17
bb
3a
24
fa
e8
a1
c2
c3
27
24
14
10
25
07
00
fe
# Kernel Plane: OutputChannel=5, InputChannel=18
cd
e8
0e
f3
d5
eb
0a
f7
c6
21
35
b5
3d
e5
c2
ff
# Kernel Plane: OutputChannel=5, InputChannel=19
e0
d2
d9
33
ce
3d
0c
2b
cb
45
c9
1d
54
c3
bf
17
# Kernel Plane: OutputChannel=5, InputChannel=20
d0
49
1d
fa
ff
d2
f8
d9
1d
09
ff
2e
10
c1
c7
0f
# Kernel Plane: OutputChannel=5, InputChannel=21
e3
fa
e4
17
03
27
da
fc
49
b6
1e
3b
37
c1
e3
cc
# Kernel Plane: OutputChannel=5, InputChannel=22
b4
2d
5e
4e
db
06
d0
09
cf
9f
12
d2
37
6d
4e
00
# Kernel Plane: OutputChannel=5, InputChannel=23
3b
ff
09
0b
f4
fc
05
98
14
e0
23
27
0b
e1
a9
d5
# Kernel Plane: OutputChannel=5, InputChannel=24
1f
df
ca
f2
f6
2e
03
35
d5
23
22
16
f4
38
f3
d6
# Kernel Plane: OutputChannel=5, InputChannel=25
f9
08
fe
15
51
c7
9e
e1
fb
b3
ea
fd
ff
e7
12
38
# Kernel Plane: OutputChannel=5, InputChannel=26
fd
be
f7
f5
b9
94
de
0d
0a
db
f8
f9
db
ff
e0
f9
# Kernel Plane: OutputChannel=5, InputChannel=27
52
07
ef
e3
05
07
00
17
d0
97
e3
0b
d4
98
0e
1f
# Kernel Plane: OutputChannel=5, InputChannel=28
e5
dd
f1
d5
95
b3
f3
e3
ca
07
e1
0f
fa
df
e6
06
# Kernel Plane: OutputChannel=5, InputChannel=29
33
44
dd
04
91
ea
cf
17
3e
2c
cc
3f
2d
f9
b7
20
# Kernel Plane: OutputChannel=5, InputChannel=30
37
26
f9
e4
34
3f
35
e2
d0
fd
d6
f4
2d
e1
c5
c9
# Kernel Plane: OutputChannel=5, InputChannel=31
05
c1
2e
e6
f9
e5
21
0e
2e
30
2c
f8
3f
17
21
90
# Kernel Plane: OutputChannel=6, InputChannel=0
20
08
04
0d
10
f0
ec
ee
12
ce
05
f1
e8
25
20
35
# Kernel Plane: OutputChannel=6, InputChannel=1
eb
8d
0b
0b
31
e6
d3
ee
2e
99
fb
02
e8
b2
03
09
# Kernel Plane: OutputChannel=6, InputChannel=2
81
fd
22
40
f2
0d
5b
0d
03
ea
1b
04
de
00
10
da
# Kernel Plane: OutputChannel=6, InputChannel=3
06
be
d8
ac
47
ff
4b
d1
44
18
42
98
e4
f5
dc
c7
# Kernel Plane: OutputChannel=6, InputChannel=4
fe
20
da
f1
37
20
db
0f
59
e6
df
1d
e9
37
4f
07
# Kernel Plane: OutputChannel=6, InputChannel=5
0b
0b
f8
02
03
b9
f3
0c
47
ef
0e
d6
43
ef
fb
e5
# Kernel Plane: OutputChannel=6, InputChannel=6
bc
ee
c9
1b
eb
01
0d
24
e7
f4
f1
09
b8
08
52
1a
# Kernel Plane: OutputChannel=6, InputChannel=7
cc
ba
f4
18
ef
17
e0
01
d8
e3
2b
09
3e
e9
ce
1c
# Kernel Plane: OutputChannel=6, InputChannel=8
25
e5
fc
21
c0
04
1e
05
e0
5b
0d
07
24
ed
0c
07
# Kernel Plane: OutputChannel=6, InputChannel=9
f2
d2
f4
f3
fe
09
c6
0a
0e
04
12
dc
32
15
8d
a5
# Kernel Plane: OutputChannel=6, InputChannel=10
ca
e3
1c
19
c6
d0
12
ec
0a
fc
f3
1f
04
25
3e
04
# Kernel Plane: OutputChannel=6, InputChannel=11
1f
c1
84
a0
15
29
e5
99
34
d2
ae
9f
28
e9
ed
d7
# Kernel Plane: OutputChannel=6, InputChannel=12
01
ec
fe
f6
f4
fb
03
fb
04
fd
02
07
0b
fd
f9
ec
# Kernel Plane: OutputChannel=6, InputChannel=13
f3
be
cf
01
3a
e4
e8
b5
d7
05
20
d7
d5
ff
2e
a2
# Kernel Plane: OutputChannel=6, InputChannel=14
eb
e3
d9
fe
10
37
e8
f4
1a
f8
f7
dc
fb
fd
d0
ed
# Kernel Plane: OutputChannel=6, InputChannel=15
05
0e
0c
fa
e6
15
ab
ee
21
18
00
f5
f1
df
45
c2
# Kernel Plane: OutputChannel=6, InputChannel=16
13
2f
1a
f9
45
d0
26
f2
1a
3c
0f
f9
14
c1
06
d6
# Kernel Plane: OutputChannel=6, InputChannel=17
3f
d8
ee
e4
f1
f7
18
f3
e0
1a
08
f4
03
d8
3a
0e
# Kernel Plane: OutputChannel=6, InputChannel=18
57
2b
18
e1
c6
07
0b
cb
cd
25
e3
d7
29
f6
e2
27
# Kernel Plane: OutputChannel=6, InputChannel=19
2d
43
1e
f3
13
05
0b
cc
ee
08
14
ca
16
d0
d6
fe
# Kernel Plane: OutputChannel=6, InputChannel=20
bc
25
1d
1e
f6
14
de
fb
ed
dc
18
eb
dd
f4
fa
ca
# Kernel Plane: OutputChannel=6, InputChannel=21
00
91
36
25
1c
21
fb
07
f1
0a
28
0a
d3
e2
44
0e
# Kernel Plane: OutputChannel=6, InputChannel=22
02
e6
23
16
05
e1
35
e6
6a
09
30
06
58
f7
f6
c8
# Kernel Plane: OutputChannel=6, InputChannel=23
ed
16
fc
0d
d5
14
f3
0a
ee
fb
fc
1a
f1
da
09
ba
# Kernel Plane: OutputChannel=6, InputChannel=24
10
2a
f9
f4
12
10
17
ce
f4
f0
13
fa
fe
1a
26
fc
# Kernel Plane: OutputChannel=6, InputChannel=25
f1
ce
f9
24
ee
fc
00
0e
ea
19
00
24
31
d1
1b
13
# Kernel Plane: OutputChannel=6, InputChannel=26
e1
e4
12
55
c5
cf
cd
1c
ba
f4
0f
37
f1
cd
fc
27
# Kernel Plane: OutputChannel=6, InputChannel=27
4b
18
e1
ef
f5
00
da
03
fa
db
23
ef
18
ca
2a
30
# Kernel Plane: OutputChannel=6, InputChannel=28
17
17
d6
ca
15
de
0d
fc
11
de
ea
e1
03
1e
1a
f4
# Kernel Plane: OutputChannel=6, InputChannel=29
a5
f5
18
32
4e
0f
e7
17
a5
e5
da
f8
13
1e
f6
cf
# Kernel Plane: OutputChannel=6, InputChannel=30
0c
0d
f8
bc
f2
ea
22
ba
08
02
fc
bc
16
f1
13
b3
# Kernel Plane: OutputChannel=6, InputChannel=31
cd
2a
f9
e7
02
22
fc
02
da
ea
e5
b1
c7
36
44
de
# Kernel Plane: OutputChannel=7, InputChannel=0
ee
25
1c
e4
0b
fc
0e
f1
e4
f8
e2
de
40
21
0c
a0
# Kernel Plane: OutputChannel=7, InputChannel=1
d5
ef
ce
b9
2c
f3
df
14
1b
0c
1f
0b
d2
ca
02
d3
# Kernel Plane: OutputChannel=7, InputChannel=2
05
c6
c6
12
3c
c1
cc
06
2b
ab
f7
16
cf
0e
21
1d
# Kernel Plane: OutputChannel=7, InputChannel=3
ce
17
12
fe
ea
d5
0b
13
08
f9
13
e8
04
eb
11
ed
# Kernel Plane: OutputChannel=7, InputChannel=4
29
54
d7
f5
a8
fc
ce
ed
14
03
ce
d9
1a
36
f1
ce
# Kernel Plane: OutputChannel=7, InputChannel=5
fb
d4
31
19
98
bd
c5
1f
f8
e2
e1
10
ea
bf
1c
33
# Kernel Plane: OutputChannel=7, InputChannel=6
05
f2
3b
2a
e9
14
16
0d
fa
13
40
2b
e6
0e
2d
0c
# Kernel Plane: OutputChannel=7, InputChannel=7
d5
54
2c
1d
c4
f1
eb
df
09
f3
c6
21
e1
2a
2a
0e
# Kernel Plane: OutputChannel=7, InputChannel=8
f7
1d
fa
44
c7
e5
c8
18
12
47
f6
35
f0
48
2a
fb
# Kernel Plane: OutputChannel=7, InputChannel=9
eb
fe
16
e4
dd
fa
be
18
f6
ea
81
ce
8c
00
04
b3
# Kernel Plane: OutputChannel=7, InputChannel=10
ef
c9
ad
44
0c
c7
f0
0e
ee
fb
03
1d
1d
23
f1
fe
# Kernel Plane: OutputChannel=7, InputChannel=11
15
dd
05
28
1b
f8
e3
de
de
10
fa
2f
f9
e8
04
fd
# Kernel Plane: OutputChannel=7, InputChannel=12
07
08
00
ff
06
f7
03
ef
10
06
0f
ed
0d
ff
f2
f7
# Kernel Plane: OutputChannel=7, InputChannel=13
06
97
1d
34
00
d2
f9
42
f6
a0
f6
27
c9
ce
2b
3a
# Kernel Plane: OutputChannel=7, InputChannel=14
f9
0b
fa
fb
ea
bd
1f
0f
22
e4
e9
2d
e9
ba
12
cc
# Kernel Plane: OutputChannel=7, InputChannel=15
ef
e4
3f
09
05
37
29
18
cf
14
02
e7
e9
bd
a2
cb
# Kernel Plane: OutputChannel=7, InputChannel=16
03
31
09
1d
de
f7
f4
f8
f9
06
ca
d9
d4
1c
06
f7
# Kernel Plane: OutputChannel=7, InputChannel=17
12
27
d7
f6
d0
c5
ea
fe
f7
1e
13
13
24
19
0f
ec
# Kernel Plane: OutputChannel=7, InputChannel=18
0e
31
13
f5
1b
e2
eb
03
0e
fd
f7
cd
f8
1c
1f
db
# Kernel Plane: OutputChannel=7, InputChannel=19
16
10
54
10
f7
d6
11
1b
e3
1c
0d
d7
27
01
06
9d
# Kernel Plane: OutputChannel=7, InputChannel=20
da
ac
16
dc
f8
f1
02
1b
0f
ec
1f
15
42
aa
cd
fd
# Kernel Plane: OutputChannel=7, InputChannel=21
f6
e3
2d
50
dd
18
1f
df
c9
30
50
12
c3
0d
1c
02
# Kernel Plane: OutputChannel=7, InputChannel=22
1d
4b
f8
e3
dd
c5
fd
f2
3f
15
f5
0c
00
aa
ef
8a
# Kernel Plane: OutputChannel=7, InputChannel=23
12
b6
c5
06
df
c8
f6
0b
4a
fd
0e
01
eb
21
eb
d1
# Kernel Plane: OutputChannel=7, InputChannel=24
c3
16
fc
03
bc
ee
02
ed
0f
e7
ff
01
c4
21
2d
fc
# Kernel Plane: OutputChannel=7, InputChannel=25
3c
08
18
19
11
26
fb
d4
0c
f7
da
06
01
21
2b
0c
# Kernel Plane: OutputChannel=7, InputChannel=26
ea
b1
f3
47
fe
b1
e3
21
09
de
cf
f8
1c
2f
ff
da
# Kernel Plane: OutputChannel=7, InputChannel=27
ec
e7
06
04
cc
d9
27
0e
1d
e3
01
15
e4
3f
2d
27
# Kernel Plane: OutputChannel=7, InputChannel=28
47
bd
e1
b3
0f
cb
14
01
1c
ff
05
2b
22
02
10
2b
# Kernel Plane: OutputChannel=7, InputChannel=29
ab
c1
0e
f3
96
d4
22
18
9f
f1
21
04
cd
f8
1e
02
# Kernel Plane: OutputChannel=7, InputChannel=30
0b
e7
1e
08
fa
07
f7
06
10
15
bc
0d
14
f6
e0
e3
# Kernel Plane: OutputChannel=7, InputChannel=31
2a
e2
24
d3
ff
ff
2d
1e
e9
e4
06
fd
d7
de
0f
e8
# Kernel Plane: OutputChannel=8, InputChannel=0
e6
ef
d6
fa
fb
ef
cc
0d
e9
06
d0
12
ea
32
f0
26
# Kernel Plane: OutputChannel=8, InputChannel=1
ad
9c
cb
04
ca
15
83
ee
f6
e5
2b
d9
00
f2
34
31
# Kernel Plane: OutputChannel=8, InputChannel=2
17
24
12
c4
99
07
e8
be
dc
12
32
c8
1f
e9
f8
f3
# Kernel Plane: OutputChannel=8, InputChannel=3
d4
dc
f1
ee
c9
d3
35
d3
bc
ed
2d
fb
e7
e9
41
08
# Kernel Plane: OutputChannel=8, InputChannel=4
fd
f5
ed
1f
ac
d9
e2
23
26
d5
1c
fe
c6
44
ec
0d
# Kernel Plane: OutputChannel=8, InputChannel=5
06
08
19
e5
1e
dd
0a
02
30
41
da
f1
4d
c3
03
e7
# Kernel Plane: OutputChannel=8, InputChannel=6
d4
05
02
29
f5
2e
e8
01
1e
01
14
17
e4
1f
dc
dd
# Kernel Plane: OutputChannel=8, InputChannel=7
35
07
de
36
43
f0
0d
11
19
0a
05
20
e8
e0
17
e6
# Kernel Plane: OutputChannel=8, InputChannel=8
fd
15
e6
11
fe
24
df
07
01
03
f9
e3
e8
e3
d1
e9
# Kernel Plane: OutputChannel=8, InputChannel=9
31
ec
dd
f0
19
34
47
df
fb
07
de
c1
f6
ae
14
d8
# Kernel Plane: OutputChannel=8, InputChannel=10
00
fb
22
0f
c3
ef
25
f8
27
01
d7
a7
37
08
e9
de
# Kernel Plane: OutputChannel=8, InputChannel=11
df
cd
f4
fa
19
d4
d1
f4
e9
d4
1f
05
f3
04
20
aa
# Kernel Plane: OutputChannel=8, InputChannel=12
01
f4
ec
fa
0a
fb
f8
f0
f5
fb
ff
f6
ed
0a
10
05
# Kernel Plane: OutputChannel=8, InputChannel=13
08
cc
bd
81
cb
03
b0
f7
bd
f0
14
df
fb
ec
1e
05
# Kernel Plane: OutputChannel=8, InputChannel=14
84
ca
e5
e9
d1
2a
21
0e
f7
e2
09
12
d9
9f
26
35
# Kernel Plane: OutputChannel=8, InputChannel=15
f1
03
f6
17
2c
fb
cc
e4
30
d4
f7
f3
c1
f0
fb
1f
# Kernel Plane: OutputChannel=8, InputChannel=16
39
1c
1c
02
02
11
16
d2
34
02
3d
dd
0e
df
39
f8
# Kernel Plane: OutputChannel=8, InputChannel=17
b4
0d
ca
eb
eb
e1
00
fd
d0
0d
0f
e3
48
30
ef
ef
# Kernel Plane: OutputChannel=8, InputChannel=18
f5
16
3c
2d
d2
f2
41
2d
fb
b6
f8
ff
eb
f5
20
fb
# Kernel Plane: OutputChannel=8, InputChannel=19
f2
1d
64
fd
ea
24
ea
01
fe
d4
a7
0a
fc
c0
eb
04
# Kernel Plane: OutputChannel=8, InputChannel=20
35
e6
da
cc
0b
de
e9
ec
ec
36
fe
c9
1c
f3
f5
fa
# Kernel Plane: OutputChannel=8, InputChannel=21
f4
f0
17
28
23
ba
24
06
33
e6
1b
0c
1e
24
fd
3d
# Kernel Plane: OutputChannel=8, InputChannel=22
d3
0e
de
1e
0e
00
09
03
16
fa
1d
10
ea
b6
be
ca
# Kernel Plane: OutputChannel=8, InputChannel=23
e7
de
0f
e4
e2
ed
26
a3
00
28
f4
ce
23
e3
df
ff
# Kernel Plane: OutputChannel=8, InputChannel=24
fb
f5
14
18
e7
f8
36
18
f9
f8
10
f3
1f
13
d7
0f
# Kernel Plane: OutputChannel=8, InputChannel=25
27
25
02
f5
0f
fc
ee
04
03
f1
3e
ea
f8
3f
fa
03
# Kernel Plane: OutputChannel=8, InputChannel=26
2a
f6
ed
21
27
9d
16
06
fb
d6
06
d3
dd
0a
1b
fb
# Kernel Plane: OutputChannel=8, InputChannel=27
1c
ea
ec
22
f8
18
b9
27
28
12
cd
eb
15
cd
db
1f
# Kernel Plane: OutputChannel=8, InputChannel=28
ef
13
01
f9
ee
09
29
c0
11
fb
d8
e3
4d
f8
c6
ff
# Kernel Plane: OutputChannel=8, InputChannel=29
0d
b5
fc
20
ed
d8
f6
12
d6
13
f5
12
2d
1c
ec
fe
# Kernel Plane: OutputChannel=8, InputChannel=30
14
fc
e4
15
d6
21
05
32
27
dc
e3
08
e4
0a
f3
e6
# Kernel Plane: OutputChannel=8, InputChannel=31
01
17
05
07
2e
0a
0e
01
1b
24
11
fd
dc
9a
3f
e8
# Kernel Plane: OutputChannel=9, InputChannel=0
cc
9a
0c
42
1b
00
e5
b8
22
3a
e5
f0
23
06
0c
b6
# Kernel Plane: OutputChannel=9, InputChannel=1
21
24
4a
3f
a1
fe
c0
1e
fd
06
08
f3
ee
2f
49
f8
# Kernel Plane: OutputChannel=9, InputChannel=2
2c
26
03
22
3f
23
e8
ff
f6
04
3e
21
11
fc
25
1b
# Kernel Plane: OutputChannel=9, InputChannel=3
24
00
02
49
ad
fb
ee
f6
dd
e4
0e
10
e6
27
06
f1
# Kernel Plane: OutputChannel=9, InputChannel=4
2f
29
23
03
d8
16
df
91
06
1a
f8
a4
df
0f
18
e2
# Kernel Plane: OutputChannel=9, InputChannel=5
e2
fd
fa
e2
27
da
e0
d9
21
fb
03
e3
ff
20
0f
30
# Kernel Plane: OutputChannel=9, InputChannel=6
ee
eb
13
09
0d
05
d5
f2
d9
f9
c5
e7
db
38
b5
f7
# Kernel Plane: OutputChannel=9, InputChannel=7
1a
08
24
28
e4
c6
1a
24
3a
0c
11
c8
41
3a
0e
13
# Kernel Plane: OutputChannel=9, InputChannel=8
ef
fe
d3
cc
eb
32
b3
bc
01
26
fe
ff
dc
1b
d9
4d
# Kernel Plane: OutputChannel=9, InputChannel=9
ec
da
c6
05
37
38
0b
f1
07
25
2f
15
d4
eb
e7
f6
# Kernel Plane: OutputChannel=9, InputChannel=10
f5
29
ef
1a
e2
1a
f6
b8
0f
b5
e0
3c
12
1d
06
03
# Kernel Plane: OutputChannel=9, InputChannel=11
28
26
07
41
f8
f1
ee
2d
e4
db
fc
e4
1f
10
e2
2c
# Kernel Plane: OutputChannel=9, InputChannel=12
07
fa
00
09
fa
e1
05
fb
f7
f1
eb
eb
03
fb
08
f4
# Kernel Plane: OutputChannel=9, InputChannel=13
24
b5
fb
fa
34
3f
fc
23
d6
f1
31
1d
be
fe
fe
3b
# Kernel Plane: OutputChannel=9, InputChannel=14
f9
16
d8
3b
e2
3c
fd
51
d1
c7
13
d1
1e
f3
f6
23
# Kernel Plane: OutputChannel=9, InputChannel=15
da
d0
de
a9
27
d6
d6
81
23
35
13
cb
f0
2c
0e
d2
# Kernel Plane: OutputChannel=9, InputChannel=16
e4
e7
0d
d8
1c
d6
f4
05
08
1b
aa
dd
14
3a
f3
d7
# Kernel Plane: OutputChannel=9, InputChannel=17
ff
14
08
e0
c1
0a
f7
f8
db
ef
dc
eb
f8
24
ee
2f
# Kernel Plane: OutputChannel=9, InputChannel=18
e5
ec
fb
1f
03
14
d9
f5
f2
06
dd
ae
df
2a
da
f5
# Kernel Plane: OutputChannel=9, InputChannel=19
1c
d3
01
a1
33
fb
1c
82
cf
f9
d3
ae
fe
24
fd
e0
# Kernel Plane: OutputChannel=9, InputChannel=20
f4
f2
fa
bf
02
17
c8
16
de
f8
0f
03
fb
f4
18
21
# Kernel Plane: OutputChannel=9, InputChannel=21
21
1c
22
9f
34
f0
21
bc
fd
e1
d0
c1
2b
07
e5
ed
# Kernel Plane: OutputChannel=9, InputChannel=22
f5
1f
36
f2
b8
bc
c7
14
f1
ef
ce
ec
23
10
0b
3c
# Kernel Plane: OutputChannel=9, InputChannel=23
97
d3
fd
0f
d4
c2
f9
ff
0e
f8
e6
23
f6
e7
09
25
# Kernel Plane: OutputChannel=9, InputChannel=24
a4
c6
d3
0f
db
15
df
e1
e5
e1
e5
2f
ee
ef
ed
3b
# Kernel Plane: OutputChannel=9, InputChannel=25
0b
f5
2f
05
df
d6
d9
f2
c2
ef
2d
a9
e5
24
e2
18
# Kernel Plane: OutputChannel=9, InputChannel=26
04
d3
f8
41
08
03
08
c8
e1
a5
c3
20
d1
0c
da
fc
# Kernel Plane: OutputChannel=9, InputChannel=27
c4
a8
05
aa
1b
b8
0e
87
3c
2a
27
9b
fd
0e
e6
e4
# Kernel Plane: OutputChannel=9, InputChannel=28
10
1b
3b
14
fa
94
35
ae
e3
fd
f4
ff
d0
12
f3
b4
# Kernel Plane: OutputChannel=9, InputChannel=29
48
16
32
d0
32
48
2e
c9
c8
fe
f9
d1
dd
d4
f4
e0
# Kernel Plane: OutputChannel=9, InputChannel=30
0b
ee
0e
be
12
d8
e1
e1
f1
42
1c
cb
f3
33
03
e4
# Kernel Plane: OutputChannel=9, InputChannel=31
9b
b6
3f
02
ea
ec
3f
ea
1e
07
dd
0a
bc
02
2a
00
# Kernel Plane: OutputChannel=10, InputChannel=0
fb
09
e6
e7
c7
f4
30
15
b3
d9
23
25
09
07
44
0b
# Kernel Plane: OutputChannel=10, InputChannel=1
a5
d5
cf
e7
d4
ff
2e
f5
fc
b7
11
29
dc
d4
d5
12
# Kernel Plane: OutputChannel=10, InputChannel=2
cd
0f
4a
ec
03
fa
13
d6
eb
f1
0e
ce
db
e5
10
d9
# Kernel Plane: OutputChannel=10, InputChannel=3
de
eb
05
04
11
f9
06
de
29
11
0c
ea
c9
de
3e
2b
# Kernel Plane: OutputChannel=10, InputChannel=4
0f
09
00
10
f7
e5
05
e9
0d
0f
0e
ea
24
3f
2f
0d
# Kernel Plane: OutputChannel=10, InputChannel=5
24
ef
fc
22
23
e4
ba
d5
d7
06
08
c6
2f
0b
fe
f9
# Kernel Plane: OutputChannel=10, InputChannel=6
01
24
14
e6
09
f3
3b
fc
2f
fe
13
19
0c
f5
12
11
# Kernel Plane: OutputChannel=10, InputChannel=7
1c
2a
45
11
ec
e8
0d
fc
26
10
02
f9
14
ed
43
0f
# Kernel Plane: OutputChannel=10, InputChannel=8
f8
14
30
f0
0c
f6
e8
f7
cf
29
15
14
e4
0c
f1
ec
# Kernel Plane: OutputChannel=10, InputChannel=9
19
3d
14
e5
e5
dc
0e
eb
eb
e9
05
0a
d7
39
d9
f3
# Kernel Plane: OutputChannel=10, InputChannel=10
ed
d4
ee
00
f4
d9
04
f4
2e
13
16
04
0c
07
16
b7
# Kernel Plane: OutputChannel=10, InputChannel=11
f2
e4
ec
ef
ee
da
15
f0
0a
f6
f0
c6
38
19
1b
f5
# Kernel Plane: OutputChannel=10, InputChannel=12
f5
07
05
0d
fb
fe
f8
06
fa
05
f7
08
f7
f7
05
12
# Kernel Plane: OutputChannel=10, InputChannel=13
fe
23
cf
c8
18
09
fc
c5
f7
0f
fe
be
2a
1f
0c
81
# Kernel Plane: OutputChannel=10, InputChannel=14
d9
ee
d6
ee
f6
da
06
f9
f9
ff
e2
0f
db
95
e6
28
# Kernel Plane: OutputChannel=10, InputChannel=15
08
02
0c
da
08
f7
dd
05
21
ee
e8
01
cf
f4
fe
f9
# Kernel Plane: OutputChannel=10, InputChannel=16
24
11
0d
29
fa
d2
06
f9
eb
11
05
0a
f6
e5
d2
15
# Kernel Plane: OutputChannel=10, InputChannel=17
fc
fb
0d
0b
e9
00
0b
05
16
0d
00
19
07
05
0c
03
# Kernel Plane: OutputChannel=10, InputChannel=18
fd
da
1a
00
d1
02
3a
f4
f9
ec
06
06
38
0b
1d
20
# Kernel Plane: OutputChannel=10, InputChannel=19
f7
fb
1e
16
14
16
24
fb
f8
08
0e
f2
fe
f5
e5
eb
# Kernel Plane: OutputChannel=10, InputChannel=20
fd
01
15
e8
f8
15
d0
df
f3
14
fc
dd
21
07
ed
cb
# Kernel Plane: OutputChannel=10, InputChannel=21
c7
10
ff
fe
02
09
fe
17
17
fe
08
e7
27
10
1a
11
# Kernel Plane: OutputChannel=10, InputChannel=22
d2
22
f2
13
ab
cb
0c
12
9c
01
2f
1d
f1
08
ff
0d
# Kernel Plane: OutputChannel=10, InputChannel=23
17
26
f7
07
07
0e
ea
d8
ff
01
03
d7
f4
e6
0f
dd
# Kernel Plane: OutputChannel=10, InputChannel=24
03
3f
37
f7
e5
11
fa
f7
e0
2e
e5
ea
f2
17
ee
f0
# Kernel Plane: OutputChannel=10, InputChannel=25
c9
18
f9
13
ea
e1
fb
21
f6
db
f2
fd
dc
0e
fb
0b
# Kernel Plane: OutputChannel=10, InputChannel=26
af
f4
07
28
00
34
ef
f8
f7
19
2c
ec
11
fa
1e
01
# Kernel Plane: OutputChannel=10, InputChannel=27
20
f5
f1
f7
f9
2c
e2
ff
f0
04
cc
0e
05
0a
11
26
# Kernel Plane: OutputChannel=10, InputChannel=28
e5
b0
d3
f1
c5
da
ed
06
d2
e2
de
01
03
05
07
1f
# Kernel Plane: OutputChannel=10, InputChannel=29
c5
0f
b0
0e
ee
ea
bd
ff
c0
00
e9
0c
0b
dc
f7
e7
# Kernel Plane: OutputChannel=10, InputChannel=30
e7
ff
00
19
cc
00
db
fc
02
05
dd
ef
03
06
17
ce
# Kernel Plane: OutputChannel=10, InputChannel=31
3c
52
f5
c9
23
1b
fe
c0
0c
1d
df
ec
43
3d
05
f0
# Kernel Plane: OutputChannel=11, InputChannel=0
00
9c
cb
8f
03
dd
03
19
03
e8
e1
67
f2
de
db
dd
# Kernel Plane: OutputChannel=11, InputChannel=1
b3
06
1f
3c
9e
05
e8
18
1b
47
31
6d
07
0c
f9
0e
# Kernel Plane: OutputChannel=11, InputChannel=2
0c
25
17
db
fb
de
0a
e7
d7
05
d7
e8
ed
b4
cb
f1
# Kernel Plane: OutputChannel=11, InputChannel=3
d2
c7
04
97
fa
10
ee
94
f1
0d
d6
f9
e6
fc
08
ed
# Kernel Plane: OutputChannel=11, InputChannel=4
3c
0c
db
ea
eb
c3
1a
18
f4
0a
17
dc
e4
ef
f6
b2
# Kernel Plane: OutputChannel=11, InputChannel=5
94
35
10
2d
dd
06
ec
e7
f7
ff
ed
e2
ed
ec
19
1c
# Kernel Plane: OutputChannel=11, InputChannel=6
1a
ea
22
c1
ef
10
4e
3b
0f
2f
de
23
0f
05
f0
d7
# Kernel Plane: OutputChannel=11, InputChannel=7
1c
a0
db
bd
07
eb
fd
0e
fe
04
43
37
e2
e8
f0
fc
# Kernel Plane: OutputChannel=11, InputChannel=8
e6
0a
27
38
dc
24
04
02
f0
f7
f4
f6
f2
de
fb
16
# Kernel Plane: OutputChannel=11, InputChannel=9
cc
ff
c5
69
15
2c
b3
fc
17
3e
e1
3b
e2
e1
c0
db
# Kernel Plane: OutputChannel=11, InputChannel=10
fe
0e
05
ba
ca
07
20
1c
1c
de
12
d2
d9
f2
fc
cb
# Kernel Plane: OutputChannel=11, InputChannel=11
21
e9
33
53
f5
a5
d4
e6
f4
0e
19
42
e4
0e
fc
db
# Kernel Plane: OutputChannel=11, InputChannel=12
fc
25
13
13
0e
17
1e
15
01
f0
02
08
04
0e
fa
10
# Kernel Plane: OutputChannel=11, InputChannel=13
1b
47
11
0c
17
c5
fe
15
09
ed
98
d5
f1
ca
c3
d1
# Kernel Plane: OutputChannel=11, InputChannel=14
dc
c5
04
f1
bb
14
09
de
20
f3
1a
2d
ea
01
d4
13
# Kernel Plane: OutputChannel=11, InputChannel=15
2b
d7
fa
ed
f2
c0
f7
bf
22
b5
07
f2
d7
d0
e7
e8
# Kernel Plane: OutputChannel=11, InputChannel=16
f7
cd
1b
e8
15
d0
ed
eb
b1
f6
36
33
c9
b5
ee
fc
# Kernel Plane: OutputChannel=11, InputChannel=17
fd
e7
f0
ea
f1
8b
f1
2b
04
31
fa
1c
ce
e8
f4
d5
# Kernel Plane: OutputChannel=11, InputChannel=18
f1
ef
e4
01
ef
b2
b1
40
24
d0
09
50
d0
ef
ce
d4
# Kernel Plane: OutputChannel=11, InputChannel=19
66
b6
16
8b
f7
a0
a1
fb
fe
ba
f2
05
eb
c9
e3
d5
# Kernel Plane: OutputChannel=11, InputChannel=20
13
f8
fb
1d
f3
e1
e4
bf
19
ba
d8
b8
d6
12
d0
c8
# Kernel Plane: OutputChannel=11, InputChannel=21
e2
1d
01
f6
e6
fc
0a
c2
1b
13
49
3f
0a
e1
df
f7
# Kernel Plane: OutputChannel=11, InputChannel=22
de
17
e0
c3
04
09
0f
56
dc
fc
df
e0
e4
ec
af
c9
# Kernel Plane: OutputChannel=11, InputChannel=23
c2
cf
d2
f7
10
f9
eb
ba
0f
fb
d3
94
ec
ca
f5
dd
# Kernel Plane: OutputChannel=11, InputChannel=24
e6
ef
fb
08
fa
28
d5
4d
1e
01
dc
dd
e8
d8
c6
c1
# Kernel Plane: OutputChannel=11, InputChannel=25
d8
cb
ec
0d
ad
a7
cb
03
a8
21
09
d2
e9
ed
1c
0a
# Kernel Plane: OutputChannel=11, InputChannel=26
f4
20
d3
1c
e6
f4
0f
51
19
b4
02
ef
df
f7
15
c7
# Kernel Plane: OutputChannel=11, InputChannel=27
fb
e5
ed
20
14
e9
d1
f6
e3
0d
32
02
d8
db
f9
dc
# Kernel Plane: OutputChannel=11, InputChannel=28
e4
ec
02
d2
ec
d4
c5
81
ee
f6
97
16
fa
f7
a1
d6
# Kernel Plane: OutputChannel=11, InputChannel=29
e1
1a
c5
d8
e6
11
fa
fe
0f
f1
be
ed
e4
a9
b0
f8
# Kernel Plane: OutputChannel=11, InputChannel=30
34
0f
fe
ae
13
10
13
ea
d8
c2
17
bc
ec
cf
ff
d0
# Kernel Plane: OutputChannel=11, InputChannel=31
dc
18
43
4c
22
f9
64
78
2a
f4
0b
7c
02
c4
99
b3
# Kernel Plane: OutputChannel=12, InputChannel=0
e8
f8
e9
27
de
e2
e3
22
f2
f5
e3
05
3c
1f
23
f8
# Kernel Plane: OutputChannel=12, InputChannel=1
be
12
d5
27
e1
da
ad
ba
f5
fe
ce
d3
32
61
35
3e
# Kernel Plane: OutputChannel=12, InputChannel=2
31
30
04
18
0b
27
d2
e9
2c
0c
e8
eb
fb
d6
fd
01
# Kernel Plane: OutputChannel=12, InputChannel=3
d9
2c
14
28
01
d4
cb
ce
23
17
c2
0d
fc
f9
14
61
# Kernel Plane: OutputChannel=12, InputChannel=4
d0
08
06
0c
e5
12
05
14
18
fd
16
e3
17
1b
f5
e5
# Kernel Plane: OutputChannel=12, InputChannel=5
0e
18
0f
2c
09
fa
13
ca
f9
e6
d2
fc
25
05
18
fb
# Kernel Plane: OutputChannel=12, InputChannel=6
d5
01
eb
fa
d5
1a
00
f9
0b
0a
fa
09
1c
f7
07
00
# Kernel Plane: OutputChannel=12, InputChannel=7
09
14
f0
0e
e8
0e
ff
0e
fa
22
d8
dd
05
01
2c
09
# Kernel Plane: OutputChannel=12, InputChannel=8
33
0f
2f
02
ec
d1
1d
d3
be
f2
0c
fb
f0
20
e2
36
# Kernel Plane: OutputChannel=12, InputChannel=9
31
1c
0a
00
f4
f1
f4
c3
05
1a
ef
1b
cd
db
f2
17
# Kernel Plane: OutputChannel=12, InputChannel=10
10
32
04
0d
ee
df
d6
ee
f7
ce
0c
dd
fd
06
10
06
# Kernel Plane: OutputChannel=12, InputChannel=11
d5
11
0d
d1
cf
f6
0a
fc
f8
12
db
e1
f8
12
de
2d
# Kernel Plane: OutputChannel=12, InputChannel=12
02
04
11
0c
02
fd
0b
17
f6
fe
f9
19
fe
fe
0e
0d
# Kernel Plane: OutputChannel=12, InputChannel=13
41
20
f1
1c
27
15
01
02
36
f5
d8
22
0b
1d
f9
d7
# Kernel Plane: OutputChannel=12, InputChannel=14
c9
f9
27
03
ff
04
f8
ce
1b
12
dc
12
06
09
ff
1d
# Kernel Plane: OutputChannel=12, InputChannel=15
0b
e9
f1
34
ef
de
06
1c
ca
f2
ee
fc
c2
27
ff
f4
# Kernel Plane: OutputChannel=12, InputChannel=16
0c
f8
fb
10
ee
01
e1
f5
b4
f7
e9
f4
d0
ef
f4
df
# Kernel Plane: OutputChannel=12, InputChannel=17
f1
e7
0f
e7
ef
e0
01
f3
06
e7
fa
e6
13
05
fa
02
# Kernel Plane: OutputChannel=12, InputChannel=18
f0
04
f8
0c
06
ed
e2
29
03
de
f5
ff
f1
fe
f1
f7
# Kernel Plane: OutputChannel=12, InputChannel=19
fe
f0
ee
1b
fe
fe
f1
0b
06
0f
f8
e8
10
1b
0a
1a
# Kernel Plane: OutputChannel=12, InputChannel=20
1d
e7
06
fe
1f
0c
0a
15
0b
fd
de
fb
2d
f6
0d
02
# Kernel Plane: OutputChannel=12, InputChannel=21
08
0b
fe
15
16
04
df
d4
08
ef
d5
e4
0f
25
0d
fb
# Kernel Plane: OutputChannel=12, InputChannel=22
f4
10
1a
29
c8
ba
de
19
cd
cd
1b
38
43
ea
e0
16
# Kernel Plane: OutputChannel=12, InputChannel=23
3c
23
16
1c
09
f4
e9
f5
ed
04
ec
15
27
f9
ea
e8
# Kernel Plane: OutputChannel=12, InputChannel=24
f7
fc
fc
ec
26
fa
ee
e7
2a
15
f7
03
27
16
fc
f0
# Kernel Plane: OutputChannel=12, InputChannel=25
ec
f0
35
f2
f4
f6
d3
e7
cf
e5
fe
e9
eb
f5
f5
09
# Kernel Plane: OutputChannel=12, InputChannel=26
04
f5
1c
ce
11
f4
fd
ed
fc
ff
14
f3
e1
1b
0e
de
# Kernel Plane: OutputChannel=12, InputChannel=27
15
0a
f3
19
08
f9
17
f5
e6
b8
01
f7
e2
fd
f4
0b
# Kernel Plane: OutputChannel=12, InputChannel=28
f1
01
0f
2c
fb
f5
0e
0f
e6
1e
f2
e4
27
f9
ee
ec
# Kernel Plane: OutputChannel=12, InputChannel=29
03
f2
21
ec
22
e3
eb
11
e1
fd
d2
04
f3
de
1c
e6
# Kernel Plane: OutputChannel=12, InputChannel=30
fe
d8
05
10
d9
18
07
1d
f7
0c
f6
f3
e8
13
0f
49
# Kernel Plane: OutputChannel=12, InputChannel=31
f5
1e
03
16
e0
31
19
1e
0a
00
36
7f
0c
fd
e3
cc
# Kernel Plane: OutputChannel=13, InputChannel=0
a6
d4
ed
dd
e8
b4
20
c1
12
40
32
1f
d5
1d
37
de
# Kernel Plane: OutputChannel=13, InputChannel=1
b4
23
10
0d
1c
c1
00
c7
03
e1
fe
09
43
06
13
ff
# Kernel Plane: OutputChannel=13, InputChannel=2
f6
17
d2
ed
18
a9
b8
0d
f8
1d
f1
f3
ef
cf
1f
bb
# Kernel Plane: OutputChannel=13, InputChannel=3
e5
15
04
15
33
c6
b8
b5
ed
f0
a7
e5
01
3c
c5
b9
# Kernel Plane: OutputChannel=13, InputChannel=4
1a
e1
33
8d
bd
33
d6
f3
25
0c
2c
00
df
17
26
b1
# Kernel Plane: OutputChannel=13, InputChannel=5
cf
a3
21
1c
d7
d9
fb
e3
40
1f
0b
d8
ac
2c
29
4f
# Kernel Plane: OutputChannel=13, InputChannel=6
b5
ce
ae
34
b6
c6
4d
2c
17
39
da
3a
43
13
b5
3d
# Kernel Plane: OutputChannel=13, InputChannel=7
15
a5
b7
bd
e4
88
fa
a1
a7
14
90
1b
a9
1a
a4
c3
# Kernel Plane: OutputChannel=13, InputChannel=8
ef
e7
40
3a
d1
d6
2f
da
b8
09
e1
b1
cc
cd
1b
14
# Kernel Plane: OutputChannel=13, InputChannel=9
0e
d3
0d
26
47
c0
a0
ef
a7
ad
cc
b6
b2
52
a8
ea
# Kernel Plane: OutputChannel=13, InputChannel=10
14
f7
b6
cf
f4
0d
a0
c8
ce
ef
e9
da
3c
12
ee
f0
# Kernel Plane: OutputChannel=13, InputChannel=11
ad
d9
f9
89
08
ae
d0
f5
c2
b7
20
df
21
39
8f
03
# Kernel Plane: OutputChannel=13, InputChannel=12
e0
ac
c7
4d
d4
c5
3c
b7
b3
48
39
37
20
15
aa
1b
# Kernel Plane: OutputChannel=13, InputChannel=13
10
28
29
ea
95
b0
4b
b8
12
f0
ee
d2
16
b6
8a
11
# Kernel Plane: OutputChannel=13, InputChannel=14
f2
91
1d
ed
db
0c
f3
ac
c5
8f
08
24
f0
ab
93
f3
# Kernel Plane: OutputChannel=13, InputChannel=15
c1
b1
e8
cc
bb
d6
e9
98
b1
c6
9f
ab
09
a6
43
b8
# Kernel Plane: OutputChannel=13, InputChannel=16
2a
09
f6
b9
e4
29
b0
03
17
d6
a9
d2
f4
e9
ce
c5
# Kernel Plane: OutputChannel=13, InputChannel=17
27
d5
b5
34
cc
1c
b2
df
31
13
26
8c
ad
23
ff
d6
# Kernel Plane: OutputChannel=13, InputChannel=18
dc
dc
0e
da
ad
a9
08
e2
0d
37
38
ba
f4
9f
a9
de
# Kernel Plane: OutputChannel=13, InputChannel=19
03
d1
2a
d6
fb
a9
fe
d7
ce
93
02
c1
27
ad
e5
a7
# Kernel Plane: OutputChannel=13, InputChannel=20
ae
e6
0d
bf
1b
9a
2d
87
e6
2c
da
b3
f1
f1
3e
95
# Kernel Plane: OutputChannel=13, InputChannel=21
31
25
0b
89
1d
fc
e4
99
fb
a2
bc
d8
d0
ce
28
b8
# Kernel Plane: OutputChannel=13, InputChannel=22
41
b5
05
b1
f1
a7
ae
1d
1d
f3
c9
ae
f5
ed
48
2a
# Kernel Plane: OutputChannel=13, InputChannel=23
ac
19
0b
25
14
bf
bd
1e
b8
b7
f1
c2
f8
b4
2c
1d
# Kernel Plane: OutputChannel=13, InputChannel=24
c6
ec
f3
f1
0d
96
ba
c5
43
c1
b5
18
0f
c9
c5
95
# Kernel Plane: OutputChannel=13, InputChannel=25
ca
81
ca
1a
b2
90
40
f9
d7
24
20
f3
21
00
c6
19
# Kernel Plane: OutputChannel=13, InputChannel=26
a8
09
c3
e1
15
ac
f0
92
d3
bb
d6
22
c5
cd
2c
12
# Kernel Plane: OutputChannel=13, InputChannel=27
d8
f5
ca
29
b0
b7
f0
02
35
ff
86
14
02
ef
cd
26
# Kernel Plane: OutputChannel=13, InputChannel=28
b5
18
86
a2
27
f3
03
9a
cc
9d
e4
22
1b
bf
e0
b1
# Kernel Plane: OutputChannel=13, InputChannel=29
c9
bd
16
ac
f4
df
c7
ad
11
fa
d7
ed
13
23
35
be
# Kernel Plane: OutputChannel=13, InputChannel=30
cd
d3
23
1a
9a
f8
9d
11
ca
09
a2
1a
f4
c4
bf
a7
# Kernel Plane: OutputChannel=13, InputChannel=31
3c
20
50
b2
38
d9
ce
4b
f5
c5
be
2e
46
f8
02
04
# Kernel Plane: OutputChannel=14, InputChannel=0
07
c4
c9
e5
ca
0a
c2
bd
27
d9
be
df
ff
e0
f1
cf
# Kernel Plane: OutputChannel=14, InputChannel=1
dc
d9
1c
2f
d7
ee
01
0d
1c
0e
e0
0c
f0
3d
f1
d1
# Kernel Plane: OutputChannel=14, InputChannel=2
c0
d7
ce
db
c9
cc
df
d4
06
29
f7
cf
cb
06
fd
e5
# Kernel Plane: OutputChannel=14, InputChannel=3
ce
11
ef
1b
04
0d
f0
d6
e4
1a
0d
0f
d7
f2
d7
ff
# Kernel Plane: OutputChannel=14, InputChannel=4
0d
b5
03
0c
ad
ee
c4
09
ef
b1
f3
ae
05
d5
c7
fa
# Kernel Plane: OutputChannel=14, InputChannel=5
ff
b1
1b
00
f1
ea
d9
e9
ca
04
0c
e4
42
98
00
09
# Kernel Plane: OutputChannel=14, InputChannel=6
d2
0c
0d
14
f6
d5
24
1b
56
1d
24
da
56
15
dc
eb
# Kernel Plane: OutputChannel=14, InputChannel=7
e7
af
2b
f1
ff
b8
de
ef
11
0e
e6
e8
f6
c3
c7
b3
# Kernel Plane: OutputChannel=14, InputChannel=8
f5
ce
f4
26
e8
04
d2
0e
f5
d7
e3
db
09
10
16
d3
# Kernel Plane: OutputChannel=14, InputChannel=9
02
db
c8
ed
16
b1
da
04
f0
ce
aa
00
d9
0e
c1
d2
# Kernel Plane: OutputChannel=14, InputChannel=10
c4
13
0e
16
ab
c2
df
d7
a7
dc
0b
cb
cb
e2
38
1b
# Kernel Plane: OutputChannel=14, InputChannel=11
cb
00
05
de
db
00
09
0a
e7
e2
e5
c4
c6
c5
fe
cf
# Kernel Plane: OutputChannel=14, InputChannel=12
fe
ec
08
01
22
12
09
23
01
e1
07
12
0c
1e
db
ef
# Kernel Plane: OutputChannel=14, InputChannel=13
09
e9
00
08
f0
f0
b7
d4
df
06
2c
fc
00
41
e3
ea
# Kernel Plane: OutputChannel=14, InputChannel=14
cc
e7
e7
21
ea
ff
d3
d9
fe
c8
d4
14
08
e1
df
17
# Kernel Plane: OutputChannel=14, InputChannel=15
d0
03
e5
d7
17
f9
e7
19
ea
0b
ee
e7
df
cd
c1
12
# Kernel Plane: OutputChannel=14, InputChannel=16
bf
ea
ed
07
fb
d7
d2
dd
f5
f7
ec
d6
1d
b1
20
ed
# Kernel Plane: OutputChannel=14, InputChannel=17
c5
17
fa
e7
d7
14
eb
dd
df
e1
f0
da
07
00
ff
10
# Kernel Plane: OutputChannel=14, InputChannel=18
d5
c4
e4
fc
ec
df
11
c9
d9
ad
cf
18
04
c0
d4
c5
# Kernel Plane: OutputChannel=14, InputChannel=19
ca
b9
04
dd
f6
fa
e0
f4
cb
e1
b6
13
aa
dc
e1
c9
# Kernel Plane: OutputChannel=14, InputChannel=20
df
eb
f5
0d
c7
f1
c1
ff
e1
06
cd
e9
b3
f6
d3
bd
# Kernel Plane: OutputChannel=14, InputChannel=21
d2
e0
ce
04
30
f7
06
b3
0f
1e
e0
d2
b3
0f
0d
01
# Kernel Plane: OutputChannel=14, InputChannel=22
e9
bf
09
2b
dd
c6
f8
f4
02
0b
d6
e6
0c
81
fa
e8
# Kernel Plane: OutputChannel=14, InputChannel=23
ca
f2
24
db
0a
ed
e0
f1
ec
bf
fa
dc
9d
b7
b8
0f
# Kernel Plane: OutputChannel=14, InputChannel=24
c0
0b
d2
d3
ee
f2
c7
b4
ad
b8
d3
12
e3
0e
20
12
# Kernel Plane: OutputChannel=14, InputChannel=25
ae
c4
fd
df
d2
a0
c1
c9
c7
bf
1c
e7
a6
ea
d9
d0
# Kernel Plane: OutputChannel=14, InputChannel=26
d7
c0
f7
df
9e
c4
db
a3
c7
01
20
e4
f3
ce
df
ef
# Kernel Plane: OutputChannel=14, InputChannel=27
c8
a3
17
d8
ec
fd
04
cb
0f
02
db
be
05
24
f0
b1
# Kernel Plane: OutputChannel=14, InputChannel=28
0c
e8
1e
21
ec
fa
f8
12
46
1d
e2
e5
54
ed
e3
ed
# Kernel Plane: OutputChannel=14, InputChannel=29
fb
c1
c6
ea
d7
c5
06
a6
d6
b7
06
f3
fd
d1
e8
02
# Kernel Plane: OutputChannel=14, InputChannel=30
d8
be
da
05
ee
de
08
f1
ff
15
c1
10
ee
d6
04
03
# Kernel Plane: OutputChannel=14, InputChannel=31
fc
e8
1b
51
fc
b6
c5
17
ea
07
01
0c
16
c3
f8
d6
# Kernel Plane: OutputChannel=15, InputChannel=0
fa
20
fb
d9
e4
15
f7
25
b3
0a
06
cf
c0
3d
28
d5
# Kernel Plane: OutputChannel=15, InputChannel=1
1a
f1
09
12
a4
b2
6c
5a
1b
29
0a
e6
4e
e9
4b
dc
# Kernel Plane: OutputChannel=15, InputChannel=2
31
f5
ca
e0
dc
cd
8d
d5
ce
eb
14
25
0a
23
fd
ec
# Kernel Plane: OutputChannel=15, InputChannel=3
0b
d1
f5
fe
3d
02
c4
e9
04
1c
ad
d1
fd
f9
1b
11
# Kernel Plane: OutputChannel=15, InputChannel=4
ff
24
4c
fe
d8
25
04
fb
f0
1c
d8
f0
1f
3a
f6
fd
# Kernel Plane: OutputChannel=15, InputChannel=5
da
d5
dc
bf
28
dd
c2
d7
e4
f1
dc
16
fa
30
0b
08
# Kernel Plane: OutputChannel=15, InputChannel=6
fd
fe
21
df
01
20
c6
d9
d3
f8
d3
d7
f3
d9
d7
ed
# Kernel Plane: OutputChannel=15, InputChannel=7
29
45
36
f7
d6
15
5c
14
f7
32
1f
3b
13
09
c4
ed
# Kernel Plane: OutputChannel=15, InputChannel=8
cd
db
4e
4c
93
9d
15
e8
c0
02
0e
1a
39
39
e4
f5
# Kernel Plane: OutputChannel=15, InputChannel=9
ff
0d
dc
06
e2
e6
41
29
25
fb
02
2a
0f
11
1a
4a
# Kernel Plane: OutputChannel=15, InputChannel=10
05
ed
ba
e7
0f
fb
c6
0c
2c
39
0e
f6
13
0d
43
29
# Kernel Plane: OutputChannel=15, InputChannel=11
d2
c2
e7
c2
ac
df
09
c5
00
1b
2d
e1
00
2c
f7
e1
# Kernel Plane: OutputChannel=15, InputChannel=12
01
f4
ea
ea
fb
07
f5
0d
05
0e
f4
14
14
09
06
f8
# Kernel Plane: OutputChannel=15, InputChannel=13
18
c1
f9
15
d5
e6
c8
bf
f9
1a
16
da
f6
dc
f7
d6
# Kernel Plane: OutputChannel=15, InputChannel=14
ea
f3
e9
ec
c3
de
01
06
da
28
40
f4
1a
ed
d8
08
# Kernel Plane: OutputChannel=15, InputChannel=15
f0
df
06
e5
19
09
0f
04
dc
25
c7
1d
f5
19
ee
0f
# Kernel Plane: OutputChannel=15, InputChannel=16
10
df
cf
ea
14
ea
d7
de
cb
09
02
2b
9a
17
df
f6
# Kernel Plane: OutputChannel=15, InputChannel=17
c7
c9
90
c1
ab
d9
cd
e0
e0
b1
a1
cf
0c
30
f7
f1
# Kernel Plane: OutputChannel=15, InputChannel=18
09
fd
d0
04
a2
fc
1c
2e
d0
e7
03
ed
be
16
e5
04
# Kernel Plane: OutputChannel=15, InputChannel=19
6c
d5
28
ff
ee
ed
18
20
e9
17
e9
3f
92
26
0e
e0
# Kernel Plane: OutputChannel=15, InputChannel=20
e2
9e
e9
a7
dd
1b
13
24
e5
d6
0e
1b
ca
13
eb
fe
# Kernel Plane: OutputChannel=15, InputChannel=21
f2
dd
6b
2d
fa
ec
12
ed
20
26
2e
0b
10
21
05
12
# Kernel Plane: OutputChannel=15, InputChannel=22
0e
03
d2
c5
cd
d9
e9
0d
ec
1e
14
3a
f1
fb
0d
24
# Kernel Plane: OutputChannel=15, InputChannel=23
13
bf
ab
c2
b0
f0
be
16
df
dc
1f
03
f0
07
11
3b
# Kernel Plane: OutputChannel=15, InputChannel=24
0d
b6
fb
0b
23
d4
1b
1f
02
bc
27
21
b7
43
1f
2e
# Kernel Plane: OutputChannel=15, InputChannel=25
12
0b
d5
e9
1f
ee
f7
f5
fb
3f
07
27
f0
0a
2b
f6
# Kernel Plane: OutputChannel=15, InputChannel=26
fe
fc
a9
fc
a6
da
03
fd
fd
c7
1e
e9
f0
f2
37
13
# Kernel Plane: OutputChannel=15, InputChannel=27
e3
41
44
ef
fb
cc
36
2a
e2
c8
1e
fb
57
20
10
e2
# Kernel Plane: OutputChannel=15, InputChannel=28
a0
e1
59
b1
da
ab
1e
31
cd
f9
36
26
e4
12
06
22
# Kernel Plane: OutputChannel=15, InputChannel=29
e7
26
07
ec
e1
11
39
10
81
e1
10
f1
b5
c6
14
c8
# Kernel Plane: OutputChannel=15, InputChannel=30
db
c1
03
bf
cd
de
2e
2f
c9
dc
08
16
c1
19
f9
d8
# Kernel Plane: OutputChannel=15, InputChannel=31
c8
3f
fb
49
dd
ec
13
9f
fb
ee
f2
fe
25
17
fe
03
# Kernel Plane: OutputChannel=16, InputChannel=0
eb
02
f4
12
0a
fe
fb
05
c9
e1
11
0e
8e
00
23
fe
# Kernel Plane: OutputChannel=16, InputChannel=1
d0
1c
d3
e2
c4
09
df
d1
e8
05
00
a9
3d
da
d2
e9
# Kernel Plane: OutputChannel=16, InputChannel=2
43
12
05
21
27
09
02
2a
fd
20
01
fe
24
ed
12
e9
# Kernel Plane: OutputChannel=16, InputChannel=3
05
01
c6
43
33
12
1a
30
04
24
03
ce
07
c5
d2
38
# Kernel Plane: OutputChannel=16, InputChannel=4
f3
06
32
e6
e1
2e
20
0f
18
fd
f9
05
16
00
ea
1d
# Kernel Plane: OutputChannel=16, InputChannel=5
01
fe
29
09
19
fc
f8
f0
1c
05
01
2f
0c
db
ff
dc
# Kernel Plane: OutputChannel=16, InputChannel=6
41
08
e0
e9
21
21
4a
ef
ee
df
35
e8
f2
01
23
e7
# Kernel Plane: OutputChannel=16, InputChannel=7
25
20
d0
0f
f9
fc
e1
07
1e
15
13
e9
e1
1d
d8
de
# Kernel Plane: OutputChannel=16, InputChannel=8
1f
f1
21
1f
0e
03
fc
34
c1
bb
05
53
f8
f7
eb
68
# Kernel Plane: OutputChannel=16, InputChannel=9
2a
21
f8
ea
31
04
d6
02
10
e5
03
14
1a
ef
67
cb
# Kernel Plane: OutputChannel=16, InputChannel=10
1f
03
e0
e9
24
15
f2
01
01
ca
e8
ec
e8
dd
fe
09
# Kernel Plane: OutputChannel=16, InputChannel=11
17
24
10
d2
da
e9
e9
c7
05
3f
db
38
01
f6
e2
09
# Kernel Plane: OutputChannel=16, InputChannel=12
f4
fd
eb
01
02
f5
fe
fc
f5
ff
f0
05
e9
f6
07
f6
# Kernel Plane: OutputChannel=16, InputChannel=13
22
02
2a
d2
16
20
0f
fc
2e
f5
e5
f7
c2
ee
fd
fd
# Kernel Plane: OutputChannel=16, InputChannel=14
13
12
ea
9e
f2
2f
07
e2
10
10
0b
17
e7
20
e0
c4
# Kernel Plane: OutputChannel=16, InputChannel=15
17
e3
07
dd
f4
10
02
f1
0f
f4
28
fc
ef
0d
ec
01
# Kernel Plane: OutputChannel=16, InputChannel=16
07
08
0f
f4
11
0a
fb
04
f3
e7
f3
0f
0f
c7
f4
08
# Kernel Plane: OutputChannel=16, InputChannel=17
16
fa
0e
e2
fa
e8
c7
06
10
f8
ff
19
f2
d6
e6
11
# Kernel Plane: OutputChannel=16, InputChannel=18
e3
eb
fb
02
e0
ed
29
f5
18
e7
06
1b
be
09
2f
1a
# Kernel Plane: OutputChannel=16, InputChannel=19
1a
e5
e8
0f
2e
e3
fc
ec
df
ee
f5
f5
d7
18
13
ed
# Kernel Plane: OutputChannel=16, InputChannel=20
15
d8
0f
19
ec
10
ef
01
f8
13
d6
fe
05
bc
00
fe
# Kernel Plane: OutputChannel=16, InputChannel=21
2c
02
11
04
f1
e2
f3
08
f7
11
0e
e3
2b
41
19
dd
# Kernel Plane: OutputChannel=16, InputChannel=22
1a
e5
f9
20
4e
d1
da
34
12
10
d5
15
f1
05
11
19
# Kernel Plane: OutputChannel=16, InputChannel=23
35
03
00
1f
0a
29
bf
f1
df
fd
df
08
e2
e8
e4
f0
# Kernel Plane: OutputChannel=16, InputChannel=24
e9
10
0b
fc
1c
23
07
ea
00
09
f9
04
dd
17
2a
0e
# Kernel Plane: OutputChannel=16, InputChannel=25
d7
81
e2
24
06
eb
d9
10
06
15
fb
0e
bd
da
ba
01
# Kernel Plane: OutputChannel=16, InputChannel=26
e5
0a
f7
21
fd
0f
ee
0f
f9
0d
ec
0d
05
f0
ef
05
# Kernel Plane: OutputChannel=16, InputChannel=27
31
de
03
09
ef
d5
f0
ec
ff
d1
0d
01
de
01
10
fa
# Kernel Plane: OutputChannel=16, InputChannel=28
40
c0
f7
08
fc
d2
c7
d2
d8
be
f3
da
0c
07
30
e0
# Kernel Plane: OutputChannel=16, InputChannel=29
ca
d9
12
19
43
e0
e2
18
ff
a2
f4
0f
2f
fe
18
ee
# Kernel Plane: OutputChannel=16, InputChannel=30
26
e9
02
d3
23
e1
04
e3
f4
e0
34
16
05
eb
0b
10
# Kernel Plane: OutputChannel=16, InputChannel=31
0a
07
fb
11
d6
eb
01
d2
10
d7
f5
ff
17
01
f2
e6
# Kernel Plane: OutputChannel=17, InputChannel=0
dd
11
dc
f8
f4
1e
fb
19
07
eb
02
e8
fa
cf
03
f1
# Kernel Plane: OutputChannel=17, InputChannel=1
bd
cb
e5
07
d8
e1
c3
fb
09
ef
de
ff
11
fa
f6
0b
# Kernel Plane: OutputChannel=17, InputChannel=2
11
13
19
1b
ed
f0
16
e9
19
f3
fb
f4
16
00
2b
ed
# Kernel Plane: OutputChannel=17, InputChannel=3
f5
0b
1d
e0
fd
15
07
e4
03
05
28
ed
11
f7
f6
de
# Kernel Plane: OutputChannel=17, InputChannel=4
01
04
df
28
1c
fa
e1
17
1c
05
0f
22
12
e9
d1
13
# Kernel Plane: OutputChannel=17, InputChannel=5
0b
01
15
0a
ba
10
08
0a
fb
19
10
22
e9
fc
fa
da
# Kernel Plane: OutputChannel=17, InputChannel=6
f2
05
d1
1d
08
e7
08
18
13
13
ed
ef
ee
07
f3
f5
# Kernel Plane: OutputChannel=17, InputChannel=7
23
ec
f6
23
22
05
14
13
2f
f7
0d
05
05
0f
fa
1e
# Kernel Plane: OutputChannel=17, InputChannel=8
21
0f
20
ff
e5
0c
1c
ef
2b
26
18
02
f0
cc
0e
16
# Kernel Plane: OutputChannel=17, InputChannel=9
2a
f7
34
0a
ec
1c
14
ee
0c
08
e6
13
09
cb
de
81
# Kernel Plane: OutputChannel=17, InputChannel=10
36
04
0e
1e
12
ff
10
1b
18
e1
ee
f0
1a
17
0c
0e
# Kernel Plane: OutputChannel=17, InputChannel=11
d1
ea
e8
e1
ca
05
fc
19
eb
ef
f8
f1
0d
f5
0a
f1
# Kernel Plane: OutputChannel=17, InputChannel=12
ff
f7
fe
f4
f0
12
fd
f5
f0
ed
f6
ec
f9
f6
ff
ef
# Kernel Plane: OutputChannel=17, InputChannel=13
fd
3b
1f
0b
e4
ff
05
da
06
08
e6
ee
14
1b
1b
e6
# Kernel Plane: OutputChannel=17, InputChannel=14
97
fd
0d
f7
b4
f6
f3
0a
c3
fe
0d
00
dc
da
dc
e8
# Kernel Plane: OutputChannel=17, InputChannel=15
03
ec
e4
0b
16
ff
07
ff
22
e9
04
ff
e6
f4
e9
ee
# Kernel Plane: OutputChannel=17, InputChannel=16
c7
1e
ee
e7
e8
18
f5
07
ec
13
eb
f4
b2
cf
fc
fa
# Kernel Plane: OutputChannel=17, InputChannel=17
1e
1b
fb
be
fb
f2
f7
de
e9
f2
d7
d8
13
09
05
f4
# Kernel Plane: OutputChannel=17, InputChannel=18
d8
e6
db
d9
ec
16
ea
e2
f4
f1
e1
ed
d3
d2
17
e8
# Kernel Plane: OutputChannel=17, InputChannel=19
0d
ed
f6
0b
ec
27
1a
fc
fe
fa
15
ea
e7
f2
f0
f9
# Kernel Plane: OutputChannel=17, InputChannel=20
20
09
f5
df
ef
05
ed
c9
ea
04
fc
e3
10
2b
e3
dc
# Kernel Plane: OutputChannel=17, InputChannel=21
30
d8
eb
10
50
d7
f4
02
1d
db
12
f8
12
f5
0a
35
# Kernel Plane: OutputChannel=17, InputChannel=22
18
f1
0c
e5
ee
0d
f3
15
e2
07
f0
00
eb
10
13
0a
# Kernel Plane: OutputChannel=17, InputChannel=23
fc
ed
10
f0
fa
c8
f6
ce
e0
e9
31
f1
f3
dd
fc
d9
# Kernel Plane: OutputChannel=17, InputChannel=24
22
fd
0d
f7
0c
ee
02
f0
25
e7
0d
ef
15
e3
fa
f7
# Kernel Plane: OutputChannel=17, InputChannel=25
0b
01
f4
ed
0b
f0
14
c9
05
fe
e8
ee
20
dc
1b
13
# Kernel Plane: OutputChannel=17, InputChannel=26
0f
22
1c
11
02
e5
07
0b
17
eb
e9
e2
fd
09
16
fe
# Kernel Plane: OutputChannel=17, InputChannel=27
09
f0
0d
0c
e8
d1
f7
0a
e8
06
26
0b
e3
be
f1
09
# Kernel Plane: OutputChannel=17, InputChannel=28
f1
18
ee
29
f7
0a
f3
ff
f1
18
28
02
20
fe
2e
19
# Kernel Plane: OutputChannel=17, InputChannel=29
ec
fb
d3
21
d7
cb
06
1a
f3
e0
e6
25
13
e2
0c
1a
# Kernel Plane: OutputChannel=17, InputChannel=30
f9
01
f2
13
c4
13
14
ef
00
04
0a
f8
bb
c3
ff
00
# Kernel Plane: OutputChannel=17, InputChannel=31
fe
ec
e9
92
1a
dd
17
19
2e
12
00
dc
f5
f6
e2
8f
# Kernel Plane: OutputChannel=18, InputChannel=0
d1
e6
01
1c
ea
14
fe
0d
da
ef
c9
17
ea
12
cc
4a
# Kernel Plane: OutputChannel=18, InputChannel=1
f2
2e
50
a8
46
f4
c1
28
e7
f4
0a
11
08
44
09
10
# Kernel Plane: OutputChannel=18, InputChannel=2
fe
d4
05
ed
ef
d1
f1
e5
e1
e5
32
22
f1
c8
f6
16
# Kernel Plane: OutputChannel=18, InputChannel=3
f5
d2
db
14
75
c9
82
19
29
db
e4
2a
47
f1
f0
2c
# Kernel Plane: OutputChannel=18, InputChannel=4
c9
db
fb
c2
42
d5
6f
f0
09
de
47
d4
01
b1
dc
ef
# Kernel Plane: OutputChannel=18, InputChannel=5
0e
ab
8b
cf
fb
ff
22
e3
e9
ba
23
1a
22
dd
38
26
# Kernel Plane: OutputChannel=18, InputChannel=6
14
4e
ee
1f
2f
fc
f2
f4
c7
0c
2c
cd
db
0c
ec
cc
# Kernel Plane: OutputChannel=18, InputChannel=7
a3
ce
13
f1
07
d2
f7
20
12
3b
f1
0a
13
f9
1f
10
# Kernel Plane: OutputChannel=18, InputChannel=8
d4
f0
03
46
1e
ef
31
f5
e5
e8
28
39
e9
3e
24
48
# Kernel Plane: OutputChannel=18, InputChannel=9
d9
ea
d1
ed
47
0e
f1
de
d8
cb
f0
12
ea
07
06
01
# Kernel Plane: OutputChannel=18, InputChannel=10
48
12
fe
0f
05
ea
ba
95
2e
c7
fa
e6
18
c8
23
ee
# Kernel Plane: OutputChannel=18, InputChannel=11
12
13
fa
fe
1d
0a
ab
ce
37
28
c2
e1
05
0d
8b
b4
# Kernel Plane: OutputChannel=18, InputChannel=12
f0
fd
ec
f8
ff
f5
e8
eb
05
ed
eb
01
17
0b
fc
05
# Kernel Plane: OutputChannel=18, InputChannel=13
1a
0d
ea
44
27
14
c3
e0
14
ff
08
c7
1c
ea
03
e9
# Kernel Plane: OutputChannel=18, InputChannel=14
04
ef
12
db
00
0a
e4
ef
ef
f3
0f
f7
20
01
f0
ed
# Kernel Plane: OutputChannel=18, InputChannel=15
15
c6
cf
e8
48
14
43
81
27
e1
0a
c8
33
10
03
f5
# Kernel Plane: OutputChannel=18, InputChannel=16
2f
e1
f6
c0
06
03
24
c3
e5
02
43
fb
d0
d2
17
1f
# Kernel Plane: OutputChannel=18, InputChannel=17
04
d4
ba
bc
14
d1
95
db
38
0b
e7
01
d0
0a
db
fa
# Kernel Plane: OutputChannel=18, InputChannel=18
f5
09
d3
1d
e1
e0
fe
05
2e
d9
0d
20
0a
ea
06
0a
# Kernel Plane: OutputChannel=18, InputChannel=19
21
c1
06
ee
ba
e3
78
f1
37
d0
13
0a
e7
23
33
08
# Kernel Plane: OutputChannel=18, InputChannel=20
05
e0
1a
ee
f2
14
17
0b
13
3b
cb
f3
2e
18
f5
db
# Kernel Plane: OutputChannel=18, InputChannel=21
17
1a
e0
13
3e
07
16
01
25
43
01
12
fe
28
04
20
# Kernel Plane: OutputChannel=18, InputChannel=22
50
c4
de
01
c3
10
d1
26
d7
cc
2b
05
ea
0f
03
1c
# Kernel Plane: OutputChannel=18, InputChannel=23
18
f5
f3
96
dc
18
d7
e2
0f
0b
0d
01
fa
24
16
ce
# Kernel Plane: OutputChannel=18, InputChannel=24
b6
d1
08
f4
cc
f8
14
dc
e3
e5
07
29
fd
f4
06
03
# Kernel Plane: OutputChannel=18, InputChannel=25
10
8d
cc
a6
f2
a8
e4
fe
0f
e0
0b
08
13
c9
ad
f8
# Kernel Plane: OutputChannel=18, InputChannel=26
e6
39
fb
d9
c1
ff
e0
0c
2d
02
3f
fd
dc
b9
f3
11
# Kernel Plane: OutputChannel=18, InputChannel=27
df
10
0e
e9
ed
fe
3c
08
0e
fe
1e
28
34
fc
12
40
# Kernel Plane: OutputChannel=18, InputChannel=28
13
06
df
06
fe
ca
1f
cd
f1
e2
0e
ea
ee
3b
f1
e2
# Kernel Plane: OutputChannel=18, InputChannel=29
fd
f7
07
fa
9e
0f
15
29
d7
f2
21
14
fe
e2
09
fe
# Kernel Plane: OutputChannel=18, InputChannel=30
ef
cf
2a
e3
fb
ec
0d
fd
f7
ed
fe
c4
0f
e0
1f
f7
# Kernel Plane: OutputChannel=18, InputChannel=31
f1
35
08
fe
cc
2d
3d
15
dd
14
16
48
f1
25
19
fc
# Kernel Plane: OutputChannel=19, InputChannel=0
a3
03
00
e2
07
fc
23
17
0b
21
fd
01
e2
a9
0f
f3
# Kernel Plane: OutputChannel=19, InputChannel=1
42
56
f8
37
3d
04
fc
2e
13
18
f1
35
3a
37
eb
ff
# Kernel Plane: OutputChannel=19, InputChannel=2
17
c4
e9
1b
17
f3
e1
0b
2c
e2
f7
f8
11
1a
0f
fa
# Kernel Plane: OutputChannel=19, InputChannel=3
32
e7
ee
f3
18
cb
c0
f6
16
f5
ff
21
f9
04
15
11
# Kernel Plane: OutputChannel=19, InputChannel=4
ec
e4
09
22
aa
06
e5
27
f9
2f
fe
1f
c2
cb
ec
20
# Kernel Plane: OutputChannel=19, InputChannel=5
e5
aa
e5
11
1c
c9
ee
e0
32
1e
09
f6
15
0d
27
35
# Kernel Plane: OutputChannel=19, InputChannel=6
e9
d1
14
f2
07
11
fe
21
c1
e7
24
fe
ef
f9
f7
ec
# Kernel Plane: OutputChannel=19, InputChannel=7
e7
fa
ff
07
c4
cb
13
e5
ec
f1
0f
f6
f2
e8
10
2c
# Kernel Plane: OutputChannel=19, InputChannel=8
08
04
1c
fe
e3
b5
e2
d9
1c
13
eb
19
e1
f4
cc
b9
# Kernel Plane: OutputChannel=19, InputChannel=9
e5
13
1b
bc
07
19
f4
e7
e6
b8
08
d3
23
17
19
c4
# Kernel Plane: OutputChannel=19, InputChannel=10
4d
1e
f3
cf
2b
f7
e9
12
fe
e8
01
2c
19
ea
bb
f2
# Kernel Plane: OutputChannel=19, InputChannel=11
03
1c
0d
0f
ea
00
fc
e2
01
13
e0
e9
12
12
fc
ed
# Kernel Plane: OutputChannel=19, InputChannel=12
01
fd
fb
fb
02
06
fa
02
02
02
f1
05
00
0d
f9
09
# Kernel Plane: OutputChannel=19, InputChannel=13
eb
eb
e6
32
0f
07
f4
20
fd
00
20
f4
0d
da
e3
d6
# Kernel Plane: OutputChannel=19, InputChannel=14
0a
ff
ec
28
12
26
d9
08
f3
08
dc
fa
2e
25
d4
1f
# Kernel Plane: OutputChannel=19, InputChannel=15
e8
08
f8
12
e5
f9
fd
fb
ce
ef
00
0f
f6
2b
ec
24
# Kernel Plane: OutputChannel=19, InputChannel=16
17
07
f5
1b
dd
10
d7
0c
b7
14
e7
0a
e6
bf
07
fd
# Kernel Plane: OutputChannel=19, InputChannel=17
14
be
1e
12
ff
0c
0d
e4
2c
07
fb
08
f2
df
fd
f7
# Kernel Plane: OutputChannel=19, InputChannel=18
a2
15
1f
e3
9e
03
eb
ee
a5
08
fc
e3
c1
e7
da
f2
# Kernel Plane: OutputChannel=19, InputChannel=19
ff
aa
ec
28
e7
de
1d
11
d5
df
f5
ee
ce
fe
f3
0e
# Kernel Plane: OutputChannel=19, InputChannel=20
e5
01
02
fd
12
f4
00
10
0c
23
1c
27
0f
e3
1a
ea
# Kernel Plane: OutputChannel=19, InputChannel=21
06
0c
10
1b
de
f5
fd
02
da
04
df
1f
24
29
28
17
# Kernel Plane: OutputChannel=19, InputChannel=22
18
e5
f2
f4
00
ef
f2
07
42
ea
f7
b3
17
f8
dc
e1
# Kernel Plane: OutputChannel=19, InputChannel=23
bd
f7
fd
ef
18
00
e6
0b
fd
ef
f7
12
22
f9
17
28
# Kernel Plane: OutputChannel=19, InputChannel=24
a0
cb
06
d9
d2
03
0a
10
ed
eb
2d
08
df
e5
04
d1
# Kernel Plane: OutputChannel=19, InputChannel=25
f6
09
05
27
0f
d1
0f
1c
16
0e
1c
22
fd
d6
ed
0a
# Kernel Plane: OutputChannel=19, InputChannel=26
b9
23
0b
df
e5
e5
d4
0e
f0
25
df
04
ea
d0
fe
f1
# Kernel Plane: OutputChannel=19, InputChannel=27
db
10
0f
12
e9
e4
03
13
12
2c
fd
0e
d4
f0
fd
04
# Kernel Plane: OutputChannel=19, InputChannel=28
d6
f8
22
ec
41
03
03
09
1f
05
03
2d
0f
07
13
0e
# Kernel Plane: OutputChannel=19, InputChannel=29
27
cb
19
19
24
ed
19
38
06
d9
ed
1f
e5
e1
2a
28
# Kernel Plane: OutputChannel=19, InputChannel=30
c6
20
ed
f9
e6
0e
2b
04
08
1c
03
fb
bd
07
08
fe
# Kernel Plane: OutputChannel=19, InputChannel=31
ea
ae
c1
b9
cf
cc
81
c4
0a
e1
c4
f6
11
09
d5
f6
# Kernel Plane: OutputChannel=20, InputChannel=0
41
c3
35
c5
c1
c5
ec
ff
f0
ef
f8
c8
ba
0d
c1
35
# Kernel Plane: OutputChannel=20, InputChannel=1
b5
d2
c1
d3
0b
c1
ff
2b
de
bc
41
e8
01
c7
44
0d
# Kernel Plane: OutputChannel=20, InputChannel=2
ee
ee
34
c2
ca
df
eb
c4
eb
0b
0d
be
1b
14
ee
f0
# Kernel Plane: OutputChannel=20, InputChannel=3
bc
e0
c9
e9
d2
14
0a
24
28
f9
2c
d7
cc
ba
24
e4
# Kernel Plane: OutputChannel=20, InputChannel=4
15
d5
2c
d5
09
0b
ba
bb
dd
c0
fd
e9
1d
cf
16
b2
# Kernel Plane: OutputChannel=20, InputChannel=5
22
1a
13
32
17
ed
23
ba
bd
e9
e3
c5
e0
06
03
e6
# Kernel Plane: OutputChannel=20, InputChannel=6
1e
11
f7
23
d0
1e
ee
ed
cc
f1
e9
42
cb
39
e9
0b
# Kernel Plane: OutputChannel=20, InputChannel=7
fb
20
20
c2
b1
e2
db
01
ff
d3
da
3f
d4
d2
b1
fb
# Kernel Plane: OutputChannel=20, InputChannel=8
43
15
f8
eb
cd
0b
f3
d3
0f
c6
06
15
3a
fe
14
fc
# Kernel Plane: OutputChannel=20, InputChannel=9
00
ce
26
cc
e9
8d
41
11
d6
e8
0f
0e
b6
a0
f0
f9
# Kernel Plane: OutputChannel=20, InputChannel=10
88
cf
ef
04
b4
9c
f3
e4
05
ce
08
22
ce
c7
fb
06
# Kernel Plane: OutputChannel=20, InputChannel=11
b9
b4
d0
34
de
0b
12
40
21
d9
20
c2
0b
dc
d0
fc
# Kernel Plane: OutputChannel=20, InputChannel=12
11
cc
e9
df
37
1c
28
c7
1a
c3
f4
41
c0
d4
04
cd
# Kernel Plane: OutputChannel=20, InputChannel=13
ba
e5
2a
f8
d4
a5
a2
1a
15
10
e2
12
e7
e1
c3
04
# Kernel Plane: OutputChannel=20, InputChannel=14
c5
be
e5
b9
a5
02
e6
05
c0
e9
01
0f
00
01
cc
e5
# Kernel Plane: OutputChannel=20, InputChannel=15
c3
b9
1c
ef
ea
ec
e2
e4
1f
cd
dd
0a
e9
15
0e
b4
# Kernel Plane: OutputChannel=20, InputChannel=16
05
03
19
cd
13
f1
d5
d4
db
d7
29
fe
d4
f9
ea
f3
# Kernel Plane: OutputChannel=20, InputChannel=17
33
d1
12
0b
bd
0e
ae
cf
35
04
05
d6
20
d2
ff
d6
# Kernel Plane: OutputChannel=20, InputChannel=18
00
f9
b5
c3
d5
00
33
ec
fd
a6
c4
06
fe
14
13
23
# Kernel Plane: OutputChannel=20, InputChannel=19
33
23
15
24
9b
b5
e4
27
ad
01
f3
33
0f
1a
db
e5
# Kernel Plane: OutputChannel=20, InputChannel=20
f0
b7
18
07
14
0d
fd
f5
d7
b9
d1
de
c4
f1
d4
be
# Kernel Plane: OutputChannel=20, InputChannel=21
bf
b0
db
f2
ac
b9
de
e3
14
e5
b8
ef
12
11
db
12
# Kernel Plane: OutputChannel=20, InputChannel=22
0b
22
25
fd
d8
0a
12
25
f6
14
0c
c4
40
aa
cc
27
# Kernel Plane: OutputChannel=20, InputChannel=23
a8
f3
bc
09
f1
b5
b5
dd
f0
94
15
0b
1e
04
d3
dc
# Kernel Plane: OutputChannel=20, InputChannel=24
d5
81
23
f0
de
dc
e2
18
e3
d1
32
16
f5
e7
ce
f2
# Kernel Plane: OutputChannel=20, InputChannel=25
17
da
02
fe
dd
13
d9
fb
d4
fe
ce
e6
c0
c5
e1
26
# Kernel Plane: OutputChannel=20, InputChannel=26
ea
11
18
f6
16
bd
dd
cf
e4
10
dc
cd
02
20
c3
d0
# Kernel Plane: OutputChannel=20, InputChannel=27
11
d2
ab
38
0a
bd
d6
bc
a6
0b
aa
e5
f8
a4
fc
ca
# Kernel Plane: OutputChannel=20, InputChannel=28
c1
16
22
ed
49
f5
ed
f5
37
f3
a6
ce
e8
cc
1d
ff
# Kernel Plane: OutputChannel=20, InputChannel=29
e8
b4
db
ed
2a
fc
e1
f2
45
91
21
22
ee
ff
17
f6
# Kernel Plane: OutputChannel=20, InputChannel=30
03
0d
f7
04
c6
a0
16
1e
cb
bd
ce
f2
25
fe
cd
ec
# Kernel Plane: OutputChannel=20, InputChannel=31
fc
15
29
c1
f1
fc
dd
dd
e8
f6
0f
fd
f1
06
de
04
# Kernel Plane: OutputChannel=21, InputChannel=0
24
c9
de
f2
03
06
e0
fe
fa
08
fc
f5
fe
f2
ce
ae
# Kernel Plane: OutputChannel=21, InputChannel=1
cd
25
f0
e5
d7
f3
c5
f6
c3
85
02
01
d7
04
0f
f4
# Kernel Plane: OutputChannel=21, InputChannel=2
c5
1f
db
bc
f4
33
26
0c
1f
1d
00
2d
e2
06
15
0f
# Kernel Plane: OutputChannel=21, InputChannel=3
cd
37
35
f0
bb
0e
d9
f1
d0
ec
0a
e1
d8
25
19
0e
# Kernel Plane: OutputChannel=21, InputChannel=4
e9
fc
fc
1a
cf
08
c0
e3
20
16
d8
06
0b
1a
e0
d6
# Kernel Plane: OutputChannel=21, InputChannel=5
bc
ef
e3
ca
0b
53
16
d6
39
ca
b7
be
e7
d4
f5
f4
# Kernel Plane: OutputChannel=21, InputChannel=6
2a
ed
25
f1
fd
fe
36
f4
08
00
14
14
20
06
0b
20
# Kernel Plane: OutputChannel=21, InputChannel=7
1d
f1
02
1b
16
13
28
06
04
e4
c7
19
06
19
18
12
# Kernel Plane: OutputChannel=21, InputChannel=8
ae
dc
f3
fd
e0
31
ea
e5
25
2e
ee
2d
12
d1
db
12
# Kernel Plane: OutputChannel=21, InputChannel=9
c7
fe
30
eb
fd
28
02
bc
fe
d0
f4
ab
ce
d3
ff
35
# Kernel Plane: OutputChannel=21, InputChannel=10
d7
09
1e
c3
03
0f
ef
0c
0d
09
05
0f
d0
13
31
14
# Kernel Plane: OutputChannel=21, InputChannel=11
d2
ba
17
14
d7
e0
fd
45
18
d1
df
0b
d0
f6
04
1e
# Kernel Plane: OutputChannel=21, InputChannel=12
0d
01
ff
fc
f8
e7
f1
06
0a
f6
08
07
06
e9
f4
ee
# Kernel Plane: OutputChannel=21, InputChannel=13
d2
2d
ca
8c
fb
00
16
17
d6
0a
1c
00
04
da
05
1b
# Kernel Plane: OutputChannel=21, InputChannel=14
f7
9e
0e
0d
fe
f1
e0
19
9b
af
cc
ec
d8
1b
f1
0a
# Kernel Plane: OutputChannel=21, InputChannel=15
db
ef
e5
e5
e5
19
e9
e2
e3
0e
29
0b
fc
ec
0c
ec
# Kernel Plane: OutputChannel=21, InputChannel=16
3a
dc
cf
f2
2b
f0
bd
d5
50
02
e3
e0
12
e2
e3
fa
# Kernel Plane: OutputChannel=21, InputChannel=17
c7
b8
23
5d
c2
de
ce
0c
d7
02
02
04
f6
00
00
ee
# Kernel Plane: OutputChannel=21, InputChannel=18
eb
cb
e5
09
f9
d1
d4
e3
fb
e9
aa
ea
ea
e3
27
f3
# Kernel Plane: OutputChannel=21, InputChannel=19
0c
0b
a8
17
ea
f4
b7
ba
31
2a
db
00
fe
0b
d6
b7
# Kernel Plane: OutputChannel=21, InputChannel=20
db
07
ff
da
f5
14
f0
08
cf
ed
2f
f5
00
ff
ef
ce
# Kernel Plane: OutputChannel=21, InputChannel=21
18
05
17
0d
bc
2e
3d
eb
0d
2e
0e
06
14
09
f8
01
# Kernel Plane: OutputChannel=21, InputChannel=22
02
59
f5
fa
0f
d9
08
d0
fd
2e
ef
18
fc
dd
8e
e0
# Kernel Plane: OutputChannel=21, InputChannel=23
c9
19
f8
f8
e5
35
f9
22
fd
e9
1c
f1
f5
be
15
ea
# Kernel Plane: OutputChannel=21, InputChannel=24
c8
e6
cd
07
ce
ee
de
ce
11
03
1a
ed
fd
e1
d2
f1
# Kernel Plane: OutputChannel=21, InputChannel=25
aa
11
e3
11
e6
ff
0e
c3
ee
da
2d
ff
01
d0
fa
04
# Kernel Plane: OutputChannel=21, InputChannel=26
f9
f9
f0
b4
86
05
0b
10
eb
fd
0f
19
dd
04
09
07
# Kernel Plane: OutputChannel=21, InputChannel=27
0f
f5
0a
ef
cd
27
aa
18
09
1a
b8
b5
be
1a
12
c8
# Kernel Plane: OutputChannel=21, InputChannel=28
36
f6
e5
10
10
fa
e8
da
25
28
25
25
fd
07
c1
c3
# Kernel Plane: OutputChannel=21, InputChannel=29
0e
16
ce
81
00
15
f5
eb
16
1f
02
0a
6c
02
e9
d5
# Kernel Plane: OutputChannel=21, InputChannel=30
c7
f5
1c
17
ce
f0
e7
be
2c
07
91
01
11
1d
b6
0d
# Kernel Plane: OutputChannel=21, InputChannel=31
f8
1c
32
9a
f5
33
0d
04
d6
39
3b
01
f6
e8
1a
ec
# Kernel Plane: OutputChannel=22, InputChannel=0
1e
1b
41
e9
f3
bf
2a
d6
f9
f7
30
e4
25
ef
24
e3
# Kernel Plane: OutputChannel=22, InputChannel=1
08
fd
f5
50
0f
d5
1c
0d
eb
dc
e5
2e
f9
d6
dd
34
# Kernel Plane: OutputChannel=22, InputChannel=2
1a
fd
c2
2d
e6
06
ee
27
0b
1b
13
0f
f0
15
fd
d5
# Kernel Plane: OutputChannel=22, InputChannel=3
02
09
f5
27
33
f6
0a
08
02
e6
07
07
d5
e8
ff
af
# Kernel Plane: OutputChannel=22, InputChannel=4
f8
f0
e8
f9
ec
f3
e5
ee
0d
05
0e
f0
ca
29
07
f9
# Kernel Plane: OutputChannel=22, InputChannel=5
38
01
d7
02
1a
ea
b9
fe
da
02
f8
06
0d
f5
d5
21
# Kernel Plane: OutputChannel=22, InputChannel=6
09
0d
fd
de
01
f3
18
f1
f0
da
0a
e2
01
0a
f6
e4
# Kernel Plane: OutputChannel=22, InputChannel=7
ce
12
42
0c
0f
c2
00
e5
2f
f7
0e
f2
08
d1
1e
40
# Kernel Plane: OutputChannel=22, InputChannel=8
07
d4
fe
fa
31
c6
03
58
1b
bd
e7
48
bd
e1
1a
1a
# Kernel Plane: OutputChannel=22, InputChannel=9
f1
ff
e1
c8
0a
cf
ad
e3
d9
e3
e1
02
11
c9
13
4a
# Kernel Plane: OutputChannel=22, InputChannel=10
0e
01
b9
fc
fc
e7
eb
21
f1
f5
06
4e
ed
17
0b
09
# Kernel Plane: OutputChannel=22, InputChannel=11
22
10
24
02
f3
f8
c5
be
03
cb
de
bf
43
ee
f0
c3
# Kernel Plane: OutputChannel=22, InputChannel=12
fd
00
02
0c
07
fa
0a
06
f2
08
09
0b
ec
ff
0c
f6
# Kernel Plane: OutputChannel=22, InputChannel=13
08
ad
b0
df
19
e5
cd
50
0e
29
f0
fd
06
f6
e9
9a
# Kernel Plane: OutputChannel=22, InputChannel=14
06
db
db
17
ff
de
da
f3
04
08
d9
b5
16
b2
dc
f1
# Kernel Plane: OutputChannel=22, InputChannel=15
ed
0a
fb
e7
f7
03
f9
f1
f2
16
db
0a
ac
db
be
ff
# Kernel Plane: OutputChannel=22, InputChannel=16
23
11
03
f2
09
0e
f2
d1
fb
1a
fa
f7
45
29
e3
08
# Kernel Plane: OutputChannel=22, InputChannel=17
1d
d8
d6
0e
f5
b8
f4
32
fe
ba
f6
1d
13
01
fb
10
# Kernel Plane: OutputChannel=22, InputChannel=18
50
27
0b
26
10
ef
f0
f5
25
f7
e1
db
42
09
f0
fb
# Kernel Plane: OutputChannel=22, InputChannel=19
6f
f5
f5
05
f9
f8
d5
0d
f1
01
fb
eb
22
f1
ee
cc
# Kernel Plane: OutputChannel=22, InputChannel=20
02
01
ce
fb
17
16
00
fd
08
01
06
13
e5
e7
e6
af
# Kernel Plane: OutputChannel=22, InputChannel=21
09
fd
29
fd
07
06
19
e3
00
f5
07
0b
2a
fd
0a
e1
# Kernel Plane: OutputChannel=22, InputChannel=22
ec
46
f4
05
22
ee
f4
11
fc
da
e4
0d
29
18
d1
2a
# Kernel Plane: OutputChannel=22, InputChannel=23
00
d1
d4
e8
e8
ef
e6
22
e4
e6
ff
f8
03
2c
e3
b8
# Kernel Plane: OutputChannel=22, InputChannel=24
2d
19
ff
01
ef
e3
ff
01
fa
f2
0f
ef
e4
23
0f
ac
# Kernel Plane: OutputChannel=22, InputChannel=25
09
21
f2
16
e7
f9
f6
fd
02
d9
00
38
d1
e9
16
13
# Kernel Plane: OutputChannel=22, InputChannel=26
f3
00
08
36
de
f6
00
29
fd
cf
0f
0b
d6
22
13
f2
# Kernel Plane: OutputChannel=22, InputChannel=27
1c
19
19
ea
f8
fb
08
cc
02
ff
14
02
10
f0
19
01
# Kernel Plane: OutputChannel=22, InputChannel=28
fa
ef
e1
0e
18
ef
de
15
ed
11
f1
cd
25
2c
f8
ef
# Kernel Plane: OutputChannel=22, InputChannel=29
b2
e4
21
ff
10
f9
1c
0f
15
17
05
08
12
04
cb
98
# Kernel Plane: OutputChannel=22, InputChannel=30
0c
0f
f4
f1
10
e5
f3
b1
0f
04
05
eb
fa
eb
df
ba
# Kernel Plane: OutputChannel=22, InputChannel=31
35
f9
f6
81
fc
15
10
ca
02
0b
f3
28
d4
f7
00
ef
# Kernel Plane: OutputChannel=23, InputChannel=0
cc
c8
25
ba
24
17
ff
0d
da
e9
f7
11
0e
d5
03
23
# Kernel Plane: OutputChannel=23, InputChannel=1
01
00
ac
42
0e
13
08
21
25
14
e6
1b
fc
dc
fd
fa
# Kernel Plane: OutputChannel=23, InputChannel=2
df
b7
1d
8d
ce
f4
27
d7
ee
f6
0f
0f
ee
06
01
db
# Kernel Plane: OutputChannel=23, InputChannel=3
ff
10
b8
e6
1a
32
fa
04
fc
31
0e
cb
1a
fe
08
14
# Kernel Plane: OutputChannel=23, InputChannel=4
18
b8
18
cd
2e
d7
30
e6
41
2c
e6
0f
45
23
fc
12
# Kernel Plane: OutputChannel=23, InputChannel=5
aa
e0
c0
d1
de
02
fb
03
1e
21
0c
37
b9
d4
3f
21
# Kernel Plane: OutputChannel=23, InputChannel=6
1c
ea
06
4a
b1
4e
06
22
bc
2a
e4
0d
d9
f8
0a
da
# Kernel Plane: OutputChannel=23, InputChannel=7
2f
f3
d2
eb
e9
50
f8
08
00
26
1f
0b
f3
f0
eb
2a
# Kernel Plane: OutputChannel=23, InputChannel=8
07
0a
3e
27
f5
fe
0e
38
e4
e6
04
25
c7
e9
d5
14
# Kernel Plane: OutputChannel=23, InputChannel=9
cd
d3
13
f9
08
15
14
4f
3e
19
d9
3b
e8
ee
d2
2d
# Kernel Plane: OutputChannel=23, InputChannel=10
d9
d1
b5
23
f4
f0
c6
23
f7
f0
ec
45
26
0b
f3
15
# Kernel Plane: OutputChannel=23, InputChannel=11
e2
19
f8
d5
25
03
e1
e4
30
d7
ce
e0
08
e3
06
f9
# Kernel Plane: OutputChannel=23, InputChannel=12
01
03
fd
f2
09
fd
f9
00
f3
ff
f3
01
fb
04
00
f2
# Kernel Plane: OutputChannel=23, InputChannel=13
ad
a6
16
f8
07
eb
2e
02
e9
cf
df
1c
ef
b4
e9
2d
# Kernel Plane: OutputChannel=23, InputChannel=14
11
fb
dd
07
13
0e
f5
f5
fe
d0
0f
03
16
ad
21
f2
# Kernel Plane: OutputChannel=23, InputChannel=15
d0
38
04
19
04
1c
07
19
14
03
e6
12
ce
01
dc
0f
# Kernel Plane: OutputChannel=23, InputChannel=16
fd
f5
1d
c2
ea
0a
10
fe
33
22
0e
de
19
31
1e
20
# Kernel Plane: OutputChannel=23, InputChannel=17
2c
aa
29
cc
ce
84
d5
d8
f2
07
da
e8
1d
3c
07
ff
# Kernel Plane: OutputChannel=23, InputChannel=18
9a
f1
3c
ef
04
e4
44
05
e0
00
c4
07
f8
bd
f9
47
# Kernel Plane: OutputChannel=23, InputChannel=19
dc
01
fc
17
18
12
0e
2e
f0
f7
e3
06
e6
19
fb
2f
# Kernel Plane: OutputChannel=23, InputChannel=20
d0
c6
fb
be
e7
fb
df
e1
21
f5
d7
0e
1e
fa
f9
f7
# Kernel Plane: OutputChannel=23, InputChannel=21
d8
2b
04
2d
cb
ec
e5
15
37
21
1c
39
02
0e
d0
00
# Kernel Plane: OutputChannel=23, InputChannel=22
19
0e
0f
bf
fd
2a
3b
16
0b
f0
08
e8
e6
ef
23
f5
# Kernel Plane: OutputChannel=23, InputChannel=23
19
d5
a7
14
02
ce
d3
0a
16
1e
d2
e7
2b
d3
00
02
# Kernel Plane: OutputChannel=23, InputChannel=24
81
e4
00
eb
f6
bf
ea
07
e6
ef
06
eb
16
1a
f4
0f
# Kernel Plane: OutputChannel=23, InputChannel=25
06
cc
cc
d6
24
d9
e5
05
31
25
fd
db
ed
20
fc
06
# Kernel Plane: OutputChannel=23, InputChannel=26
2a
27
47
de
df
ed
ec
e7
de
d4
10
d0
ee
23
d9
fb
# Kernel Plane: OutputChannel=23, InputChannel=27
b3
15
14
f9
26
33
34
03
1d
1b
f2
fc
e3
e7
f7
13
# Kernel Plane: OutputChannel=23, InputChannel=28
e3
e2
d5
1c
89
d7
05
22
ea
13
e2
10
12
e7
f2
1a
# Kernel Plane: OutputChannel=23, InputChannel=29
e6
d1
2a
cd
e9
1a
d8
09
99
1d
b1
06
d7
0d
cd
f3
# Kernel Plane: OutputChannel=23, InputChannel=30
93
16
05
ce
fb
02
fd
00
f3
d6
c4
ee
ec
f7
d0
14
# Kernel Plane: OutputChannel=23, InputChannel=31
e5
2d
ee
c8
26
c0
17
0f
09
c1
04
4f
02
cd
27
0c
# Kernel Plane: OutputChannel=24, InputChannel=0
2a
ff
f7
06
e1
e1
a3
be
30
13
d2
53
18
fb
1b
16
# Kernel Plane: OutputChannel=24, InputChannel=1
40
11
d1
c2
fe
cf
e1
0f
2a
ea
1c
18
36
f1
dd
1c
# Kernel Plane: OutputChannel=24, InputChannel=2
f5
c4
e2
04
1a
19
13
14
db
ea
21
14
ff
08
f2
d2
# Kernel Plane: OutputChannel=24, InputChannel=3
d4
f6
11
ec
e4
20
3d
12
ca
ee
e5
a8
2f
d2
bf
ff
# Kernel Plane: OutputChannel=24, InputChannel=4
03
08
eb
e2
18
1f
01
eb
26
02
0e
c8
63
cc
18
46
# Kernel Plane: OutputChannel=24, InputChannel=5
c4
d5
1d
f8
06
d4
0d
17
0a
df
de
c9
10
c0
c2
fa
# Kernel Plane: OutputChannel=24, InputChannel=6
41
ff
e0
0b
1a
f8
19
02
f7
f9
0d
37
e1
ec
e6
5e
# Kernel Plane: OutputChannel=24, InputChannel=7
f7
22
de
0f
b4
0a
fb
09
d2
c5
f1
db
34
f9
f2
cc
# Kernel Plane: OutputChannel=24, InputChannel=8
26
29
10
e7
f7
2d
17
1c
ca
f2
38
f5
13
06
1b
d8
# Kernel Plane: OutputChannel=24, InputChannel=9
02
ff
39
f9
d7
d8
ce
0d
e3
cc
13
11
c8
fd
49
e0
# Kernel Plane: OutputChannel=24, InputChannel=10
d2
13
fb
30
13
23
eb
e0
d7
37
f5
0b
01
05
e6
0f
# Kernel Plane: OutputChannel=24, InputChannel=11
22
eb
eb
2a
df
de
12
1c
c2
de
04
11
19
ad
9f
e3
# Kernel Plane: OutputChannel=24, InputChannel=12
fa
00
f3
f4
ee
e7
f2
00
f4
f6
0f
04
0b
fe
06
02
# Kernel Plane: OutputChannel=24, InputChannel=13
0e
b8
07
04
2d
f1
dc
f6
f1
16
29
13
13
ff
e2
1d
# Kernel Plane: OutputChannel=24, InputChannel=14
33
01
c8
19
ff
dd
ce
38
b7
50
dc
d5
d2
db
f1
f3
# Kernel Plane: OutputChannel=24, InputChannel=15
16
07
f7
e2
26
e1
b3
f1
ed
f2
f9
ca
c3
d7
fc
d4
# Kernel Plane: OutputChannel=24, InputChannel=16
1b
06
dd
ee
23
de
fb
ea
59
e3
eb
f2
45
de
f1
eb
# Kernel Plane: OutputChannel=24, InputChannel=17
d6
ea
02
ff
f1
ea
2e
07
d0
c6
df
df
10
9f
c8
e0
# Kernel Plane: OutputChannel=24, InputChannel=18
36
fc
f9
17
c8
81
04
fd
f2
d9
11
c7
51
e3
f7
1b
# Kernel Plane: OutputChannel=24, InputChannel=19
12
f4
0e
3e
d3
c0
d8
f2
fa
a3
b8
1e
27
b4
15
39
# Kernel Plane: OutputChannel=24, InputChannel=20
e3
d5
07
07
0d
f7
1b
e4
c0
f2
37
a8
9d
da
ba
21
# Kernel Plane: OutputChannel=24, InputChannel=21
d3
22
0b
e3
c6
45
07
fe
ea
f6
fd
1d
fb
28
01
b8
# Kernel Plane: OutputChannel=24, InputChannel=22
07
20
0b
27
a8
e8
a0
d7
22
29
23
f7
fb
c0
37
24
# Kernel Plane: OutputChannel=24, InputChannel=23
ea
19
09
03
fa
f4
05
df
ab
1c
e5
fe
97
11
d1
ce
# Kernel Plane: OutputChannel=24, InputChannel=24
17
cc
e3
06
eb
fe
d0
0e
c6
01
2b
e2
d5
e7
0b
f7
# Kernel Plane: OutputChannel=24, InputChannel=25
09
ca
ab
f0
27
31
e4
13
ef
c1
e6
36
0d
f8
f2
dc
# Kernel Plane: OutputChannel=24, InputChannel=26
27
2d
ed
30
ea
10
0e
02
c0
f1
4b
08
f1
ff
e0
eb
# Kernel Plane: OutputChannel=24, InputChannel=27
30
fa
10
c7
08
ea
09
e8
dd
06
f4
c1
1d
c6
1c
15
# Kernel Plane: OutputChannel=24, InputChannel=28
f3
1c
22
35
a4
05
0a
db
bd
fc
a8
fa
09
fe
2a
0d
# Kernel Plane: OutputChannel=24, InputChannel=29
11
1c
d4
15
05
07
0a
fb
fb
48
4d
36
2a
0e
19
19
# Kernel Plane: OutputChannel=24, InputChannel=30
9a
f2
22
19
b5
19
cf
04
eb
e3
c8
16
f1
e4
0c
ec
# Kernel Plane: OutputChannel=24, InputChannel=31
4d
3c
c6
db
47
0c
d5
ed
36
30
1a
0d
29
09
31
23
# Kernel Plane: OutputChannel=25, InputChannel=0
f1
37
fb
e3
f6
23
ef
d7
d4
c1
ff
eb
f0
28
28
50
# Kernel Plane: OutputChannel=25, InputChannel=1
c4
ed
0b
fe
c2
00
ca
c6
ec
e6
d5
02
e4
0b
0a
f3
# Kernel Plane: OutputChannel=25, InputChannel=2
f4
ff
08
18
f7
fa
1a
0f
33
09
24
f5
07
ee
02
c8
# Kernel Plane: OutputChannel=25, InputChannel=3
c0
b3
20
3e
0a
f0
25
09
2c
1d
18
f5
bc
d1
c1
d0
# Kernel Plane: OutputChannel=25, InputChannel=4
34
fb
ef
ec
e8
bc
ee
f5
f3
f4
eb
2f
46
3c
1e
0a
# Kernel Plane: OutputChannel=25, InputChannel=5
f1
02
34
c1
ec
b0
03
1a
ff
29
06
b9
08
28
e9
c0
# Kernel Plane: OutputChannel=25, InputChannel=6
08
07
d8
22
ec
1c
db
08
32
d4
e1
f6
2f
33
eb
ef
# Kernel Plane: OutputChannel=25, InputChannel=7
1b
34
0b
07
f6
df
df
f1
41
04
1b
13
fc
f9
07
07
# Kernel Plane: OutputChannel=25, InputChannel=8
aa
d4
fe
ef
f8
13
20
17
ee
dd
06
3a
e8
c2
ee
42
# Kernel Plane: OutputChannel=25, InputChannel=9
02
e2
97
fd
27
f1
04
00
1f
03
09
e8
b0
ec
c7
05
# Kernel Plane: OutputChannel=25, InputChannel=10
06
08
3b
08
06
f6
01
e1
f9
db
fe
0b
f3
10
1d
fc
# Kernel Plane: OutputChannel=25, InputChannel=11
34
37
0d
f0
f3
d0
f7
12
00
f0
08
0a
46
19
cd
0a
# Kernel Plane: OutputChannel=25, InputChannel=12
13
07
fb
f4
fc
fc
03
f3
0e
04
fe
fb
0b
ff
05
ee
# Kernel Plane: OutputChannel=25, InputChannel=13
d5
d1
e3
02
dc
d5
fa
2f
f7
ef
04
fd
07
33
13
04
# Kernel Plane: OutputChannel=25, InputChannel=14
f1
fc
fe
00
fc
da
13
e4
ee
10
db
c0
f2
93
fe
03
# Kernel Plane: OutputChannel=25, InputChannel=15
f9
06
27
c3
ed
d7
15
f1
0d
0a
1d
f3
bc
1a
10
b7
# Kernel Plane: OutputChannel=25, InputChannel=16
0e
f6
16
04
d7
ef
08
f3
04
17
fd
e8
2d
f4
37
d2
# Kernel Plane: OutputChannel=25, InputChannel=17
42
1f
d2
37
f9
eb
fd
e3
e9
d5
eb
fd
fb
11
18
ff
# Kernel Plane: OutputChannel=25, InputChannel=18
36
fb
3e
d4
0d
fb
f6
f4
e8
bc
f3
fb
30
f8
3e
e2
# Kernel Plane: OutputChannel=25, InputChannel=19
00
18
29
3f
fc
19
e2
00
e1
eb
0f
e2
26
12
ea
d3
# Kernel Plane: OutputChannel=25, InputChannel=20
0f
f6
ff
03
0a
f9
ff
18
18
11
de
f6
fd
01
fe
02
# Kernel Plane: OutputChannel=25, InputChannel=21
1d
1f
1a
e9
28
0e
f6
0f
25
14
e8
e2
52
e3
df
08
# Kernel Plane: OutputChannel=25, InputChannel=22
e2
fc
f0
d4
08
d8
13
f4
df
eb
46
1b
d5
01
f6
fb
# Kernel Plane: OutputChannel=25, InputChannel=23
05
28
0b
d1
08
f3
10
03
07
0b
27
d8
f6
f2
f3
d0
# Kernel Plane: OutputChannel=25, InputChannel=24
31
dc
12
c6
0b
0a
fc
cd
00
1d
0b
f5
02
ef
e9
02
# Kernel Plane: OutputChannel=25, InputChannel=25
44
f7
11
00
eb
fe
26
e4
ed
18
f0
0f
d6
ef
11
0e
# Kernel Plane: OutputChannel=25, InputChannel=26
1b
fa
39
26
27
09
29
ee
d7
00
fd
09
de
23
0a
12
# Kernel Plane: OutputChannel=25, InputChannel=27
29
fc
0f
ea
09
16
b9
fb
e6
ed
11
f5
0b
fa
41
fd
# Kernel Plane: OutputChannel=25, InputChannel=28
34
fe
3b
4f
12
45
fc
0a
0b
f5
f8
ea
30
39
f0
ca
# Kernel Plane: OutputChannel=25, InputChannel=29
e4
0f
d9
36
1c
05
e5
33
f2
12
07
0d
1f
d9
d6
fc
# Kernel Plane: OutputChannel=25, InputChannel=30
42
d9
f9
0b
1e
e8
cc
f1
e9
22
09
dc
f1
e8
1b
c5
# Kernel Plane: OutputChannel=25, InputChannel=31
ef
f3
ff
f0
ff
e7
c5
a1
3f
13
2c
e4
1a
26
18
81
# Kernel Plane: OutputChannel=26, InputChannel=0
e6
df
14
24
c3
21
03
1a
01
ed
ca
e1
04
d1
e4
35
# Kernel Plane: OutputChannel=26, InputChannel=1
de
33
29
14
ac
e0
f3
05
cb
03
d5
1f
16
2b
23
06
# Kernel Plane: OutputChannel=26, InputChannel=2
ef
f6
25
f4
2e
c0
ee
13
f9
15
f3
f0
13
0a
f9
14
# Kernel Plane: OutputChannel=26, InputChannel=3
ca
e7
c3
e8
e3
04
33
26
ef
1e
05
3d
0f
06
e2
df
# Kernel Plane: OutputChannel=26, InputChannel=4
08
f0
f8
15
f6
05
f9
09
f4
0d
ed
f9
20
25
e4
da
# Kernel Plane: OutputChannel=26, InputChannel=5
e4
1c
9b
d0
fd
2e
f4
f8
1e
18
14
38
12
1c
f3
dd
# Kernel Plane: OutputChannel=26, InputChannel=6
b6
32
e6
16
e4
0c
0a
f3
fa
f5
e0
ea
05
f2
e9
fb
# Kernel Plane: OutputChannel=26, InputChannel=7
f2
20
df
e4
e6
0f
0f
c1
fe
24
f6
16
dc
f1
e1
18
# Kernel Plane: OutputChannel=26, InputChannel=8
38
11
ea
c1
fb
34
0a
f4
da
d1
0c
fd
cd
d7
02
dc
# Kernel Plane: OutputChannel=26, InputChannel=9
22
23
01
1a
d0
1b
23
22
0c
d9
d0
ea
1a
1f
4c
26
# Kernel Plane: OutputChannel=26, InputChannel=10
ca
e8
1c
10
01
0e
00
f5
f5
18
fc
f4
24
f2
18
0b
# Kernel Plane: OutputChannel=26, InputChannel=11
fd
ff
fd
33
f2
00
bf
cb
db
0d
15
f3
09
ed
10
ec
# Kernel Plane: OutputChannel=26, InputChannel=12
f3
04
fc
ee
f5
f9
01
fb
03
fa
ff
08
0d
02
00
fe
# Kernel Plane: OutputChannel=26, InputChannel=13
1e
f2
11
21
09
ce
f4
e7
fd
28
00
ff
37
09
0d
fb
# Kernel Plane: OutputChannel=26, InputChannel=14
17
03
08
2f
f5
e1
03
11
d8
c7
f3
1d
00
42
2f
36
# Kernel Plane: OutputChannel=26, InputChannel=15
1e
ea
16
f3
03
04
05
f7
c9
ff
f6
cc
fb
03
c6
f0
# Kernel Plane: OutputChannel=26, InputChannel=16
28
10
cc
b8
0f
f9
e5
18
1d
ea
f1
40
fb
f0
d9
f4
# Kernel Plane: OutputChannel=26, InputChannel=17
e9
d4
e3
a9
bd
c1
d4
fa
04
2b
22
17
05
ff
ff
d6
# Kernel Plane: OutputChannel=26, InputChannel=18
df
00
ec
d3
f3
f2
e5
e6
28
ea
e0
ec
cf
ea
fb
eb
# Kernel Plane: OutputChannel=26, InputChannel=19
3a
ef
f1
f7
49
e8
f0
03
0f
fc
f6
2a
aa
e9
f8
f9
# Kernel Plane: OutputChannel=26, InputChannel=20
e1
cd
e0
0a
e1
f8
02
e6
1f
d7
f5
e2
f4
e4
0d
20
# Kernel Plane: OutputChannel=26, InputChannel=21
bf
1d
1c
0c
f9
22
00
d8
f9
0d
ff
01
14
24
0d
11
# Kernel Plane: OutputChannel=26, InputChannel=22
2b
f6
28
e9
b7
fe
fe
be
07
16
fa
0f
4b
0d
dd
e6
# Kernel Plane: OutputChannel=26, InputChannel=23
e9
b0
f5
24
f2
13
08
f7
18
ce
03
0c
ed
ed
d2
f5
# Kernel Plane: OutputChannel=26, InputChannel=24
e3
04
a7
a5
22
f0
c1
e4
26
1b
ee
f2
e3
04
06
f8
# Kernel Plane: OutputChannel=26, InputChannel=25
05
14
dc
b8
df
ef
e1
c8
f6
ea
f7
c9
e2
fb
ee
12
# Kernel Plane: OutputChannel=26, InputChannel=26
ff
cb
0a
34
04
fc
be
e1
f8
ff
fd
12
fb
f1
ee
03
# Kernel Plane: OutputChannel=26, InputChannel=27
dc
1c
17
2b
da
1b
0f
08
00
0e
33
1f
ae
0c
e4
05
# Kernel Plane: OutputChannel=26, InputChannel=28
0d
f5
f6
07
e9
26
03
d4
df
1d
d2
08
ee
0e
19
0d
# Kernel Plane: OutputChannel=26, InputChannel=29
c6
f3
63
fc
b0
07
e1
de
d6
22
fc
f0
20
f3
23
41
# Kernel Plane: OutputChannel=26, InputChannel=30
e5
20
e9
dc
f7
17
ca
d7
0f
f7
ca
20
de
15
1d
23
# Kernel Plane: OutputChannel=26, InputChannel=31
0c
06
f1
24
fb
81
df
31
fd
25
f3
17
f4
11
d5
32
# Kernel Plane: OutputChannel=27, InputChannel=0
07
0a
1a
e6
fc
fe
04
f7
2a
02
e4
06
f0
de
e5
e1
# Kernel Plane: OutputChannel=27, InputChannel=1
00
f4
e2
1c
08
01
1c
16
0f
e2
07
29
16
d4
ff
e7
# Kernel Plane: OutputChannel=27, InputChannel=2
fa
f0
03
18
18
f7
eb
01
18
15
0d
14
fc
f9
1b
05
# Kernel Plane: OutputChannel=27, InputChannel=3
15
07
ef
09
25
25
d2
10
f3
04
df
08
0b
fd
02
ec
# Kernel Plane: OutputChannel=27, InputChannel=4
1e
ec
20
1d
e6
b4
e7
fc
e4
da
19
fd
ff
c8
2c
1d
# Kernel Plane: OutputChannel=27, InputChannel=5
12
08
08
17
00
c6
fe
dd
1f
19
d2
f1
02
0c
d6
f7
# Kernel Plane: OutputChannel=27, InputChannel=6
12
02
20
0b
1b
d5
e6
02
08
0e
12
0a
f2
ef
f0
18
# Kernel Plane: OutputChannel=27, InputChannel=7
eb
de
06
05
f9
ea
05
05
dc
f6
fc
19
d7
d4
00
02
# Kernel Plane: OutputChannel=27, InputChannel=8
ed
dd
25
1d
c5
b9
12
22
db
9a
fe
1f
eb
db
ee
3b
# Kernel Plane: OutputChannel=27, InputChannel=9
ea
b4
22
eb
14
f0
fe
b6
13
3a
08
e0
fd
1d
00
f8
# Kernel Plane: OutputChannel=27, InputChannel=10
fb
f7
12
e2
01
f8
fe
00
e8
fb
0d
de
fe
e8
fb
ea
# Kernel Plane: OutputChannel=27, InputChannel=11
06
ef
05
f8
14
e6
f7
2f
0a
e3
00
e2
11
00
12
0b
# Kernel Plane: OutputChannel=27, InputChannel=12
ff
06
f2
f6
ff
fd
04
f0
fa
00
06
03
0d
00
f5
fa
# Kernel Plane: OutputChannel=27, InputChannel=13
0f
01
08
df
12
d9
e1
fa
f8
f0
f6
07
03
f9
21
f7
# Kernel Plane: OutputChannel=27, InputChannel=14
f5
d2
ed
e1
fb
1e
0e
01
db
07
0a
eb
fc
fd
f4
12
# Kernel Plane: OutputChannel=27, InputChannel=15
d8
02
1b
11
e9
02
11
fe
22
17
10
f7
10
d7
0a
0b
# Kernel Plane: OutputChannel=27, InputChannel=16
ec
e6
00
12
fb
f2
ea
ed
23
f9
fd
13
08
d6
14
ea
# Kernel Plane: OutputChannel=27, InputChannel=17
07
17
15
d4
e1
f7
ef
de
dd
c7
e4
0c
17
ed
fc
1b
# Kernel Plane: OutputChannel=27, InputChannel=18
0e
e6
dd
fc
f9
e1
d5
ee
0b
e1
e6
f5
08
f9
df
e6
# Kernel Plane: OutputChannel=27, InputChannel=19
08
ef
d3
1d
ec
dd
f8
e4
08
f1
0a
18
1a
f7
ed
06
# Kernel Plane: OutputChannel=27, InputChannel=20
27
2e
1b
05
0d
04
14
fd
19
f3
20
fe
de
1f
06
f5
# Kernel Plane: OutputChannel=27, InputChannel=21
21
cd
e1
03
14
01
22
26
08
0e
19
0c
f8
14
1e
07
# Kernel Plane: OutputChannel=27, InputChannel=22
e5
01
1c
07
17
dd
e0
01
2e
f2
da
fd
d9
12
0d
c2
# Kernel Plane: OutputChannel=27, InputChannel=23
e4
fd
0f
fa
ec
bb
14
07
e0
f0
29
1c
ee
f4
1f
d8
# Kernel Plane: OutputChannel=27, InputChannel=24
00
08
00
04
ce
ab
f9
fd
de
e0
f6
fa
f4
21
e5
15
# Kernel Plane: OutputChannel=27, InputChannel=25
ef
17
e7
10
ed
d4
ec
f0
11
e6
0f
0a
1c
f3
f3
20
# Kernel Plane: OutputChannel=27, InputChannel=26
ef
07
04
f9
f0
be
0d
10
ee
b4
fd
fb
11
d2
f8
11
# Kernel Plane: OutputChannel=27, InputChannel=27
dc
32
fc
f7
c9
01
16
05
f5
03
09
0f
f3
ec
0d
1d
# Kernel Plane: OutputChannel=27, InputChannel=28
1b
05
e5
0a
f2
d7
07
19
de
f4
15
16
04
0a
23
f5
# Kernel Plane: OutputChannel=27, InputChannel=29
de
d1
f0
1c
32
eb
17
26
0d
fe
0e
26
f6
f1
0a
0c
# Kernel Plane: OutputChannel=27, InputChannel=30
2e
18
ff
13
09
17
f1
04
00
05
fa
e4
ef
ea
24
e7
# Kernel Plane: OutputChannel=27, InputChannel=31
28
c1
0d
e4
e1
d5
e4
81
b7
ef
d0
b6
e7
08
f9
0b
# Kernel Plane: OutputChannel=28, InputChannel=0
ae
f6
d5
ec
d1
05
e8
0c
0d
f7
20
d8
1b
e7
2e
0c
# Kernel Plane: OutputChannel=28, InputChannel=1
c9
2d
c4
0f
16
41
0c
10
27
f4
cb
00
25
54
3e
37
# Kernel Plane: OutputChannel=28, InputChannel=2
e9
0b
5e
1c
ce
c6
ea
1e
18
f1
e9
31
2b
fd
c1
0d
# Kernel Plane: OutputChannel=28, InputChannel=3
bc
1c
38
38
f0
c7
2c
49
07
c8
07
2a
d7
13
34
11
# Kernel Plane: OutputChannel=28, InputChannel=4
cb
0c
03
ee
ec
e3
1a
30
c3
0d
f5
09
fd
0f
e0
40
# Kernel Plane: OutputChannel=28, InputChannel=5
37
de
95
81
06
d0
21
16
fc
dc
f2
48
d9
ac
ec
ad
# Kernel Plane: OutputChannel=28, InputChannel=6
f7
ea
fe
e9
ee
ea
07
2a
f6
c6
da
1d
c6
fa
e3
0d
# Kernel Plane: OutputChannel=28, InputChannel=7
91
e6
c6
28
1d
1c
f9
0f
54
fa
20
2e
52
de
f1
ed
# Kernel Plane: OutputChannel=28, InputChannel=8
e5
06
bf
e4
ea
ec
4e
c0
28
bb
1f
c5
44
ce
2b
dc
# Kernel Plane: OutputChannel=28, InputChannel=9
40
ce
d7
e2
d0
31
12
d3
e1
ab
f9
0f
e4
d1
1a
1a
# Kernel Plane: OutputChannel=28, InputChannel=10
13
18
06
40
ff
f2
e8
df
f2
d1
d5
05
f9
a9
b8
22
# Kernel Plane: OutputChannel=28, InputChannel=11
0f
1a
08
f4
00
0a
f2
dc
e1
0a
35
0e
e1
e4
d1
24
# Kernel Plane: OutputChannel=28, InputChannel=12
07
fd
ec
09
03
0f
ee
06
01
14
02
00
01
f9
f8
08
# Kernel Plane: OutputChannel=28, InputChannel=13
03
e7
43
0b
e8
e6
fd
02
b7
0b
11
36
e6
33
07
13
# Kernel Plane: OutputChannel=28, InputChannel=14
f3
27
f8
fa
04
01
fb
da
e6
fb
c9
fe
26
fe
f9
27
# Kernel Plane: OutputChannel=28, InputChannel=15
14
0d
2a
eb
33
ca
04
24
fc
c3
c7
1c
d2
fc
f2
d8
# Kernel Plane: OutputChannel=28, InputChannel=16
07
e3
29
1c
3a
e7
e4
2e
f7
0a
e2
1b
0b
f5
c7
ea
# Kernel Plane: OutputChannel=28, InputChannel=17
ff
e4
1c
2a
46
c1
08
07
10
f4
f5
03
eb
a1
f3
01
# Kernel Plane: OutputChannel=28, InputChannel=18
e8
ab
d0
f6
22
fc
43
3a
2c
0b
11
10
2a
f5
15
e5
# Kernel Plane: OutputChannel=28, InputChannel=19
e2
e5
fe
91
fc
da
3b
1d
1c
f8
0e
15
dc
03
29
30
# Kernel Plane: OutputChannel=28, InputChannel=20
3e
1d
fc
fc
2e
f1
23
19
11
f4
fc
c1
cd
07
fe
1a
# Kernel Plane: OutputChannel=28, InputChannel=21
19
ff
1f
27
d7
01
f8
cc
07
15
c9
25
5e
20
12
11
# Kernel Plane: OutputChannel=28, InputChannel=22
4f
2f
cc
37
0e
fa
ec
da
ed
a5
55
a4
f0
e7
46
15
# Kernel Plane: OutputChannel=28, InputChannel=23
69
e3
e6
f4
e8
d2
df
07
d5
e0
a9
c1
47
a5
99
19
# Kernel Plane: OutputChannel=28, InputChannel=24
23
d6
0b
f0
15
11
d6
ee
bd
09
31
b9
d3
18
2d
eb
# Kernel Plane: OutputChannel=28, InputChannel=25
4b
19
ef
ee
01
cd
fb
2f
f9
c9
1b
ed
24
fd
e0
02
# Kernel Plane: OutputChannel=28, InputChannel=26
0b
b7
01
34
02
e7
f9
01
a7
04
ff
19
09
0f
eb
1c
# Kernel Plane: OutputChannel=28, InputChannel=27
0c
e4
d6
df
07
f9
b7
03
2a
24
e1
3e
e8
25
ec
f5
# Kernel Plane: OutputChannel=28, InputChannel=28
e0
fd
05
0b
b1
15
37
da
36
2f
0c
df
e3
e3
ca
0f
# Kernel Plane: OutputChannel=28, InputChannel=29
ef
13
21
08
0e
e9
e9
25
da
03
0a
05
61
d9
42
22
# Kernel Plane: OutputChannel=28, InputChannel=30
be
e2
0c
e5
e2
19
fb
14
f1
0e
d1
1a
ec
11
0e
05
# Kernel Plane: OutputChannel=28, InputChannel=31
07
e1
17
2d
e7
15
13
32
1f
16
c6
2e
2c
19
21
21
# Kernel Plane: OutputChannel=29, InputChannel=0
ba
0b
02
ef
fc
fb
1a
1b
35
f2
02
02
e2
e5
c1
d2
# Kernel Plane: OutputChannel=29, InputChannel=1
e8
e0
ad
81
b7
b5
ed
ec
bc
a5
d9
08
25
f1
ce
02
# Kernel Plane: OutputChannel=29, InputChannel=2
19
02
0a
f9
17
de
ff
04
ff
fc
f8
0a
1c
14
13
22
# Kernel Plane: OutputChannel=29, InputChannel=3
e6
f8
de
32
ac
21
3d
0f
03
f3
17
e2
60
0c
be
c0
# Kernel Plane: OutputChannel=29, InputChannel=4
3e
01
cb
41
1e
b8
01
18
0e
06
2e
f8
be
09
03
08
# Kernel Plane: OutputChannel=29, InputChannel=5
0c
24
fd
e5
cc
fe
f5
e1
02
03
ca
f3
13
60
ee
f5
# Kernel Plane: OutputChannel=29, InputChannel=6
06
e1
a7
b8
23
13
db
0f
ff
1b
e0
1c
12
da
01
1e
# Kernel Plane: OutputChannel=29, InputChannel=7
27
ca
e9
36
1e
e4
0e
10
ea
fd
38
f5
21
06
0e
d7
# Kernel Plane: OutputChannel=29, InputChannel=8
ef
19
6d
1b
0f
15
0e
de
3a
16
07
23
a3
cb
10
31
# Kernel Plane: OutputChannel=29, InputChannel=9
17
f3
ee
1f
e9
14
ff
ef
27
0d
b0
cb
b2
cf
e1
c2
# Kernel Plane: OutputChannel=29, InputChannel=10
01
2a
09
04
f9
15
ec
bb
f6
f1
06
f6
fa
f7
05
2e
# Kernel Plane: OutputChannel=29, InputChannel=11
08
fd
0c
c9
02
c5
54
f5
c4
ce
2b
2f
1c
34
17
2f
# Kernel Plane: OutputChannel=29, InputChannel=12
07
04
0d
0c
ff
02
fd
f6
fd
02
fd
04
ff
0d
05
f9
# Kernel Plane: OutputChannel=29, InputChannel=13
3a
0d
08
1f
1e
0e
d0
bd
e3
f6
20
cb
e3
08
24
0d
# Kernel Plane: OutputChannel=29, InputChannel=14
a6
09
00
9e
91
d9
02
f4
c1
cd
0e
0e
2f
e4
f9
fa
# Kernel Plane: OutputChannel=29, InputChannel=15
14
f3
03
fa
1e
e8
13
f4
f2
ef
da
0b
ec
34
cc
c2
# Kernel Plane: OutputChannel=29, InputChannel=16
c2
fa
d2
eb
28
01
ed
23
1f
e2
cd
1e
12
27
3c
14
# Kernel Plane: OutputChannel=29, InputChannel=17
0f
01
08
d6
cc
f9
e2
da
df
f1
0d
fa
0c
10
3c
fd
# Kernel Plane: OutputChannel=29, InputChannel=18
f9
3b
ed
da
0c
eb
fc
29
01
e5
f3
f5
ed
0e
e3
02
# Kernel Plane: OutputChannel=29, InputChannel=19
f2
01
22
04
24
d8
1b
13
13
eb
f5
22
be
0e
db
29
# Kernel Plane: OutputChannel=29, InputChannel=20
23
f4
08
ff
fb
06
df
00
04
0a
20
f5
d5
11
dd
05
# Kernel Plane: OutputChannel=29, InputChannel=21
3a
0d
d8
0e
0d
a3
e5
fb
ff
17
d3
32
34
1d
fb
30
# Kernel Plane: OutputChannel=29, InputChannel=22
2f
c6
bc
f1
d0
02
fa
ef
ed
d0
ea
02
1d
c9
8b
fa
# Kernel Plane: OutputChannel=29, InputChannel=23
f8
e5
02
f9
11
0d
ec
f0
16
f3
0a
fa
02
ec
3a
ef
# Kernel Plane: OutputChannel=29, InputChannel=24
1e
d4
4b
1e
e7
fe
f7
d9
ff
d3
e3
08
fa
c9
25
01
# Kernel Plane: OutputChannel=29, InputChannel=25
fc
ee
32
ef
16
f5
fb
fa
f2
05
c5
ff
22
f3
2a
05
# Kernel Plane: OutputChannel=29, InputChannel=26
02
11
01
e3
07
cf
05
0a
08
d7
27
00
e2
e0
2b
16
# Kernel Plane: OutputChannel=29, InputChannel=27
07
1f
ed
f1
ff
c9
03
0d
31
da
08
fa
1e
1e
02
20
# Kernel Plane: OutputChannel=29, InputChannel=28
0a
35
be
a1
31
00
19
cb
1d
11
42
14
00
f2
f7
18
# Kernel Plane: OutputChannel=29, InputChannel=29
f2
26
e5
0f
ff
ef
dc
0a
fe
bd
d6
09
20
ea
19
21
# Kernel Plane: OutputChannel=29, InputChannel=30
16
dd
c5
f8
13
dc
04
23
1b
fc
02
0d
cd
20
f2
1a
# Kernel Plane: OutputChannel=29, InputChannel=31
09
16
58
f7
ed
fb
d2
bb
0e
1d
17
b0
f7
ec
dc
e8
# Kernel Plane: OutputChannel=30, InputChannel=0
2b
e6
f4
0b
10
ed
ba
f9
e1
d5
dd
06
01
a8
0e
2c
# Kernel Plane: OutputChannel=30, InputChannel=1
fd
dc
28
ab
b8
a0
e2
81
27
ee
1e
b8
17
28
2b
2b
# Kernel Plane: OutputChannel=30, InputChannel=2
fd
2b
be
eb
02
16
14
c9
1a
fa
0e
d9
e3
e6
fa
f0
# Kernel Plane: OutputChannel=30, InputChannel=3
f4
fe
24
ec
e7
ea
4f
ce
21
e5
3e
f0
ea
f2
f0
1f
# Kernel Plane: OutputChannel=30, InputChannel=4
07
ec
e4
fd
18
ec
e8
05
ff
d3
1c
1e
ee
07
fe
e2
# Kernel Plane: OutputChannel=30, InputChannel=5
1e
d6
e8
f1
ec
f3
fe
02
06
fb
2f
10
10
fc
12
36
# Kernel Plane: OutputChannel=30, InputChannel=6
e5
0e
c0
ea
f8
f8
ad
30
e5
fc
08
f7
d2
01
0a
03
# Kernel Plane: OutputChannel=30, InputChannel=7
37
1c
d6
e7
75
0e
fe
f3
1a
01
2e
f2
26
13
00
08
# Kernel Plane: OutputChannel=30, InputChannel=8
62
0b
21
40
05
19
0f
e3
ec
46
f9
00
0f
3c
0f
0d
# Kernel Plane: OutputChannel=30, InputChannel=9
13
ea
0d
2d
ef
d8
e3
19
ef
dd
2a
11
3f
df
08
2e
# Kernel Plane: OutputChannel=30, InputChannel=10
08
10
e6
2e
06
11
04
10
2b
12
1c
f4
f6
0c
f9
f1
# Kernel Plane: OutputChannel=30, InputChannel=11
24
ba
f4
38
fc
d9
db
06
0b
09
24
ea
1b
19
fa
fd
# Kernel Plane: OutputChannel=30, InputChannel=12
01
0a
03
f8
17
fa
05
03
16
07
09
08
03
09
f9
12
# Kernel Plane: OutputChannel=30, InputChannel=13
0a
f3
f1
46
f4
08
f4
02
2c
01
1b
fa
d1
e9
2e
dd
# Kernel Plane: OutputChannel=30, InputChannel=14
07
19
13
06
0e
09
fa
a1
e5
01
ff
f0
1e
0b
f2
0e
# Kernel Plane: OutputChannel=30, InputChannel=15
05
f7
14
ea
2d
e1
05
08
01
18
cf
f1
d1
21
00
fd
# Kernel Plane: OutputChannel=30, InputChannel=16
09
db
dc
fc
37
09
f2
0f
fc
da
e6
0d
1c
f3
d6
11
# Kernel Plane: OutputChannel=30, InputChannel=17
02
0b
53
e3
21
0f
36
c3
41
26
df
ed
0a
fb
eb
e1
# Kernel Plane: OutputChannel=30, InputChannel=18
e6
e8
de
17
ee
ef
f4
13
15
ae
2e
21
d0
de
15
14
# Kernel Plane: OutputChannel=30, InputChannel=19
d7
11
ee
fa
fa
fb
e2
01
f0
e2
09
fc
0f
29
d4
12
# Kernel Plane: OutputChannel=30, InputChannel=20
2d
ce
f6
17
15
e5
c9
ef
27
dc
ca
f2
f4
1c
fc
bf
# Kernel Plane: OutputChannel=30, InputChannel=21
f5
f5
00
07
14
a5
fe
26
fb
b1
fc
17
01
ff
e4
ed
# Kernel Plane: OutputChannel=30, InputChannel=22
ee
ad
10
11
0e
d4
15
15
01
df
26
0f
ec
ba
2e
50
# Kernel Plane: OutputChannel=30, InputChannel=23
0f
2d
e2
16
16
2f
d9
2f
fd
f1
c4
de
17
13
f1
ef
# Kernel Plane: OutputChannel=30, InputChannel=24
0c
f4
fc
12
2e
f5
03
01
1a
e8
fe
f1
f3
c3
11
00
# Kernel Plane: OutputChannel=30, InputChannel=25
f0
fb
e2
e5
cc
ec
00
da
1a
1f
05
14
13
ff
e7
cb
# Kernel Plane: OutputChannel=30, InputChannel=26
dd
05
18
00
e4
0d
01
fa
f9
06
d6
1b
d7
e5
cc
02
# Kernel Plane: OutputChannel=30, InputChannel=27
12
01
09
03
fb
d8
c4
18
30
f7
f0
f4
0f
f9
d0
eb
# Kernel Plane: OutputChannel=30, InputChannel=28
35
12
1a
df
e5
db
d4
fa
1d
c5
0f
ea
17
bf
f2
12
# Kernel Plane: OutputChannel=30, InputChannel=29
fd
ea
d3
11
03
07
a6
01
0a
f9
f9
05
d3
f5
09
07
# Kernel Plane: OutputChannel=30, InputChannel=30
dc
f9
ae
00
00
d0
a1
09
2d
d9
ff
0e
1b
28
16
fa
# Kernel Plane: OutputChannel=30, InputChannel=31
df
de
f0
33
e0
19
f6
dc
0a
02
fc
ee
db
f4
0f
27
# Kernel Plane: OutputChannel=31, InputChannel=0
d3
be
fb
32
06
06
1d
16
bd
e6
25
2d
10
fc
0e
3c
# Kernel Plane: OutputChannel=31, InputChannel=1
c0
b5
e4
df
2b
ee
1c
b0
f8
06
c1
00
27
15
0e
0a
# Kernel Plane: OutputChannel=31, InputChannel=2
11
e6
0b
e2
d1
da
06
e3
e7
c2
c8
e0
04
35
19
c2
# Kernel Plane: OutputChannel=31, InputChannel=3
e2
f0
2a
e9
a8
0b
04
e4
13
01
d1
c5
cd
0d
21
e2
# Kernel Plane: OutputChannel=31, InputChannel=4
c8
0f
ee
d5
c4
cd
d4
ea
dd
34
ee
31
10
c7
f4
f6
# Kernel Plane: OutputChannel=31, InputChannel=5
0b
13
dd
47
ba
df
ea
c8
26
ea
e8
08
c9
31
e4
03
# Kernel Plane: OutputChannel=31, InputChannel=6
20
27
25
0d
2b
bc
0a
3c
11
36
08
e4
ef
38
28
36
# Kernel Plane: OutputChannel=31, InputChannel=7
f0
c9
e6
fb
d7
0d
e5
b9
32
2a
ee
12
de
b8
d3
dd
# Kernel Plane: OutputChannel=31, InputChannel=8
05
46
c4
a9
e3
a8
a2
a4
c3
1e
1b
cb
0a
07
1b
cb
# Kernel Plane: OutputChannel=31, InputChannel=9
b6
25
ee
05
d0
d0
06
f6
34
14
2e
c9
25
0d
da
23
# Kernel Plane: OutputChannel=31, InputChannel=10
21
ba
e3
1d
9a
dc
11
b8
34
ca
e2
ca
dd
c7
25
ed
# Kernel Plane: OutputChannel=31, InputChannel=11
1b
dc
1d
0c
d6
d4
25
06
c0
30
0b
ef
f3
1c
d9
04
