# Bias Weights (Typically int32 from TFLite, written as bytes)
# Tensor Name: tfl.pseudo_qconst
# Original Shape: [10]
# Dtype: <class 'numpy.int32'>
# Scales: [8.1222832e-05 1.3010220e-04 7.7390090e-05 6.7493318e-05 9.6817821e-05
 8.6783599e-05 1.2556995e-04 1.1181495e-04 1.0449225e-04 1.0240002e-04]
# Zero Points: [0 0 0 0 0 0 0 0 0 0]
c5
fe
ff
ff
ca
fc
ff
ff
10
01
00
00
0f
fa
ff
ff
7d
08
00
00
f2
01
00
00
bc
02
00
00
95
fc
ff
ff
2d
00
00
00
65
fe
ff
ff
# End Tensor

# Tensor Name: tfl.pseudo_qconst10
# Original Shape: [8]
# Dtype: <class 'numpy.int32'>
# Scales: [1.1724896e-05 1.0012295e-05 1.1638280e-05 9.0991161e-06 1.0647376e-05
 9.0818821e-06 1.2235658e-05 1.0215829e-05]
# Zero Points: [0 0 0 0 0 0 0 0]
28
04
00
00
d2
06
00
00
a7
0d
00
00
b9
dc
ff
ff
62
07
00
00
40
08
00
00
3d
fd
ff
ff
9c
07
00
00
# End Tensor

# Tensor Name: tfl.pseudo_qconst2
# Original Shape: [64]
# Dtype: <class 'numpy.int32'>
# Scales: [9.76994779e-05 3.40843835e-05 9.28903464e-05 8.38562046e-05
 9.91109482e-05 7.77240566e-05 7.97141547e-05 4.12362351e-05
 8.24609815e-05 5.81303539e-05 1.04293540e-04 3.25802393e-05
 9.03578621e-05 9.70940309e-05 1.17209631e-04 8.14476516e-05
 3.46445850e-05 3.99326345e-05 7.00560267e-05 3.77227007e-05
 7.79640322e-05 9.60525940e-05 3.79249686e-05 3.60510749e-05
 8.20452551e-05 8.34483144e-05 9.55929208e-05 8.45280520e-05
 3.27693306e-05 7.58428287e-05 1.00644866e-04 1.09906352e-04
 3.13267774e-05 3.38578939e-05 8.53730089e-05 9.75247458e-05
 1.06913278e-04 5.89581941e-05 3.51494200e-05 9.45769425e-05
 1.20390818e-04 1.13395552e-04 8.75665719e-05 9.01535022e-05
 8.34315506e-05 3.87354776e-05 7.67387610e-05 6.50900693e-05
 9.81781777e-05 7.15942588e-05 8.68184070e-05 3.53564610e-05
 3.61249840e-05 8.76556660e-05 3.87492328e-05 8.31032667e-05
 9.41910985e-05 4.59054172e-05 3.85522580e-05 8.26598844e-05
 4.45057558e-05 8.46066469e-05 8.38234264e-05 3.45868102e-05]
# Zero Points: [0 0 0 0 0 0 0 0 0 0 0 0 0 0 0 0 0 0 0 0 0 0 0 0 0 0 0 0 0 0 0 0 0 0 0 0 0
 0 0 0 0 0 0 0 0 0 0 0 0 0 0 0 0 0 0 0 0 0 0 0 0 0 0 0]
e3
fd
ff
ff
a0
fd
ff
ff
88
02
00
00
8c
01
00
00
6a
07
00
00
10
03
00
00
bc
00
00
00
67
fc
ff
ff
3a
00
00
00
f7
fe
ff
ff
85
02
00
00
de
ff
ff
ff
06
fd
ff
ff
db
00
00
00
e9
ff
ff
ff
7a
05
00
00
c0
00
00
00
00
f9
ff
ff
c8
fa
ff
ff
0e
fc
ff
ff
03
05
00
00
d9
00
00
00
e7
fa
ff
ff
4a
fe
ff
ff
38
06
00
00
09
07
00
00
80
ff
ff
ff
07
00
00
00
cb
fa
ff
ff
cc
01
00
00
37
06
00
00
35
fe
ff
ff
bd
fd
ff
ff
b1
fd
ff
ff
c8
04
00
00
50
04
00
00
71
03
00
00
b5
fe
ff
ff
d6
fa
ff
ff
e5
ff
ff
ff
e4
00
00
00
7e
fc
ff
ff
79
00
00
00
55
02
00
00
a7
fa
ff
ff
71
f8
ff
ff
07
f9
ff
ff
96
00
00
00
b3
03
00
00
38
03
00
00
db
06
00
00
b8
fd
ff
ff
41
fb
ff
ff
0c
02
00
00
27
fa
ff
ff
d5
01
00
00
c8
fe
ff
ff
81
fe
ff
ff
ae
fb
ff
ff
63
fc
ff
ff
b1
fd
ff
ff
98
04
00
00
47
00
00
00
6d
fc
ff
ff
# End Tensor

# Tensor Name: tfl.pseudo_qconst4
# Original Shape: [64]
# Dtype: <class 'numpy.int32'>
# Scales: [7.3472867e-05 6.2006533e-05 7.0237984e-05 7.4117837e-05 7.2491624e-05
 4.8203859e-05 5.6731482e-05 6.4139596e-05 6.3450250e-05 6.4538697e-05
 7.7164041e-05 4.6871639e-05 7.5636810e-05 1.1639788e-05 2.3577968e-05
 6.1157763e-05 7.2210889e-05 8.8668778e-05 5.6905883e-05 7.3840383e-05
 1.4968262e-05 6.8367626e-05 7.4215735e-05 6.6267698e-05 6.7181427e-05
 6.8396614e-05 7.8223035e-05 9.1273527e-05 6.0964991e-05 6.8045694e-05
 7.2259361e-05 1.5852103e-05 6.6724730e-05 5.9377584e-05 5.7064259e-05
 6.8693756e-05 6.8295478e-05 1.3829869e-05 1.5816142e-05 7.4683463e-05
 6.9630980e-05 5.8139463e-05 7.8511803e-05 6.0624476e-05 2.6407444e-05
 6.2759464e-05 5.8709997e-05 6.4670341e-05 7.9258411e-05 8.9173758e-05
 7.2192517e-05 4.0110761e-05 6.9082489e-05 6.5922351e-05 5.2589516e-05
 8.1465783e-05 5.7073979e-05 5.7250294e-05 7.5445576e-05 1.2731825e-05
 5.7669848e-05 3.6231148e-05 9.0810834e-05 6.8570691e-05]
# Zero Points: [0 0 0 0 0 0 0 0 0 0 0 0 0 0 0 0 0 0 0 0 0 0 0 0 0 0 0 0 0 0 0 0 0 0 0 0 0
 0 0 0 0 0 0 0 0 0 0 0 0 0 0 0 0 0 0 0 0 0 0 0 0 0 0 0]
aa
fc
ff
ff
23
01
00
00
b9
0e
00
00
0c
0f
00
00
70
f9
ff
ff
86
01
00
00
a0
fa
ff
ff
81
0c
00
00
e9
07
00
00
c2
04
00
00
e4
03
00
00
e0
fd
ff
ff
e2
00
00
00
f5
fb
ff
ff
14
f2
ff
ff
22
05
00
00
16
f8
ff
ff
1e
0e
00
00
74
02
00
00
6d
01
00
00
d1
fa
ff
ff
65
0b
00
00
31
fe
ff
ff
6b
04
00
00
04
10
00
00
8f
f3
ff
ff
82
0e
00
00
cc
07
00
00
72
01
00
00
d2
04
00
00
16
ff
ff
ff
fb
f5
ff
ff
4d
01
00
00
4f
fa
ff
ff
27
02
00
00
c5
f2
ff
ff
c9
06
00
00
3a
f9
ff
ff
a6
f4
ff
ff
ab
04
00
00
52
f8
ff
ff
1d
ef
ff
ff
70
01
00
00
82
0a
00
00
75
f2
ff
ff
f3
03
00
00
3e
15
00
00
33
01
00
00
9d
fc
ff
ff
22
04
00
00
76
fd
ff
ff
e0
f6
ff
ff
40
fc
ff
ff
49
fa
ff
ff
27
02
00
00
42
fa
ff
ff
7d
f8
ff
ff
fb
f4
ff
ff
c9
01
00
00
2e
f9
ff
ff
41
04
00
00
be
f2
ff
ff
33
fe
ff
ff
f1
f9
ff
ff
# End Tensor

# Tensor Name: tfl.pseudo_qconst6
# Original Shape: [32]
# Dtype: <class 'numpy.int32'>
# Scales: [5.0182447e-05 4.3072996e-05 2.8366434e-05 2.7194470e-05 3.5214111e-05
 3.1998552e-05 2.6456853e-05 4.0170369e-05 3.4124179e-05 3.4722405e-05
 3.2007028e-05 4.0082185e-05 1.0846824e-05 2.8918905e-05 3.6365360e-05
 2.9058512e-05 2.9350595e-05 2.4637870e-05 2.9652054e-05 3.2039803e-05
 2.7668471e-05 2.4326506e-05 5.9676840e-05 2.7809294e-05 3.6470326e-05
 2.9043404e-05 3.4075783e-05 2.7878976e-05 2.5009647e-05 3.7258535e-05
 2.7183392e-05 4.1076568e-05]
# Zero Points: [0 0 0 0 0 0 0 0 0 0 0 0 0 0 0 0 0 0 0 0 0 0 0 0 0 0 0 0 0 0 0 0]
fe
04
00
00
cc
09
00
00
89
0b
00
00
34
ff
ff
ff
9a
08
00
00
90
0e
00
00
d9
fb
ff
ff
4a
19
00
00
c8
17
00
00
e3
1f
00
00
7d
15
00
00
f7
ef
ff
ff
c3
ea
ff
ff
39
fe
ff
ff
8b
fe
ff
ff
f1
fb
ff
ff
34
f5
ff
ff
d6
de
ff
ff
c1
f6
ff
ff
7f
fb
ff
ff
16
fc
ff
ff
0e
31
00
00
8d
02
00
00
d3
f4
ff
ff
32
fc
ff
ff
ec
ee
ff
ff
a8
e9
ff
ff
ba
15
00
00
af
15
00
00
e2
14
00
00
34
00
00
00
52
0e
00
00
# End Tensor

# Tensor Name: tfl.pseudo_qconst8
# Original Shape: [16]
# Dtype: <class 'numpy.int32'>
# Scales: [1.6124026e-05 2.0621648e-05 1.9174009e-05 1.7035582e-05 1.2814649e-05
 1.5057506e-05 1.6820495e-05 1.3369229e-05 1.2303711e-05 2.0747177e-05
 1.1981409e-05 2.9511421e-05 2.0135501e-05 2.2213480e-05 1.6622442e-05
 1.2318272e-05]
# Zero Points: [0 0 0 0 0 0 0 0 0 0 0 0 0 0 0 0]
c2
1c
00
00
39
fc
ff
ff
f8
f8
ff
ff
b2
eb
ff
ff
44
f2
ff
ff
2a
f9
ff
ff
5a
07
00
00
3c
dd
ff
ff
e3
f3
ff
ff
f5
07
00
00
94
e4
ff
ff
eb
10
00
00
d0
fc
ff
ff
51
ff
ff
ff
a7
1d
00
00
31
f0
ff
ff
# End Tensor

