# Conv2D Kernel Weights (int8) - Keras Layer Order. Stored as 4x4 planes, row-major flattened, 16 values (32 hex chars) per line, no spaces. Scales/ZPs handled separately by hardware.
# Tensor Name (TFLite): tfl.pseudo_qconst11
# Original Shape: [np.int32(8), np.int32(4), np.int32(4), np.int32(1)]
# Dtype: <class 'numpy.int8'>
# Keras Layer (derived): Conv Kernel Plane - OutputChannel=0, InputChannel=0
2bef03e1d2061013810f600cd0e44dfb
# Keras Layer (derived): Conv Kernel Plane - OutputChannel=1, InputChannel=0
21bf0e0dc1ce2f30b2d1fc7ff6abe777
# Keras Layer (derived): Conv Kernel Plane - OutputChannel=2, InputChannel=0
ee81c05f353bebf55b31268b43334a04
# Keras Layer (derived): Conv Kernel Plane - OutputChannel=3, InputChannel=0
f14cfdc79e819be6f40d062a6c3d1f3c
# Keras Layer (derived): Conv Kernel Plane - OutputChannel=4, InputChannel=0
0b3007baee7ff19ce175f6b21425b60b
# Keras Layer (derived): Conv Kernel Plane - OutputChannel=5, InputChannel=0
3f613562819c8e99123829eaff0215fe
# Keras Layer (derived): Conv Kernel Plane - OutputChannel=6, InputChannel=0
d518704f1cd8217f97acd231d8178e32
# Keras Layer (derived): Conv Kernel Plane - OutputChannel=7, InputChannel=0
0f3bfe0c276e1cd86db7d2cf9b81e44c
# End Tensor

# Tensor Name (TFLite): tfl.pseudo_qconst9
# Original Shape: [np.int32(16), np.int32(4), np.int32(4), np.int32(8)]
# Dtype: <class 'numpy.int8'>
# Keras Layer (derived): Conv Kernel Plane - OutputChannel=0, InputChannel=0
f0f620c012fa1151e939e30a0cd42efc
# Keras Layer (derived): Conv Kernel Plane - OutputChannel=0, InputChannel=1
f02c2dcb38d13319dd37d81206c5bffc
# Keras Layer (derived): Conv Kernel Plane - OutputChannel=0, InputChannel=2
00ead4fadd52fce9dc163704d2f31d27
# Keras Layer (derived): Conv Kernel Plane - OutputChannel=0, InputChannel=3
1606fe0fd7161aebfafa2f2bdb042a20
# Keras Layer (derived): Conv Kernel Plane - OutputChannel=0, InputChannel=4
16d6e5e25746dc0dc93315e030f12611
# Keras Layer (derived): Conv Kernel Plane - OutputChannel=0, InputChannel=5
01d51c19be1e310fd100571beb4b7fee
# Keras Layer (derived): Conv Kernel Plane - OutputChannel=0, InputChannel=6
0efad600efc4360ef616eef80af1e6cb
# Keras Layer (derived): Conv Kernel Plane - OutputChannel=0, InputChannel=7
ee004dcc0ffe1521b9ebdf9d110d081f
# Keras Layer (derived): Conv Kernel Plane - OutputChannel=1, InputChannel=0
e093101ce3b3352d123d291ea3f5172e
# Keras Layer (derived): Conv Kernel Plane - OutputChannel=1, InputChannel=1
dbb6e228b9ed7047c41c5134c9134436
# Keras Layer (derived): Conv Kernel Plane - OutputChannel=1, InputChannel=2
cfc8bfc6bbc2e014f6dccfdecedde111
# Keras Layer (derived): Conv Kernel Plane - OutputChannel=1, InputChannel=3
d8c0ccfbfb17d1d5172aeb053d012938
# Keras Layer (derived): Conv Kernel Plane - OutputChannel=1, InputChannel=4
130a24ce092f3dae03236210de3425e6
# Keras Layer (derived): Conv Kernel Plane - OutputChannel=1, InputChannel=5
e2e12c01350c0fc559f497ef21a69319
# Keras Layer (derived): Conv Kernel Plane - OutputChannel=1, InputChannel=6
b110580c1a09f8e344b0d4f032bde2e6
# Keras Layer (derived): Conv Kernel Plane - OutputChannel=1, InputChannel=7
ce195d401455dca638fdce0c0fba81b3
# Keras Layer (derived): Conv Kernel Plane - OutputChannel=2, InputChannel=0
20dd0af82cf5231fd212fedeebfddb09
# Keras Layer (derived): Conv Kernel Plane - OutputChannel=2, InputChannel=1
e210e5e6c224de10c432daf30530edf5
# Keras Layer (derived): Conv Kernel Plane - OutputChannel=2, InputChannel=2
dfd6f12bf8fa202ef6f41901ebe4fdf0
# Keras Layer (derived): Conv Kernel Plane - OutputChannel=2, InputChannel=3
eef9ff0dfed7fa1718e7de001c0c1212
# Keras Layer (derived): Conv Kernel Plane - OutputChannel=2, InputChannel=4
f503ebea5df3e1147f002beb11de0de7
# Keras Layer (derived): Conv Kernel Plane - OutputChannel=2, InputChannel=5
20d11af737e31fec110f2df558262211
# Keras Layer (derived): Conv Kernel Plane - OutputChannel=2, InputChannel=6
1df70830d6c60ee5fff9fc0e0502ded2
# Keras Layer (derived): Conv Kernel Plane - OutputChannel=2, InputChannel=7
ff04eb3fa90506fc19212b15ebf712f4
# Keras Layer (derived): Conv Kernel Plane - OutputChannel=3, InputChannel=0
d625f8f3301ed61c0f94190a052af9dd
# Keras Layer (derived): Conv Kernel Plane - OutputChannel=3, InputChannel=1
08ece4f404e71225d1cf3cf7d82be3e6
# Keras Layer (derived): Conv Kernel Plane - OutputChannel=3, InputChannel=2
d2d1e6cc0208e2e526f6e9070f114425
# Keras Layer (derived): Conv Kernel Plane - OutputChannel=3, InputChannel=3
0afaf50852f3c50e12f63e06d21f3ae7
# Keras Layer (derived): Conv Kernel Plane - OutputChannel=3, InputChannel=4
18c1fe04df2158f40619dcf0fcd7bbdb
# Keras Layer (derived): Conv Kernel Plane - OutputChannel=3, InputChannel=5
13fcddd91bbfd417e6f405cee7d5d6f6
# Keras Layer (derived): Conv Kernel Plane - OutputChannel=3, InputChannel=6
f1dbd2e0a3a8aa000191cbbc1ba748f7
# Keras Layer (derived): Conv Kernel Plane - OutputChannel=3, InputChannel=7
fbeaba64b6c27f24165f30d52c05e518
# Keras Layer (derived): Conv Kernel Plane - OutputChannel=4, InputChannel=0
e9d005e906c4a0a216d09ff319cff8dd
# Keras Layer (derived): Conv Kernel Plane - OutputChannel=4, InputChannel=1
9df7f511b381b7e4ece3b8e8c1eee20e
# Keras Layer (derived): Conv Kernel Plane - OutputChannel=4, InputChannel=2
2afdd8db2901f1e30a02f4ed1903f3f3
# Keras Layer (derived): Conv Kernel Plane - OutputChannel=4, InputChannel=3
0b0ef903f2210711fceb0015fe0804ee
# Keras Layer (derived): Conv Kernel Plane - OutputChannel=4, InputChannel=4
23ff0afb56f2d7f336f6d2dd31dfcff0
# Keras Layer (derived): Conv Kernel Plane - OutputChannel=4, InputChannel=5
03372a1bccd017440e100d27f0f1f7f3
# Keras Layer (derived): Conv Kernel Plane - OutputChannel=4, InputChannel=6
e7f0c4ec20efebd90cd9f4fe1fe90904
# Keras Layer (derived): Conv Kernel Plane - OutputChannel=4, InputChannel=7
f9ec2416fe021012141d00fb12ffd0f9
# Keras Layer (derived): Conv Kernel Plane - OutputChannel=5, InputChannel=0
1301060ef9e2e70110fdedf01b07f8ed
# Keras Layer (derived): Conv Kernel Plane - OutputChannel=5, InputChannel=1
f80e011f03f6f80c01faf0f613f2eff2
# Keras Layer (derived): Conv Kernel Plane - OutputChannel=5, InputChannel=2
eff9ebf1d9dff304f1ef031a030b1f1c
# Keras Layer (derived): Conv Kernel Plane - OutputChannel=5, InputChannel=3
fe1916fa0f0b09161b0f100b1900071f
# Keras Layer (derived): Conv Kernel Plane - OutputChannel=5, InputChannel=4
11fb15f1eea79cb0cf8e81cbe4c2c607
# Keras Layer (derived): Conv Kernel Plane - OutputChannel=5, InputChannel=5
fa03000113210d081df0ee28e9e0bae3
# Keras Layer (derived): Conv Kernel Plane - OutputChannel=5, InputChannel=6
e4f4fb0cfe0001fed0f30107f2fcfd0a
# Keras Layer (derived): Conv Kernel Plane - OutputChannel=5, InputChannel=7
190d1505fcfcfe0d0c010501f4ec0509
# Keras Layer (derived): Conv Kernel Plane - OutputChannel=6, InputChannel=0
32dfeef4fbbebeacffc7efc31704281a
# Keras Layer (derived): Conv Kernel Plane - OutputChannel=6, InputChannel=1
01d01d2ddea3a09bf5b68c9714210d28
# Keras Layer (derived): Conv Kernel Plane - OutputChannel=6, InputChannel=2
18f3efda10191d13e40c2301f8efeb09
# Keras Layer (derived): Conv Kernel Plane - OutputChannel=6, InputChannel=3
001f17f71e0f1d231c171d2adbfaf010
# Keras Layer (derived): Conv Kernel Plane - OutputChannel=6, InputChannel=4
26fe11edd2c611f088ab1dff2913fd02
# Keras Layer (derived): Conv Kernel Plane - OutputChannel=6, InputChannel=5
23f7ec0225f6e4d6d300e8131f293000
# Keras Layer (derived): Conv Kernel Plane - OutputChannel=6, InputChannel=6
fced01fee4ab530a07eefeff140ef1eb
# Keras Layer (derived): Conv Kernel Plane - OutputChannel=6, InputChannel=7
e5e00f038187a1e51c122926271f10ed
# Keras Layer (derived): Conv Kernel Plane - OutputChannel=7, InputChannel=0
db23f1f4db34fa2605f116e317e816f9
# Keras Layer (derived): Conv Kernel Plane - OutputChannel=7, InputChannel=1
d621fdfefd29e5fe11fafa0f13e826ef
# Keras Layer (derived): Conv Kernel Plane - OutputChannel=7, InputChannel=2
0de10dedf8f507e3010cf1ee21111701
# Keras Layer (derived): Conv Kernel Plane - OutputChannel=7, InputChannel=3
06e1fbda04efe90229ff00f4efff0717
# Keras Layer (derived): Conv Kernel Plane - OutputChannel=7, InputChannel=4
2de8ffe97fdf1b0c351f0317fc14f4ef
# Keras Layer (derived): Conv Kernel Plane - OutputChannel=7, InputChannel=5
1bcbe5fcd2bdd32f05d8e541fbf3a813
# Keras Layer (derived): Conv Kernel Plane - OutputChannel=7, InputChannel=6
ede325f0d1010ddd07e6e11d00f010fd
# Keras Layer (derived): Conv Kernel Plane - OutputChannel=7, InputChannel=7
0cf9d6ec18d0dfd946d8ed0212f8f0ee
# Keras Layer (derived): Conv Kernel Plane - OutputChannel=8, InputChannel=0
340628cce61df9ebc322fe0be2ff1ee2
# Keras Layer (derived): Conv Kernel Plane - OutputChannel=8, InputChannel=1
01f5d7f0fc00faaa171edcddf0080dd6
# Keras Layer (derived): Conv Kernel Plane - OutputChannel=8, InputChannel=2
011f1b2d0f291b28f912001b1c22fbf0
# Keras Layer (derived): Conv Kernel Plane - OutputChannel=8, InputChannel=3
e3e4bb090adaba0916e3f2db14e2bdf7
# Keras Layer (derived): Conv Kernel Plane - OutputChannel=8, InputChannel=4
d7f2fd4b01fb2b0c15353d1a074a1d29
# Keras Layer (derived): Conv Kernel Plane - OutputChannel=8, InputChannel=5
01fef039edead6cb8109cfd3bf25fbcb
# Keras Layer (derived): Conv Kernel Plane - OutputChannel=8, InputChannel=6
4235ebfbe60e12d1bc090808d4c3c81b
# Keras Layer (derived): Conv Kernel Plane - OutputChannel=8, InputChannel=7
ec08ff2a02dfd024c22e400a1f130902
# Keras Layer (derived): Conv Kernel Plane - OutputChannel=9, InputChannel=0
11ebddee0f9ca1f1fca1c2d4111b2804
# Keras Layer (derived): Conv Kernel Plane - OutputChannel=9, InputChannel=1
f9dde8d8ddaab2ccf9c9c4ea34f1ec22
# Keras Layer (derived): Conv Kernel Plane - OutputChannel=9, InputChannel=2
0f16fe0513f6e9dc05ebf0ea371518ef
# Keras Layer (derived): Conv Kernel Plane - OutputChannel=9, InputChannel=3
ffd8e701e4dc04c42b02f8062c372e21
# Keras Layer (derived): Conv Kernel Plane - OutputChannel=9, InputChannel=4
effb160daa81a3d8bf8baed305d40816
# Keras Layer (derived): Conv Kernel Plane - OutputChannel=9, InputChannel=5
1307081d300d0af1220608252d28271b
# Keras Layer (derived): Conv Kernel Plane - OutputChannel=9, InputChannel=6
16fdf4140dfc02f1f4faf106dbf0ff26
# Keras Layer (derived): Conv Kernel Plane - OutputChannel=9, InputChannel=7
0b0e1600feeefb0f1b0b042101f7050f
# Keras Layer (derived): Conv Kernel Plane - OutputChannel=10, InputChannel=0
f0061916040c0ef0e8ffff070802ff10
# Keras Layer (derived): Conv Kernel Plane - OutputChannel=10, InputChannel=1
05120f0d0b16fdee0104fefb1615fe03
# Keras Layer (derived): Conv Kernel Plane - OutputChannel=10, InputChannel=2
f1fc0702fcf8001cf4f60005fbf9000d
# Keras Layer (derived): Conv Kernel Plane - OutputChannel=10, InputChannel=3
d605190be3f3f3fff5cbd4fd05e9f2d3
# Keras Layer (derived): Conv Kernel Plane - OutputChannel=10, InputChannel=4
f4141807e4eb1001c1aa010bc4a7fdfc
# Keras Layer (derived): Conv Kernel Plane - OutputChannel=10, InputChannel=5
000a050aece3e210c5d7cae481ced6da
# Keras Layer (derived): Conv Kernel Plane - OutputChannel=10, InputChannel=6
0ff4f707fef6f014f4f5f90ff0f70d21
# Keras Layer (derived): Conv Kernel Plane - OutputChannel=10, InputChannel=7
0fff050af9ecf2fce2d3f300e5d5d2f4
# Keras Layer (derived): Conv Kernel Plane - OutputChannel=11, InputChannel=0
1ec7bd8b33cddd812f03f70909fc070a
# Keras Layer (derived): Conv Kernel Plane - OutputChannel=11, InputChannel=1
f582d19efac593a31ae5ec0a172d0811
# Keras Layer (derived): Conv Kernel Plane - OutputChannel=11, InputChannel=2
fafd1ff80ed1fb230bee070727121028
# Keras Layer (derived): Conv Kernel Plane - OutputChannel=11, InputChannel=3
dcd42120e4a0da281906e10518d42018
# Keras Layer (derived): Conv Kernel Plane - OutputChannel=11, InputChannel=4
f5ef26f09bb4f612f8b0ff0df00500d6
# Keras Layer (derived): Conv Kernel Plane - OutputChannel=11, InputChannel=5
f5cc04492fa0b0d9fe9ab895f5b001d6
# Keras Layer (derived): Conv Kernel Plane - OutputChannel=11, InputChannel=6
ced32f32dae1cee7fd0dd0c10bf0e8ed
# Keras Layer (derived): Conv Kernel Plane - OutputChannel=11, InputChannel=7
2bbacad530fdeeed2ff9e1041cf10817
# Keras Layer (derived): Conv Kernel Plane - OutputChannel=12, InputChannel=0
bd0c57fc1d4fdda730f5a6d0fef51403
# Keras Layer (derived): Conv Kernel Plane - OutputChannel=12, InputChannel=1
f94448f51626f4c819daa21201e6e919
# Keras Layer (derived): Conv Kernel Plane - OutputChannel=12, InputChannel=2
e0d7f61def23292a1f0ef4f80df1edf6
# Keras Layer (derived): Conv Kernel Plane - OutputChannel=12, InputChannel=3
d31a250c3c440bd030d895e4d3e9ff00
# Keras Layer (derived): Conv Kernel Plane - OutputChannel=12, InputChannel=4
442efaf1e885f40a81a0feffdd2b1a01
# Keras Layer (derived): Conv Kernel Plane - OutputChannel=12, InputChannel=5
f9d3fb1afbf2dceab7cae0efdbeee2f6
# Keras Layer (derived): Conv Kernel Plane - OutputChannel=12, InputChannel=6
bb2423ee21edcf12ea021c1005e218f2
# Keras Layer (derived): Conv Kernel Plane - OutputChannel=12, InputChannel=7
3a32e80331d1061dc5fc0d0bec0dfcfe
# Keras Layer (derived): Conv Kernel Plane - OutputChannel=13, InputChannel=0
3c4ec5ecb13152bbe0b90e60ce0dddbd
# Keras Layer (derived): Conv Kernel Plane - OutputChannel=13, InputChannel=1
3700e7de0f282ad7e9e43827dbef0e02
# Keras Layer (derived): Conv Kernel Plane - OutputChannel=13, InputChannel=2
bb105f183bbb146a21f69bae2007ddae
# Keras Layer (derived): Conv Kernel Plane - OutputChannel=13, InputChannel=3
c2ab2f2fead181fe2804058d0d2d600b
# Keras Layer (derived): Conv Kernel Plane - OutputChannel=13, InputChannel=4
ca3d2d02faab1fe322c2a2d9fe1b05cf
# Keras Layer (derived): Conv Kernel Plane - OutputChannel=13, InputChannel=5
05f7470e7410f0fbe31e3aedd1e80a42
# Keras Layer (derived): Conv Kernel Plane - OutputChannel=13, InputChannel=6
fbf33e11fb4aee2bd6051e0423c300ea
# Keras Layer (derived): Conv Kernel Plane - OutputChannel=13, InputChannel=7
1d3be8f6e7f454f00c03f632ecbff424
# Keras Layer (derived): Conv Kernel Plane - OutputChannel=14, InputChannel=0
fbeceefdf9d31ed50249cbc11df6122c
# Keras Layer (derived): Conv Kernel Plane - OutputChannel=14, InputChannel=1
01f7fc0eddf51cdffcf0d4ef05d41e06
# Keras Layer (derived): Conv Kernel Plane - OutputChannel=14, InputChannel=2
09e52406e701f8f9cc102d1b040207f9
# Keras Layer (derived): Conv Kernel Plane - OutputChannel=14, InputChannel=3
0d0a2a0faefe3d260b5d35f0cae403de
# Keras Layer (derived): Conv Kernel Plane - OutputChannel=14, InputChannel=4
f1150f0ffadcdfcacb81e2c4ec1c0a0d
# Keras Layer (derived): Conv Kernel Plane - OutputChannel=14, InputChannel=5
2341efac0a3917387a344206e0215e34
# Keras Layer (derived): Conv Kernel Plane - OutputChannel=14, InputChannel=6
00db143bedc8e0ecc8f52c3aed13f8fd
# Keras Layer (derived): Conv Kernel Plane - OutputChannel=14, InputChannel=7
000142110f1a17cbadbc232dff395cff
# Keras Layer (derived): Conv Kernel Plane - OutputChannel=15, InputChannel=0
1b11d6071026fa040307fdf7000bfdfd
# Keras Layer (derived): Conv Kernel Plane - OutputChannel=15, InputChannel=1
200de91f1a35e209161ade08071fdfe3
# Keras Layer (derived): Conv Kernel Plane - OutputChannel=15, InputChannel=2
ededfcf8f3070411df01feff0a06fe11
# Keras Layer (derived): Conv Kernel Plane - OutputChannel=15, InputChannel=3
ebfcf4faedc1f51cfdd8ef0800dcdd1d
# Keras Layer (derived): Conv Kernel Plane - OutputChannel=15, InputChannel=4
fb1708fb3b20150a0cddfed901ef0608
# Keras Layer (derived): Conv Kernel Plane - OutputChannel=15, InputChannel=5
ddde1028f0d2e208f481cde2fff201e1
# Keras Layer (derived): Conv Kernel Plane - OutputChannel=15, InputChannel=6
01ebfb08faf93602ed10f412d7060913
# Keras Layer (derived): Conv Kernel Plane - OutputChannel=15, InputChannel=7
fecb0a140dd6cc07ecdafadc0ef80a16
# End Tensor

# Tensor Name (TFLite): tfl.pseudo_qconst7
# Original Shape: [np.int32(32), np.int32(4), np.int32(4), np.int32(16)]
# Dtype: <class 'numpy.int8'>
# Keras Layer (derived): Conv Kernel Plane - OutputChannel=0, InputChannel=0
09c8fd08b7aee322e6fa0e1011eaeb1a
# Keras Layer (derived): Conv Kernel Plane - OutputChannel=0, InputChannel=1
d3dbe01081d3f4e4f109f7f82df5181a
# Keras Layer (derived): Conv Kernel Plane - OutputChannel=0, InputChannel=2
9be1d2fcf9f3db0b1319120218faf90d
# Keras Layer (derived): Conv Kernel Plane - OutputChannel=0, InputChannel=3
e5042319f3dbe5f60c05cfefeced07f3
# Keras Layer (derived): Conv Kernel Plane - OutputChannel=0, InputChannel=4
fdf4fad817c7d9ae09eba21d3520ece7
# Keras Layer (derived): Conv Kernel Plane - OutputChannel=0, InputChannel=5
fe3037200113e8cfd1f6e4131b3a0200
# Keras Layer (derived): Conv Kernel Plane - OutputChannel=0, InputChannel=6
18eae2f2fa1c21edf7f803e9defc0fe1
# Keras Layer (derived): Conv Kernel Plane - OutputChannel=0, InputChannel=7
efc60c0af3a6c5ec0f0f0d0aff27fa32
# Keras Layer (derived): Conv Kernel Plane - OutputChannel=0, InputChannel=8
0efff7052217260a05ee2417e1f2e0df
# Keras Layer (derived): Conv Kernel Plane - OutputChannel=0, InputChannel=9
08171814010e02ec150d16e7eef6e6f2
# Keras Layer (derived): Conv Kernel Plane - OutputChannel=0, InputChannel=10
10e40bedfafa22f6e8f4e50a0ee7eeb8
# Keras Layer (derived): Conv Kernel Plane - OutputChannel=0, InputChannel=11
170c030f3416231702f501f7f7f2d703
# Keras Layer (derived): Conv Kernel Plane - OutputChannel=0, InputChannel=12
17c51ff831ff1f22eef607e70a100415
# Keras Layer (derived): Conv Kernel Plane - OutputChannel=0, InputChannel=13
e0eac20adff1c5070ff40921fb0c33f1
# Keras Layer (derived): Conv Kernel Plane - OutputChannel=0, InputChannel=14
efe5f407fffeeae7d4d8f514f2f4e128
# Keras Layer (derived): Conv Kernel Plane - OutputChannel=0, InputChannel=15
ffe5d6012600f9f61af705e8f70028fe
# Keras Layer (derived): Conv Kernel Plane - OutputChannel=1, InputChannel=0
d3d393e7f3dee91219e1f40ac5d3e922
# Keras Layer (derived): Conv Kernel Plane - OutputChannel=1, InputChannel=1
edeee3eeebeaf4ed05cde3000b01d1dc
# Keras Layer (derived): Conv Kernel Plane - OutputChannel=1, InputChannel=2
e1a281d9e6c4040602d9f1f72be60f0e
# Keras Layer (derived): Conv Kernel Plane - OutputChannel=1, InputChannel=3
2de2061af8142d34541e0d37f0ecc6f4
# Keras Layer (derived): Conv Kernel Plane - OutputChannel=1, InputChannel=4
b9d28fe9068bf6e03af5cafb21d4f6fd
# Keras Layer (derived): Conv Kernel Plane - OutputChannel=1, InputChannel=5
e62ffb222820112f203c22270708ef15
# Keras Layer (derived): Conv Kernel Plane - OutputChannel=1, InputChannel=6
030bc6bae5cec4e3343107d1052509fa
# Keras Layer (derived): Conv Kernel Plane - OutputChannel=1, InputChannel=7
d2c3bc0a29ccfc1bfdc2c2d1afcdc303
# Keras Layer (derived): Conv Kernel Plane - OutputChannel=1, InputChannel=8
a88bd8ccc0f2ace718acf3ffbab92903
# Keras Layer (derived): Conv Kernel Plane - OutputChannel=1, InputChannel=9
fb00f6f0382f0dea0bfbde003029eeee
# Keras Layer (derived): Conv Kernel Plane - OutputChannel=1, InputChannel=10
d3b625088f9af3b41dc504c141c0f0ce
# Keras Layer (derived): Conv Kernel Plane - OutputChannel=1, InputChannel=11
cec0efc111101bce00bafee2c9c8cae9
# Keras Layer (derived): Conv Kernel Plane - OutputChannel=1, InputChannel=12
02df3decf2c4df06f40d132bd713b426
# Keras Layer (derived): Conv Kernel Plane - OutputChannel=1, InputChannel=13
a9ace0c22ee8edf3afffe60e1ae0deb0
# Keras Layer (derived): Conv Kernel Plane - OutputChannel=1, InputChannel=14
feecd0e5e807fb3212150918e4123217
# Keras Layer (derived): Conv Kernel Plane - OutputChannel=1, InputChannel=15
e9d42d29ca0fd5a9e80efda22eecfcdb
# Keras Layer (derived): Conv Kernel Plane - OutputChannel=2, InputChannel=0
17b5960811edb3e02715bccaf52d1e03
# Keras Layer (derived): Conv Kernel Plane - OutputChannel=2, InputChannel=1
81e80d0acd151ceb18e33233dc020c2d
# Keras Layer (derived): Conv Kernel Plane - OutputChannel=2, InputChannel=2
cdf5e1d2c8e8ccfcf201124ec31a27e7
# Keras Layer (derived): Conv Kernel Plane - OutputChannel=2, InputChannel=3
fffac41afae7cb05270647024a090e20
# Keras Layer (derived): Conv Kernel Plane - OutputChannel=2, InputChannel=4
211409051e1524e10ff4f8ca1aeca1da
# Keras Layer (derived): Conv Kernel Plane - OutputChannel=2, InputChannel=5
f6dee3dff8dc09110ff4ee0ce0f50c1e
# Keras Layer (derived): Conv Kernel Plane - OutputChannel=2, InputChannel=6
09e89e11eaf7dccecdd5c8f0dc1dd8ec
# Keras Layer (derived): Conv Kernel Plane - OutputChannel=2, InputChannel=7
000e23cdd40d282116170639ceeefa02
# Keras Layer (derived): Conv Kernel Plane - OutputChannel=2, InputChannel=8
14f1fd0413dd24220eff162cea18e6d3
# Keras Layer (derived): Conv Kernel Plane - OutputChannel=2, InputChannel=9
04d5f8e612eef3c5fefbfae23504fce3
# Keras Layer (derived): Conv Kernel Plane - OutputChannel=2, InputChannel=10
0ecdfc1cf8ecfe24f11f13f5cfc1d4ca
# Keras Layer (derived): Conv Kernel Plane - OutputChannel=2, InputChannel=11
36062c14292112e90538101dfbf097f0
# Keras Layer (derived): Conv Kernel Plane - OutputChannel=2, InputChannel=12
b0eff917c4e202d7d7060040e3fc3d32
# Keras Layer (derived): Conv Kernel Plane - OutputChannel=2, InputChannel=13
edc4a0f02707aa931901efd028130d03
# Keras Layer (derived): Conv Kernel Plane - OutputChannel=2, InputChannel=14
e59aa918dbc89c209887a207f20c2334
# Keras Layer (derived): Conv Kernel Plane - OutputChannel=2, InputChannel=15
40e346ff2a3722f72bfa0df1d9eeb2dc
# Keras Layer (derived): Conv Kernel Plane - OutputChannel=3, InputChannel=0
21d1fdddffe3a1b1ea1ad30416292a25
# Keras Layer (derived): Conv Kernel Plane - OutputChannel=3, InputChannel=1
1ee4f20923fbd6ed3c0df6ee0adafb2b
# Keras Layer (derived): Conv Kernel Plane - OutputChannel=3, InputChannel=2
fdf48a90f6d4d5bdebed11cefcfb2123
# Keras Layer (derived): Conv Kernel Plane - OutputChannel=3, InputChannel=3
28cff4f80acf09d9173c13aa3be7e8f5
# Keras Layer (derived): Conv Kernel Plane - OutputChannel=3, InputChannel=4
fee1d6160eadd3c0e51b01dcea2315af
# Keras Layer (derived): Conv Kernel Plane - OutputChannel=3, InputChannel=5
1923ff2e6c6af9b4032318c2dcfddad8
# Keras Layer (derived): Conv Kernel Plane - OutputChannel=3, InputChannel=6
e4e611ecfe11482dfcf80c06e819f413
# Keras Layer (derived): Conv Kernel Plane - OutputChannel=3, InputChannel=7
15040fd4f9c381d9340109c136001911
# Keras Layer (derived): Conv Kernel Plane - OutputChannel=3, InputChannel=8
edd7c6fbb8d6c501d0cec4e1c41de912
# Keras Layer (derived): Conv Kernel Plane - OutputChannel=3, InputChannel=9
c8f31514d2011924de1afbf70e2bd523
# Keras Layer (derived): Conv Kernel Plane - OutputChannel=3, InputChannel=10
28f6072cfa05e838f21fa51342f4e932
# Keras Layer (derived): Conv Kernel Plane - OutputChannel=3, InputChannel=11
dbf6e42015e8123cd1b6f03e0220f927
# Keras Layer (derived): Conv Kernel Plane - OutputChannel=3, InputChannel=12
c20e37080d2c03ee092901d63a50ece6
# Keras Layer (derived): Conv Kernel Plane - OutputChannel=3, InputChannel=13
1af1d9f21517f0d709fbf81ec2d01630
# Keras Layer (derived): Conv Kernel Plane - OutputChannel=3, InputChannel=14
24122de70eff0511ed0510e50621da03
# Keras Layer (derived): Conv Kernel Plane - OutputChannel=3, InputChannel=15
ef1e0009d1cf0230f3d7ffd400ea0f15
# Keras Layer (derived): Conv Kernel Plane - OutputChannel=4, InputChannel=0
d9f602ffe5ec021200040419f1061915
# Keras Layer (derived): Conv Kernel Plane - OutputChannel=4, InputChannel=1
d9f3f233cb14262d040df4d7e901d008
# Keras Layer (derived): Conv Kernel Plane - OutputChannel=4, InputChannel=2
d0fe25041e1e1aecfb01dd0a1319fcf0
# Keras Layer (derived): Conv Kernel Plane - OutputChannel=4, InputChannel=3
1c132918f8271efcf50a0c19cff20508
# Keras Layer (derived): Conv Kernel Plane - OutputChannel=4, InputChannel=4
0f0b2719e90ff7e21907f902d5edff05
# Keras Layer (derived): Conv Kernel Plane - OutputChannel=4, InputChannel=5
f8d6d62fcdc53007b7ea04f4cc10070a
# Keras Layer (derived): Conv Kernel Plane - OutputChannel=4, InputChannel=6
e51a06d511f6d5efe2d6eddf0ac0de04
# Keras Layer (derived): Conv Kernel Plane - OutputChannel=4, InputChannel=7
fc0aee02d9f2fa12090e0be2e527ff13
# Keras Layer (derived): Conv Kernel Plane - OutputChannel=4, InputChannel=8
fc07fbea1a000b0110dffefeeff0ebf7
# Keras Layer (derived): Conv Kernel Plane - OutputChannel=4, InputChannel=9
fb18040512efd3f10ec89dd92bc5d0f7
# Keras Layer (derived): Conv Kernel Plane - OutputChannel=4, InputChannel=10
fb1381faf7f1fff9ffe108e1f5260b0b
# Keras Layer (derived): Conv Kernel Plane - OutputChannel=4, InputChannel=11
fa2c0fe6f8eae1f6f3eeec06f9c5fe0f
# Keras Layer (derived): Conv Kernel Plane - OutputChannel=4, InputChannel=12
09faf4100d012e12040f05f7fbd0ce17
# Keras Layer (derived): Conv Kernel Plane - OutputChannel=4, InputChannel=13
c3e51af7ed000f0200d4fce619310cf0
# Keras Layer (derived): Conv Kernel Plane - OutputChannel=4, InputChannel=14
fb0b020cf50f19fffef3020d01d0ddd9
# Keras Layer (derived): Conv Kernel Plane - OutputChannel=4, InputChannel=15
fdeedc0ad3eddf08ef16f0f90c0a020f
# Keras Layer (derived): Conv Kernel Plane - OutputChannel=5, InputChannel=0
cde0f5f393bbe041ed96be65f30d0615
# Keras Layer (derived): Conv Kernel Plane - OutputChannel=5, InputChannel=1
1e33f73e26d1bacf29dd1cec16083832
# Keras Layer (derived): Conv Kernel Plane - OutputChannel=5, InputChannel=2
f0e4dd198993c4fc07ebe3fc05d60afe
# Keras Layer (derived): Conv Kernel Plane - OutputChannel=5, InputChannel=3
3dd2f0fa0704c4f310f7072505430cfa
# Keras Layer (derived): Conv Kernel Plane - OutputChannel=5, InputChannel=4
05a1ab020517191c36e41f550b1b0bd7
# Keras Layer (derived): Conv Kernel Plane - OutputChannel=5, InputChannel=5
2b41e1ee74019d0305fedf28d3f9181d
# Keras Layer (derived): Conv Kernel Plane - OutputChannel=5, InputChannel=6
30e4060ee304f913ce120cfa11fe3aff
# Keras Layer (derived): Conv Kernel Plane - OutputChannel=5, InputChannel=7
26171cde0b0cbef50ec2c2191adefd48
# Keras Layer (derived): Conv Kernel Plane - OutputChannel=5, InputChannel=8
eadafdd9a20509ba2e14fbe4fcf711f7
# Keras Layer (derived): Conv Kernel Plane - OutputChannel=5, InputChannel=9
dcc0fa1982bfc308f417ebf508f01cbe
# Keras Layer (derived): Conv Kernel Plane - OutputChannel=5, InputChannel=10
b13b5efc0b7b37dd0dff8324b5bbf2d3
# Keras Layer (derived): Conv Kernel Plane - OutputChannel=5, InputChannel=11
f119291acf0c0e010f4726e83cfb21c5
# Keras Layer (derived): Conv Kernel Plane - OutputChannel=5, InputChannel=12
111a1fd04728cd81f4e4dda100e72afa
# Keras Layer (derived): Conv Kernel Plane - OutputChannel=5, InputChannel=13
200ed92ceeb2d75ae122afece01630cd
# Keras Layer (derived): Conv Kernel Plane - OutputChannel=5, InputChannel=14
f9e1c51223cfade9d7bdf918400b2616
# Keras Layer (derived): Conv Kernel Plane - OutputChannel=5, InputChannel=15
ca1a0df1091d21f8d00fffaee9f7df1b
# Keras Layer (derived): Conv Kernel Plane - OutputChannel=6, InputChannel=0
1b13eb0e0a15010c041908ffed050007
# Keras Layer (derived): Conv Kernel Plane - OutputChannel=6, InputChannel=1
23162b33d2d6f6e9cac8bbc9f2de081f
# Keras Layer (derived): Conv Kernel Plane - OutputChannel=6, InputChannel=2
f4090d220d0c19071c210812e309120e
# Keras Layer (derived): Conv Kernel Plane - OutputChannel=6, InputChannel=3
16effcfdf1caf7e60ccef11a18ee1fe0
# Keras Layer (derived): Conv Kernel Plane - OutputChannel=6, InputChannel=4
15eaf6f4d3a5d1eaad94cfb1fa06be03
# Keras Layer (derived): Conv Kernel Plane - OutputChannel=6, InputChannel=5
02e91308d1da03f9ffd8febc1ff1152c
# Keras Layer (derived): Conv Kernel Plane - OutputChannel=6, InputChannel=6
01c60538bfc1f5c8f4d8f804fe112702
# Keras Layer (derived): Conv Kernel Plane - OutputChannel=6, InputChannel=7
2b1307f60b261bebedfa261edbeadef4
# Keras Layer (derived): Conv Kernel Plane - OutputChannel=6, InputChannel=8
bc14dafde8f50815d3fb042cdbf29c04
# Keras Layer (derived): Conv Kernel Plane - OutputChannel=6, InputChannel=9
23031312d8c5f4fce7f3131eed010d14
# Keras Layer (derived): Conv Kernel Plane - OutputChannel=6, InputChannel=10
09fbdfbbe10ee4fcc9dad481df030508
# Keras Layer (derived): Conv Kernel Plane - OutputChannel=6, InputChannel=11
240509f1e7f00cf1fff0012129b2e126
# Keras Layer (derived): Conv Kernel Plane - OutputChannel=6, InputChannel=12
2723dbf0f702c3ea09c7e202eefaadfb
# Keras Layer (derived): Conv Kernel Plane - OutputChannel=6, InputChannel=13
e621e5fdb8d7e715dff6f5eb31180c25
# Keras Layer (derived): Conv Kernel Plane - OutputChannel=6, InputChannel=14
0af91013fcdae8ec16e6190b0f1425f5
# Keras Layer (derived): Conv Kernel Plane - OutputChannel=6, InputChannel=15
0e042cf2f215411bc50a18f1baf9bff3
# Keras Layer (derived): Conv Kernel Plane - OutputChannel=7, InputChannel=0
d8ece614c8cdde05e1f3fc16d0fb2a21
# Keras Layer (derived): Conv Kernel Plane - OutputChannel=7, InputChannel=1
f0e9070ff50d1b220324180c033836ec
# Keras Layer (derived): Conv Kernel Plane - OutputChannel=7, InputChannel=2
ec250df1f7f3b1cf09dcdaffd80df5ce
# Keras Layer (derived): Conv Kernel Plane - OutputChannel=7, InputChannel=3
f9dd1910f9faee1b01270f100afd1208
# Keras Layer (derived): Conv Kernel Plane - OutputChannel=7, InputChannel=4
101dd5b432f6d10501f1d1a8f5da87db
# Keras Layer (derived): Conv Kernel Plane - OutputChannel=7, InputChannel=5
e818b5c4f1e2fb0e15f5101cf5ea2e29
# Keras Layer (derived): Conv Kernel Plane - OutputChannel=7, InputChannel=6
101ce5cd2001c8edeec301d5d4c1f029
# Keras Layer (derived): Conv Kernel Plane - OutputChannel=7, InputChannel=7
c6070e3cf8f7e025e6f61bfdf913f002
# Keras Layer (derived): Conv Kernel Plane - OutputChannel=7, InputChannel=8
291ff6fb17f2dc04dbc4acfad081eb2d
# Keras Layer (derived): Conv Kernel Plane - OutputChannel=7, InputChannel=9
2de806e9270715fd1f240e0dd2ecbefe
# Keras Layer (derived): Conv Kernel Plane - OutputChannel=7, InputChannel=10
dccde7c3fac0c7ebeee21b03d019381c
# Keras Layer (derived): Conv Kernel Plane - OutputChannel=7, InputChannel=11
0ee819d50fe0072f1a26fed614fcbd44
# Keras Layer (derived): Conv Kernel Plane - OutputChannel=7, InputChannel=12
251708f02c09d5b0ee81ea2315e9160b
# Keras Layer (derived): Conv Kernel Plane - OutputChannel=7, InputChannel=13
1b3a0805eae0f3f4e8eb07c30cc0100f
# Keras Layer (derived): Conv Kernel Plane - OutputChannel=7, InputChannel=14
20f2f1d7debeb2f5d30105ffd2d40004
# Keras Layer (derived): Conv Kernel Plane - OutputChannel=7, InputChannel=15
e8b504f5d6ef0709d8d7fe01edfc282b
# Keras Layer (derived): Conv Kernel Plane - OutputChannel=8, InputChannel=0
e89e130fe2f9cb1cfe25251eda0107fc
# Keras Layer (derived): Conv Kernel Plane - OutputChannel=8, InputChannel=1
ece8dd1c110d33e9f2130b2108f806f5
# Keras Layer (derived): Conv Kernel Plane - OutputChannel=8, InputChannel=2
15f600e2d401dad2e4f90204b3ffdf17
# Keras Layer (derived): Conv Kernel Plane - OutputChannel=8, InputChannel=3
03c706d73c14b402382913f80bfd0ef5
# Keras Layer (derived): Conv Kernel Plane - OutputChannel=8, InputChannel=4
0000ee1e3510c1251338f9e2e01b1f26
# Keras Layer (derived): Conv Kernel Plane - OutputChannel=8, InputChannel=5
de2c1b1ffcf9fde4d70b150ba6ea0111
# Keras Layer (derived): Conv Kernel Plane - OutputChannel=8, InputChannel=6
02f9072037811617fffce6000effe810
# Keras Layer (derived): Conv Kernel Plane - OutputChannel=8, InputChannel=7
fac5de020ae4e5e025270adce7f51e21
# Keras Layer (derived): Conv Kernel Plane - OutputChannel=8, InputChannel=8
0ffb0515fff8ec23fed3f42017e8ede2
# Keras Layer (derived): Conv Kernel Plane - OutputChannel=8, InputChannel=9
02dfdb2026c8e813d8eaec0affe20de5
# Keras Layer (derived): Conv Kernel Plane - OutputChannel=8, InputChannel=10
0d1f08f2e33a3b2ae3c1ed020003e3f5
# Keras Layer (derived): Conv Kernel Plane - OutputChannel=8, InputChannel=11
06e61cfffeb7f01c49cfc416162601c9
# Keras Layer (derived): Conv Kernel Plane - OutputChannel=8, InputChannel=12
ef002c10effcde1ff8dafa0710dc0cf7
# Keras Layer (derived): Conv Kernel Plane - OutputChannel=8, InputChannel=13
1f2300f9f8302ffaec152431f8eaee0f
# Keras Layer (derived): Conv Kernel Plane - OutputChannel=8, InputChannel=14
f6fb09caddfb1125fc04e6f21012edfb
# Keras Layer (derived): Conv Kernel Plane - OutputChannel=8, InputChannel=15
e01319e2bb16243bd511052ae414e21c
# Keras Layer (derived): Conv Kernel Plane - OutputChannel=9, InputChannel=0
ebe1f2f5111d0e0b0410f50f07040405
# Keras Layer (derived): Conv Kernel Plane - OutputChannel=9, InputChannel=1
fb05050e0d02152a11dbf5dd1af7e2eb
# Keras Layer (derived): Conv Kernel Plane - OutputChannel=9, InputChannel=2
07f1f4e10c1bfeff0222ef0cfdfffe04
# Keras Layer (derived): Conv Kernel Plane - OutputChannel=9, InputChannel=3
f0ceebe8252c1c19f1eafe162307f30f
# Keras Layer (derived): Conv Kernel Plane - OutputChannel=9, InputChannel=4
14e9e4f6d6f903f4fbfc11efe50cec0d
# Keras Layer (derived): Conv Kernel Plane - OutputChannel=9, InputChannel=5
d4f7fcd0ed2518040919f0fff0eef8ff
# Keras Layer (derived): Conv Kernel Plane - OutputChannel=9, InputChannel=6
d5bec581d4130bf7f81c1fed010904fd
# Keras Layer (derived): Conv Kernel Plane - OutputChannel=9, InputChannel=7
f6e814ff30192635fe0df3110af4da0c
# Keras Layer (derived): Conv Kernel Plane - OutputChannel=9, InputChannel=8
0fcde1fcdfc7e806e9faf609040807ea
# Keras Layer (derived): Conv Kernel Plane - OutputChannel=9, InputChannel=9
e61d30dbde021acffb0d11f9f3010e03
# Keras Layer (derived): Conv Kernel Plane - OutputChannel=9, InputChannel=10
02f4ec0cf8eadbf4fd0f1df10600e50e
# Keras Layer (derived): Conv Kernel Plane - OutputChannel=9, InputChannel=11
e10fe5c4e4fdebfd1304ffee0fff1eec
# Keras Layer (derived): Conv Kernel Plane - OutputChannel=9, InputChannel=12
12eaf4c918fb06e50e2501fbe5fefc02
# Keras Layer (derived): Conv Kernel Plane - OutputChannel=9, InputChannel=13
07f0eb00f4e5f8e9fc051df309f8effb
# Keras Layer (derived): Conv Kernel Plane - OutputChannel=9, InputChannel=14
c3e7dbc40b180bfef508ecf607f4f115
# Keras Layer (derived): Conv Kernel Plane - OutputChannel=9, InputChannel=15
f1e2ddf001fae5fe1ff9fe2505dfdff6
# Keras Layer (derived): Conv Kernel Plane - OutputChannel=10, InputChannel=0
eedbd30fddcfe6350bfbe8060ed7d202
# Keras Layer (derived): Conv Kernel Plane - OutputChannel=10, InputChannel=1
d00a09e1202b1bf8fcf52e0eeee80b04
# Keras Layer (derived): Conv Kernel Plane - OutputChannel=10, InputChannel=2
0d10e21f01e8fc0df1023017f709f214
# Keras Layer (derived): Conv Kernel Plane - OutputChannel=10, InputChannel=3
1716dd01f000d30fef11ebe4ebf506fb
# Keras Layer (derived): Conv Kernel Plane - OutputChannel=10, InputChannel=4
14d7132b1eb910ec15ef38310f00d9e9
# Keras Layer (derived): Conv Kernel Plane - OutputChannel=10, InputChannel=5
1112f204f6df96e63816812c1d09e408
# Keras Layer (derived): Conv Kernel Plane - OutputChannel=10, InputChannel=6
15bd02ee0cf7e22de1fca9c30d29d70c
# Keras Layer (derived): Conv Kernel Plane - OutputChannel=10, InputChannel=7
1cff20fa00ee19fe0cd74921f0e62ff5
# Keras Layer (derived): Conv Kernel Plane - OutputChannel=10, InputChannel=8
07251c05d019f1e1e2f8fee9d50adb00
# Keras Layer (derived): Conv Kernel Plane - OutputChannel=10, InputChannel=9
f9e3c43a22fc915afb0a8cfb1c11ef37
# Keras Layer (derived): Conv Kernel Plane - OutputChannel=10, InputChannel=10
cde51ddcfe0feb03ff11de33000112f4
# Keras Layer (derived): Conv Kernel Plane - OutputChannel=10, InputChannel=11
022e00de3302e202f11afbe115fbfd0f
# Keras Layer (derived): Conv Kernel Plane - OutputChannel=10, InputChannel=12
0f341123eeeaf811f203cd0a2210e300
# Keras Layer (derived): Conv Kernel Plane - OutputChannel=10, InputChannel=13
1e01121f16ebebfe10f0ecf5e4cedc0b
# Keras Layer (derived): Conv Kernel Plane - OutputChannel=10, InputChannel=14
1dd3dd2e3ede94301e0ce5262aede024
# Keras Layer (derived): Conv Kernel Plane - OutputChannel=10, InputChannel=15
e93010f727131706eae10b32f0ecfb03
# Keras Layer (derived): Conv Kernel Plane - OutputChannel=11, InputChannel=0
21fdf6df1d362bde2a1732fb1b0c1503
# Keras Layer (derived): Conv Kernel Plane - OutputChannel=11, InputChannel=1
cac3eed7feb5f0d911c3ce942816ffdd
# Keras Layer (derived): Conv Kernel Plane - OutputChannel=11, InputChannel=2
d8c5deead6daddbc1cfb0a0913d114f3
# Keras Layer (derived): Conv Kernel Plane - OutputChannel=11, InputChannel=3
dde91c2ff3c9142123bcd01be8dbe3c8
# Keras Layer (derived): Conv Kernel Plane - OutputChannel=11, InputChannel=4
230223f90becdccde8fa03e91004fc1b
# Keras Layer (derived): Conv Kernel Plane - OutputChannel=11, InputChannel=5
f2e5db003b10f2172c1706ed09e7dd43
# Keras Layer (derived): Conv Kernel Plane - OutputChannel=11, InputChannel=6
f1eb0ec31b0009f3f3ea06eadc0901f9
# Keras Layer (derived): Conv Kernel Plane - OutputChannel=11, InputChannel=7
1ce413feb1de1b050bf8e310f50dead8
# Keras Layer (derived): Conv Kernel Plane - OutputChannel=11, InputChannel=8
d2d0e60bd0e8dbfafa0cf402e70322d5
# Keras Layer (derived): Conv Kernel Plane - OutputChannel=11, InputChannel=9
efd3193bebed1b05daead8e1eaafb917
# Keras Layer (derived): Conv Kernel Plane - OutputChannel=11, InputChannel=10
15df1623ecdbafed04eddf1bfa061227
# Keras Layer (derived): Conv Kernel Plane - OutputChannel=11, InputChannel=11
fdd10ceb0cfd05210f131713eee825da
# Keras Layer (derived): Conv Kernel Plane - OutputChannel=11, InputChannel=12
81e01104f8d3c60517d4a2ec1709cdc1
# Keras Layer (derived): Conv Kernel Plane - OutputChannel=11, InputChannel=13
4313073634314912400f340127dc0d0b
# Keras Layer (derived): Conv Kernel Plane - OutputChannel=11, InputChannel=14
d7e4ecf7231706fc25faf4110fcd0404
# Keras Layer (derived): Conv Kernel Plane - OutputChannel=11, InputChannel=15
06daf2ec0add080a36fa18f305e436fa
# Keras Layer (derived): Conv Kernel Plane - OutputChannel=12, InputChannel=0
19210112dde320fa0ac4ec001d01e216
# Keras Layer (derived): Conv Kernel Plane - OutputChannel=12, InputChannel=1
11f81df2b7c9ac08ca85f9f4e3b93d47
# Keras Layer (derived): Conv Kernel Plane - OutputChannel=12, InputChannel=2
150df5110febd5d910caa3c60211da08
# Keras Layer (derived): Conv Kernel Plane - OutputChannel=12, InputChannel=3
322515254303dff91ad8f82a1a1ae53e
# Keras Layer (derived): Conv Kernel Plane - OutputChannel=12, InputChannel=4
efedf7db1812f101f2ffef9bfa2513f6
# Keras Layer (derived): Conv Kernel Plane - OutputChannel=12, InputChannel=5
f8ecfd16192f0e24151a20edd9f9f6e0
# Keras Layer (derived): Conv Kernel Plane - OutputChannel=12, InputChannel=6
c4fc10d4120709ee07fcfccfd9e6e9ec
# Keras Layer (derived): Conv Kernel Plane - OutputChannel=12, InputChannel=7
3f0df845e5bbd1dfe8fb91ae45401c04
# Keras Layer (derived): Conv Kernel Plane - OutputChannel=12, InputChannel=8
ed1dee08d3e4e9fec9d5dffad40a2f16
# Keras Layer (derived): Conv Kernel Plane - OutputChannel=12, InputChannel=9
e9f0e7eb24f7f0041d3afc0432e219f8
# Keras Layer (derived): Conv Kernel Plane - OutputChannel=12, InputChannel=10
1bf3aeed08d0e0ddd9d3f91514f4d2d3
# Keras Layer (derived): Conv Kernel Plane - OutputChannel=12, InputChannel=11
eae11a17eab5010d171510d11b2d3025
# Keras Layer (derived): Conv Kernel Plane - OutputChannel=12, InputChannel=12
baeaf91d1f0e0207c7de0902ebfbebed
# Keras Layer (derived): Conv Kernel Plane - OutputChannel=12, InputChannel=13
00260c2f0803360effe5d3191c16fc29
# Keras Layer (derived): Conv Kernel Plane - OutputChannel=12, InputChannel=14
02e601e60efd0a2813ea2aef18f20528
# Keras Layer (derived): Conv Kernel Plane - OutputChannel=12, InputChannel=15
37dc3138cc81d9deeca7d4c82137f9f1
# Keras Layer (derived): Conv Kernel Plane - OutputChannel=13, InputChannel=0
f4fc012918fcfa040b04f4df1b04c2da
# Keras Layer (derived): Conv Kernel Plane - OutputChannel=13, InputChannel=1
0d23ee0502d7b72715d1c1d0ebebeb0f
# Keras Layer (derived): Conv Kernel Plane - OutputChannel=13, InputChannel=2
f3d7e1150dd10bf6e3f10808f8fe24f5
# Keras Layer (derived): Conv Kernel Plane - OutputChannel=13, InputChannel=3
cdfa32313115392736371533df2f49d4
# Keras Layer (derived): Conv Kernel Plane - OutputChannel=13, InputChannel=4
090ad707e30bddf501cfe5f80a1404f5
# Keras Layer (derived): Conv Kernel Plane - OutputChannel=13, InputChannel=5
cafb1adb14f7e80203fbbd09ddaeed1a
# Keras Layer (derived): Conv Kernel Plane - OutputChannel=13, InputChannel=6
20c78102e9e5ea0fc1e5c300f6e0bed2
# Keras Layer (derived): Conv Kernel Plane - OutputChannel=13, InputChannel=7
030ee7f9f62b020efd13f514e9db0a23
# Keras Layer (derived): Conv Kernel Plane - OutputChannel=13, InputChannel=8
c5eff1f8c1d00d0cf50912fef424f3ed
# Keras Layer (derived): Conv Kernel Plane - OutputChannel=13, InputChannel=9
ebdbe507e7e304ead8fef3f107f90428
# Keras Layer (derived): Conv Kernel Plane - OutputChannel=13, InputChannel=10
d7edbaee0ef9c4caf1f58db210c2bb26
# Keras Layer (derived): Conv Kernel Plane - OutputChannel=13, InputChannel=11
f6f5d4f60e062b0219df07fa25f5fa46
# Keras Layer (derived): Conv Kernel Plane - OutputChannel=13, InputChannel=12
d8d1baf8dd0b19f01a1efaf939283312
# Keras Layer (derived): Conv Kernel Plane - OutputChannel=13, InputChannel=13
d1dde50509d9f001f9dabf0bf50a0ef3
# Keras Layer (derived): Conv Kernel Plane - OutputChannel=13, InputChannel=14
18ef0402fbe0f00f060501dc3b22251e
# Keras Layer (derived): Conv Kernel Plane - OutputChannel=13, InputChannel=15
080ae4c3f0fbe513000ce3f32be1c707
# Keras Layer (derived): Conv Kernel Plane - OutputChannel=14, InputChannel=0
1ae9e0df0b2cf9fa0f10dbce0cedfbe5
# Keras Layer (derived): Conv Kernel Plane - OutputChannel=14, InputChannel=1
200ef8024e12b9081512f1bec3de1710
# Keras Layer (derived): Conv Kernel Plane - OutputChannel=14, InputChannel=2
0219f0441110e0ff120fd5d10cc0ddc8
# Keras Layer (derived): Conv Kernel Plane - OutputChannel=14, InputChannel=3
194c1a020c19efe61df5d1f23df4e3d6
# Keras Layer (derived): Conv Kernel Plane - OutputChannel=14, InputChannel=4
f8b910e912fff6102a5502db26f3c5ea
# Keras Layer (derived): Conv Kernel Plane - OutputChannel=14, InputChannel=5
01b30b18f2ce671dd9072e3cff162639
# Keras Layer (derived): Conv Kernel Plane - OutputChannel=14, InputChannel=6
fffa0a2d1ce2bed524f4f9b0250fdff1
# Keras Layer (derived): Conv Kernel Plane - OutputChannel=14, InputChannel=7
dc222901ddeaebfd0720edb5181e01bf
# Keras Layer (derived): Conv Kernel Plane - OutputChannel=14, InputChannel=8
201ffe092009bfc70cdcbee8edf7e9ba
# Keras Layer (derived): Conv Kernel Plane - OutputChannel=14, InputChannel=9
0be91303fb0a0927b8f4fffbf0e4e5fe
# Keras Layer (derived): Conv Kernel Plane - OutputChannel=14, InputChannel=10
faebf3fdff150fdedaef2b1c6469fb05
# Keras Layer (derived): Conv Kernel Plane - OutputChannel=14, InputChannel=11
1bf00cfc07810c2cef18f7f023ef110e
# Keras Layer (derived): Conv Kernel Plane - OutputChannel=14, InputChannel=12
cb1fd906dee4d8fc05dd9ee11d0eb2f5
# Keras Layer (derived): Conv Kernel Plane - OutputChannel=14, InputChannel=13
3c38e70bef4b33ee0c171b0fd1bcdd16
# Keras Layer (derived): Conv Kernel Plane - OutputChannel=14, InputChannel=14
12d7e701e0010c0d0ee0e3f3fbebb2d4
# Keras Layer (derived): Conv Kernel Plane - OutputChannel=14, InputChannel=15
f51231ebebb8d20c030cce14d9040af4
# Keras Layer (derived): Conv Kernel Plane - OutputChannel=15, InputChannel=0
41291042848ab702a70ae212cb2421ee
# Keras Layer (derived): Conv Kernel Plane - OutputChannel=15, InputChannel=1
1dcf1405afe91edf2016eadd1df6e703
# Keras Layer (derived): Conv Kernel Plane - OutputChannel=15, InputChannel=2
4503bcdee31dc9dfedc7dc3c0f16ecd3
# Keras Layer (derived): Conv Kernel Plane - OutputChannel=15, InputChannel=3
f30a4d1c0933eecc0c4011e70214c3e3
# Keras Layer (derived): Conv Kernel Plane - OutputChannel=15, InputChannel=4
f51041f95d0605cef7c9e937d40fc652
# Keras Layer (derived): Conv Kernel Plane - OutputChannel=15, InputChannel=5
f81106f8ca122ffdec25e3fe01e40d13
# Keras Layer (derived): Conv Kernel Plane - OutputChannel=15, InputChannel=6
280e36811dcd4ba819eebe2c240bf207
# Keras Layer (derived): Conv Kernel Plane - OutputChannel=15, InputChannel=7
1333f215c592fb07df010c16e2173919
# Keras Layer (derived): Conv Kernel Plane - OutputChannel=15, InputChannel=8
3d1dece95a07f50bff25060ded070d29
# Keras Layer (derived): Conv Kernel Plane - OutputChannel=15, InputChannel=9
22130fe44c11f8f215e7b2ade415ec36
# Keras Layer (derived): Conv Kernel Plane - OutputChannel=15, InputChannel=10
1adeb7ee0cd66109d10b331a1a403140
# Keras Layer (derived): Conv Kernel Plane - OutputChannel=15, InputChannel=11
fdfcf71c16e0e7310ce9bb22f603fe05
# Keras Layer (derived): Conv Kernel Plane - OutputChannel=15, InputChannel=12
2b2eda130a11f7f8072636b50b0813c8
# Keras Layer (derived): Conv Kernel Plane - OutputChannel=15, InputChannel=13
dde9f31dddd3e20eaeb30540fdf8f9ed
# Keras Layer (derived): Conv Kernel Plane - OutputChannel=15, InputChannel=14
07531fda092a6010ec13a9813206e7fd
# Keras Layer (derived): Conv Kernel Plane - OutputChannel=15, InputChannel=15
e7da92edb6acdf0cc9c51cfe4d4f4631
# Keras Layer (derived): Conv Kernel Plane - OutputChannel=16, InputChannel=0
292b09ec09f922ef95f63317dba5f5ea
# Keras Layer (derived): Conv Kernel Plane - OutputChannel=16, InputChannel=1
b4d61a1fc9f032d6efcbf8cebbd820c2
# Keras Layer (derived): Conv Kernel Plane - OutputChannel=16, InputChannel=2
2a48180e0b2e1fd0de0943c0a7df2507
# Keras Layer (derived): Conv Kernel Plane - OutputChannel=16, InputChannel=3
fa08f5de4805f5eec8eb202bf4f7260f
# Keras Layer (derived): Conv Kernel Plane - OutputChannel=16, InputChannel=4
14e2d29212edd4e2e8d2ed12a6f10c2b
# Keras Layer (derived): Conv Kernel Plane - OutputChannel=16, InputChannel=5
b308f122f0ddda384fe5f00709f320d8
# Keras Layer (derived): Conv Kernel Plane - OutputChannel=16, InputChannel=6
1b3128e11ecbbcb9d507170124272f39
# Keras Layer (derived): Conv Kernel Plane - OutputChannel=16, InputChannel=7
22082c08aeb410d3f91822dc091b2724
# Keras Layer (derived): Conv Kernel Plane - OutputChannel=16, InputChannel=8
06fab6c507f4e381150206ae0214d8f0
# Keras Layer (derived): Conv Kernel Plane - OutputChannel=16, InputChannel=9
13f715320201dc0ef107abe6191949f8
# Keras Layer (derived): Conv Kernel Plane - OutputChannel=16, InputChannel=10
0c91a81efe1624ec06163dbcdb020017
# Keras Layer (derived): Conv Kernel Plane - OutputChannel=16, InputChannel=11
d8be3fefcba6d6f9f2db38525c111e4e
# Keras Layer (derived): Conv Kernel Plane - OutputChannel=16, InputChannel=12
04cfcaf43406b8d7f11ee3e6e5202601
# Keras Layer (derived): Conv Kernel Plane - OutputChannel=16, InputChannel=13
ef0eef16ed14184cd7c1e614ddbdd900
# Keras Layer (derived): Conv Kernel Plane - OutputChannel=16, InputChannel=14
1231ebad2b503d280110cfe2e7d70ac9
# Keras Layer (derived): Conv Kernel Plane - OutputChannel=16, InputChannel=15
e3c412d5e6b5df9f0ef0040a0702361f
# Keras Layer (derived): Conv Kernel Plane - OutputChannel=17, InputChannel=0
ddbb0827bdece1eb27dff9f21efe0fef
# Keras Layer (derived): Conv Kernel Plane - OutputChannel=17, InputChannel=1
c0eb061de0e0faffe6f2021f12060c01
# Keras Layer (derived): Conv Kernel Plane - OutputChannel=17, InputChannel=2
96cfd3fec69de4e506eceb0e0fff0410
# Keras Layer (derived): Conv Kernel Plane - OutputChannel=17, InputChannel=3
e6dbc7d0ecd1d4020cf0050bf125080f
# Keras Layer (derived): Conv Kernel Plane - OutputChannel=17, InputChannel=4
1405fb02f9e9f0e91508262210f5c8f7
# Keras Layer (derived): Conv Kernel Plane - OutputChannel=17, InputChannel=5
1218152f051f0011d3081f01e2f3e6d5
# Keras Layer (derived): Conv Kernel Plane - OutputChannel=17, InputChannel=6
02fcf51ff4f9c5df11f10a07fd070ef1
# Keras Layer (derived): Conv Kernel Plane - OutputChannel=17, InputChannel=7
dfdec40010e2f30410040d040715ed0a
# Keras Layer (derived): Conv Kernel Plane - OutputChannel=17, InputChannel=8
08fff6f5eef6fbff03eff7fd0c030606
# Keras Layer (derived): Conv Kernel Plane - OutputChannel=17, InputChannel=9
f9e2f41a1c08050e0d131e18d4fb0605
# Keras Layer (derived): Conv Kernel Plane - OutputChannel=17, InputChannel=10
000f3d11171e1bfe0800152af2d7f3f5
# Keras Layer (derived): Conv Kernel Plane - OutputChannel=17, InputChannel=11
02fc0e082c0afd06fd270e02040afef8
# Keras Layer (derived): Conv Kernel Plane - OutputChannel=17, InputChannel=12
bfddf321caf3df079a9f0a0ef9d7f0dc
# Keras Layer (derived): Conv Kernel Plane - OutputChannel=17, InputChannel=13
81c504f528dfea1212e8befc22f1e9fb
# Keras Layer (derived): Conv Kernel Plane - OutputChannel=17, InputChannel=14
bfd90526ecd2d606f2d6f31c0a040c0c
# Keras Layer (derived): Conv Kernel Plane - OutputChannel=17, InputChannel=15
ef011509270c10eded1601ecf01bf3f6
# Keras Layer (derived): Conv Kernel Plane - OutputChannel=18, InputChannel=0
0b4303d80f2829d5240c1ee909f9e704
# Keras Layer (derived): Conv Kernel Plane - OutputChannel=18, InputChannel=1
ed0be909f9bff2defd020ffbc5e10706
# Keras Layer (derived): Conv Kernel Plane - OutputChannel=18, InputChannel=2
fa0a17f7ee2813dae5120506f41bfdd6
# Keras Layer (derived): Conv Kernel Plane - OutputChannel=18, InputChannel=3
e5e210dc04ea1ffcf3ecf018fd22d615
# Keras Layer (derived): Conv Kernel Plane - OutputChannel=18, InputChannel=4
0339e2b4ce1117e81ec11a131aad0d02
# Keras Layer (derived): Conv Kernel Plane - OutputChannel=18, InputChannel=5
fbecf91af9e2070114f08110f304c1eb
# Keras Layer (derived): Conv Kernel Plane - OutputChannel=18, InputChannel=6
d41f10edc31f1800d61f03e21cdcecb8
# Keras Layer (derived): Conv Kernel Plane - OutputChannel=18, InputChannel=7
0714e60bffe6282bc8d72025c0df0523
# Keras Layer (derived): Conv Kernel Plane - OutputChannel=18, InputChannel=8
a92002f1c11a38059f023026e9f51701
# Keras Layer (derived): Conv Kernel Plane - OutputChannel=18, InputChannel=9
d71d15e7cdf6fb3420e3e6f1f9ed04f7
# Keras Layer (derived): Conv Kernel Plane - OutputChannel=18, InputChannel=10
f7c90d50f6d5defc0fc1edce0409f7f8
# Keras Layer (derived): Conv Kernel Plane - OutputChannel=18, InputChannel=11
f5162c0dec17175fbed70e120201f507
# Keras Layer (derived): Conv Kernel Plane - OutputChannel=18, InputChannel=12
dedbf4fa08ee151904280fffce4c1b02
# Keras Layer (derived): Conv Kernel Plane - OutputChannel=18, InputChannel=13
0504f504f3110b00ea1cc9ea0b0a01ff
# Keras Layer (derived): Conv Kernel Plane - OutputChannel=18, InputChannel=14
140cffaa1625d1e21037def21349fcdc
# Keras Layer (derived): Conv Kernel Plane - OutputChannel=18, InputChannel=15
f50b18f1eef4f410f4ec16e8fde202ef
# Keras Layer (derived): Conv Kernel Plane - OutputChannel=19, InputChannel=0
2b2314c40ec4efce2bcbe8cb43d3f603
# Keras Layer (derived): Conv Kernel Plane - OutputChannel=19, InputChannel=1
f4c9ffc406f6d22ef4dc380ae4e2574b
# Keras Layer (derived): Conv Kernel Plane - OutputChannel=19, InputChannel=2
280ffde3d5ec1df0260e0f0420fff8fc
# Keras Layer (derived): Conv Kernel Plane - OutputChannel=19, InputChannel=3
eed3f1cba004db26a48abce9edbcc107
# Keras Layer (derived): Conv Kernel Plane - OutputChannel=19, InputChannel=4
c52416468fe4fff716f938d9271c4ad2
# Keras Layer (derived): Conv Kernel Plane - OutputChannel=19, InputChannel=5
06170a0708f2b6f794391709e11919db
# Keras Layer (derived): Conv Kernel Plane - OutputChannel=19, InputChannel=6
0b1721e4ed210de6b54126dbe12d1637
# Keras Layer (derived): Conv Kernel Plane - OutputChannel=19, InputChannel=7
010ddfd805a6b1e02e81f2ff44f70f19
# Keras Layer (derived): Conv Kernel Plane - OutputChannel=19, InputChannel=8
3c06151c2b0aef11e6ef14dadcb62106
# Keras Layer (derived): Conv Kernel Plane - OutputChannel=19, InputChannel=9
292af10ac0fb18eccf58d6170a2b0a1d
# Keras Layer (derived): Conv Kernel Plane - OutputChannel=19, InputChannel=10
1ff4bea30e0416e1260ff1ac35ff2e35
# Keras Layer (derived): Conv Kernel Plane - OutputChannel=19, InputChannel=11
1b04ffe9fbf4b5bb2322b8272b0b08e4
# Keras Layer (derived): Conv Kernel Plane - OutputChannel=19, InputChannel=12
2cef0ffc09ed252de1cab6f4efc1e70f
# Keras Layer (derived): Conv Kernel Plane - OutputChannel=19, InputChannel=13
2cec07fb21e9d3c350463ce5ddf4ede2
# Keras Layer (derived): Conv Kernel Plane - OutputChannel=19, InputChannel=14
270c0d0504115e36b123f7ddcbe319de
# Keras Layer (derived): Conv Kernel Plane - OutputChannel=19, InputChannel=15
32f20ede23e1c2e121d583f929c4336c
# Keras Layer (derived): Conv Kernel Plane - OutputChannel=20, InputChannel=0
400a28df64692bcfdb1a32f3ededfd0c
# Keras Layer (derived): Conv Kernel Plane - OutputChannel=20, InputChannel=1
371e07d3330c3610dbf5f72607d6fd13
# Keras Layer (derived): Conv Kernel Plane - OutputChannel=20, InputChannel=2
00110701c30b4c1d81cbdbf8decaf8fc
# Keras Layer (derived): Conv Kernel Plane - OutputChannel=20, InputChannel=3
2bd7ccee0d05eb0723e6175ffba7f739
# Keras Layer (derived): Conv Kernel Plane - OutputChannel=20, InputChannel=4
ced3fd29f9b6d137331fe3d631220b04
# Keras Layer (derived): Conv Kernel Plane - OutputChannel=20, InputChannel=5
c5e0f2deecd0f5faf2041de517f1dc0c
# Keras Layer (derived): Conv Kernel Plane - OutputChannel=20, InputChannel=6
af1c131dda9105024833300eec2b0ddd
# Keras Layer (derived): Conv Kernel Plane - OutputChannel=20, InputChannel=7
fae5cbd72e23ed3dd6062bfa0cc0fae4
# Keras Layer (derived): Conv Kernel Plane - OutputChannel=20, InputChannel=8
05f7d6e0f9f913b4e80edff1d51af415
# Keras Layer (derived): Conv Kernel Plane - OutputChannel=20, InputChannel=9
e0ff2707dcd0eee733f8e7261717cfb3
# Keras Layer (derived): Conv Kernel Plane - OutputChannel=20, InputChannel=10
f4dbf50f461feff42c0617f50309260e
# Keras Layer (derived): Conv Kernel Plane - OutputChannel=20, InputChannel=11
ae16e2f5e5ba0af86a1cf818412155e8
# Keras Layer (derived): Conv Kernel Plane - OutputChannel=20, InputChannel=12
dee7e304ed1cfddeb92340fac4b3302e
# Keras Layer (derived): Conv Kernel Plane - OutputChannel=20, InputChannel=13
29fd09e40d3d291702e52136cc0c2221
# Keras Layer (derived): Conv Kernel Plane - OutputChannel=20, InputChannel=14
02f90a2eb4fd1c17c20217c9cdebeee2
# Keras Layer (derived): Conv Kernel Plane - OutputChannel=20, InputChannel=15
deaed4e539a80d40380800b0f91d2208
# Keras Layer (derived): Conv Kernel Plane - OutputChannel=21, InputChannel=0
e2fa1cf0d0e52408a60d1de5c9f5d7eb
# Keras Layer (derived): Conv Kernel Plane - OutputChannel=21, InputChannel=1
ddf1bfe3440803deeff3e5f3ebf8ff43
# Keras Layer (derived): Conv Kernel Plane - OutputChannel=21, InputChannel=2
19ebeff1b8f10b38025c3f3f21f404f6
# Keras Layer (derived): Conv Kernel Plane - OutputChannel=21, InputChannel=3
b0a8c4ce0615111395f7f4fee3c4c9a8
# Keras Layer (derived): Conv Kernel Plane - OutputChannel=21, InputChannel=4
2b38e6493f56ec26093b0623c7ee2e21
# Keras Layer (derived): Conv Kernel Plane - OutputChannel=21, InputChannel=5
0328f1e7151bb7962c3c3f1c20213201
# Keras Layer (derived): Conv Kernel Plane - OutputChannel=21, InputChannel=6
a11ffbb9d1115d1d3d1516f3c3e31533
# Keras Layer (derived): Conv Kernel Plane - OutputChannel=21, InputChannel=7
cad7e60ef12d0d2cb9cdd70db6e8040a
# Keras Layer (derived): Conv Kernel Plane - OutputChannel=21, InputChannel=8
b8f6261ec4394c2e0503f221d5e21681
# Keras Layer (derived): Conv Kernel Plane - OutputChannel=21, InputChannel=9
fd5016ecfc19ebf4e6cf23fcfd204fff
# Keras Layer (derived): Conv Kernel Plane - OutputChannel=21, InputChannel=10
0626401540e2feeba2cbe5b0070e3037
# Keras Layer (derived): Conv Kernel Plane - OutputChannel=21, InputChannel=11
024603f3184113a8e0dbd6c3e5a5b92d
# Keras Layer (derived): Conv Kernel Plane - OutputChannel=21, InputChannel=12
e5b5e018bf081d031b1d0ff2d4c7ff33
# Keras Layer (derived): Conv Kernel Plane - OutputChannel=21, InputChannel=13
f6fddbe5fff0d9f72f5124fae11ef3f5
# Keras Layer (derived): Conv Kernel Plane - OutputChannel=21, InputChannel=14
c2d9e200d9f8e60cf9360313314502ef
# Keras Layer (derived): Conv Kernel Plane - OutputChannel=21, InputChannel=15
ed2b092ae82d4cee2e10f3993b28addc
# Keras Layer (derived): Conv Kernel Plane - OutputChannel=22, InputChannel=0
1afe00df1af01314e8edf1f4eeec0f0f
# Keras Layer (derived): Conv Kernel Plane - OutputChannel=22, InputChannel=1
40390e09fcf926290bcae4f400eaccff
# Keras Layer (derived): Conv Kernel Plane - OutputChannel=22, InputChannel=2
fb1b2b10efdcf6e2dfbdce08cbefec21
# Keras Layer (derived): Conv Kernel Plane - OutputChannel=22, InputChannel=3
0f010a0341190c18f20aec23150b1002
# Keras Layer (derived): Conv Kernel Plane - OutputChannel=22, InputChannel=4
e31b25114940e8fbe13b093efb18f41a
# Keras Layer (derived): Conv Kernel Plane - OutputChannel=22, InputChannel=5
d81805e1ce063652d1cf1b0cfce322e5
# Keras Layer (derived): Conv Kernel Plane - OutputChannel=22, InputChannel=6
ebf8081048f0e1f4f8efebf5170eeef6
# Keras Layer (derived): Conv Kernel Plane - OutputChannel=22, InputChannel=7
0306fe0d0004f01716dfe20418f304e3
# Keras Layer (derived): Conv Kernel Plane - OutputChannel=22, InputChannel=8
07f1cadbffbb90f2eff310eb141b28f6
# Keras Layer (derived): Conv Kernel Plane - OutputChannel=22, InputChannel=9
dbf814fd1805efb60226e1f00fe8ece4
# Keras Layer (derived): Conv Kernel Plane - OutputChannel=22, InputChannel=10
0ea5bef444d7d80feeec0ae11ee2e611
# Keras Layer (derived): Conv Kernel Plane - OutputChannel=22, InputChannel=11
d9c6c2f32f06cfdc2128f2d8161c98f1
# Keras Layer (derived): Conv Kernel Plane - OutputChannel=22, InputChannel=12
0fcff3f8cad5fb18e081ad2001f8f8e3
# Keras Layer (derived): Conv Kernel Plane - OutputChannel=22, InputChannel=13
f505091617f50afbe6d60dd8e5d3f034
# Keras Layer (derived): Conv Kernel Plane - OutputChannel=22, InputChannel=14
f9f5fef607130dfce4dd080e09ebdce2
# Keras Layer (derived): Conv Kernel Plane - OutputChannel=22, InputChannel=15
fdf209fc24e0d83debf7d4e50e1b0210
# Keras Layer (derived): Conv Kernel Plane - OutputChannel=23, InputChannel=0
071cf2c8d7fa19e7fd11fd04c7132c27
# Keras Layer (derived): Conv Kernel Plane - OutputChannel=23, InputChannel=1
b9110801ec21ede5d309d9e100ec1312
# Keras Layer (derived): Conv Kernel Plane - OutputChannel=23, InputChannel=2
f81e34f20ed614fbe910fef113cee1de
# Keras Layer (derived): Conv Kernel Plane - OutputChannel=23, InputChannel=3
12233e0beafd10f7ff09261711e62bfc
# Keras Layer (derived): Conv Kernel Plane - OutputChannel=23, InputChannel=4
1001f7f1fae7b204ecf600032114ff0d
# Keras Layer (derived): Conv Kernel Plane - OutputChannel=23, InputChannel=5
f8d9fa2a0d81e9fc0be6050411ff080d
# Keras Layer (derived): Conv Kernel Plane - OutputChannel=23, InputChannel=6
eadeec051402d610e41aeae0def0f813
# Keras Layer (derived): Conv Kernel Plane - OutputChannel=23, InputChannel=7
2c25280723f61edb02d8211eec101217
# Keras Layer (derived): Conv Kernel Plane - OutputChannel=23, InputChannel=8
0904e1f00508cfe705e9fef31f022cf8
# Keras Layer (derived): Conv Kernel Plane - OutputChannel=23, InputChannel=9
e7f6163e04edf153fdf8d9fbffecf305
# Keras Layer (derived): Conv Kernel Plane - OutputChannel=23, InputChannel=10
fc16e1e61d10cef1e9030bde0002da02
# Keras Layer (derived): Conv Kernel Plane - OutputChannel=23, InputChannel=11
1e06020719f4e63702241bf1f90cf7e9
# Keras Layer (derived): Conv Kernel Plane - OutputChannel=23, InputChannel=12
ffef311c2ff620f6f500d4c808edebd1
# Keras Layer (derived): Conv Kernel Plane - OutputChannel=23, InputChannel=13
ea1a1006dff90101bef7ecddf7ea0605
# Keras Layer (derived): Conv Kernel Plane - OutputChannel=23, InputChannel=14
e4e4edf1ccc0cbfef5e6070216f900fc
# Keras Layer (derived): Conv Kernel Plane - OutputChannel=23, InputChannel=15
f8eafef7050101ff0408f712ee0edf06
# Keras Layer (derived): Conv Kernel Plane - OutputChannel=24, InputChannel=0
fa04fafed826f9dcfcf903e22805eefe
# Keras Layer (derived): Conv Kernel Plane - OutputChannel=24, InputChannel=1
fed8fffbb6f80627bba790f0dcebec27
# Keras Layer (derived): Conv Kernel Plane - OutputChannel=24, InputChannel=2
cd04f31a21083417d8efdcecf601d5ff
# Keras Layer (derived): Conv Kernel Plane - OutputChannel=24, InputChannel=3
fc1ad605022008249df3fce9d02a05fc
# Keras Layer (derived): Conv Kernel Plane - OutputChannel=24, InputChannel=4
11fec3c6f9ff271cfb155228081d441b
# Keras Layer (derived): Conv Kernel Plane - OutputChannel=24, InputChannel=5
ffde11d2fc0cfac4bbee271fe1fc253d
# Keras Layer (derived): Conv Kernel Plane - OutputChannel=24, InputChannel=6
d00fbd08ecf4e2fa06f2afeefee6ebb6
# Keras Layer (derived): Conv Kernel Plane - OutputChannel=24, InputChannel=7
ebee0cdbf1c5ffee2af8fee01c2fc99d
# Keras Layer (derived): Conv Kernel Plane - OutputChannel=24, InputChannel=8
03f7f3e631ffd8ca1b34c8e8f4e6ca1f
# Keras Layer (derived): Conv Kernel Plane - OutputChannel=24, InputChannel=9
14d80ee1e1e7f5cbac1548eddef83009
# Keras Layer (derived): Conv Kernel Plane - OutputChannel=24, InputChannel=10
feecb7060b03af0b14cba98c1bf6e51b
# Keras Layer (derived): Conv Kernel Plane - OutputChannel=24, InputChannel=11
3afaf52209d59c18ebb781981cfec7c6
# Keras Layer (derived): Conv Kernel Plane - OutputChannel=24, InputChannel=12
0520021df5f7abe7d4b4af03ecf9dafc
# Keras Layer (derived): Conv Kernel Plane - OutputChannel=24, InputChannel=13
d7d111eb0f1505faec390208fe48ea24
# Keras Layer (derived): Conv Kernel Plane - OutputChannel=24, InputChannel=14
15f6f60d04eac50bfbf8fd3aed01111e
# Keras Layer (derived): Conv Kernel Plane - OutputChannel=24, InputChannel=15
ffd2090be5efe0d74323dc83431110d3
# Keras Layer (derived): Conv Kernel Plane - OutputChannel=25, InputChannel=0
ecc5f60bb3f1f124d4e00d18f8fed932
# Keras Layer (derived): Conv Kernel Plane - OutputChannel=25, InputChannel=1
3521df26ebe8e3eecaf01211c2f10a03
# Keras Layer (derived): Conv Kernel Plane - OutputChannel=25, InputChannel=2
dbdfd611a7cbb10abaf0d0fb2d04e812
# Keras Layer (derived): Conv Kernel Plane - OutputChannel=25, InputChannel=3
3915051a050502462ee8f632111b05f6
# Keras Layer (derived): Conv Kernel Plane - OutputChannel=25, InputChannel=4
0c103c1e0bed6f3122e81b0d371023f3
# Keras Layer (derived): Conv Kernel Plane - OutputChannel=25, InputChannel=5
b70102b90f1bf0ba2b10ff09f3084505
# Keras Layer (derived): Conv Kernel Plane - OutputChannel=25, InputChannel=6
429999c6e1e4b9bccae0efb6cdfa131f
# Keras Layer (derived): Conv Kernel Plane - OutputChannel=25, InputChannel=7
f11fff160ffdfcdd14e4ddfb322120e7
# Keras Layer (derived): Conv Kernel Plane - OutputChannel=25, InputChannel=8
bfeccc4196081f22f5e61125dc07311a
# Keras Layer (derived): Conv Kernel Plane - OutputChannel=25, InputChannel=9
ecc5ead8bfc3e507e0b2bfa8c3f317fd
# Keras Layer (derived): Conv Kernel Plane - OutputChannel=25, InputChannel=10
e11422fe2d3218f9f518dae2fed6ca32
# Keras Layer (derived): Conv Kernel Plane - OutputChannel=25, InputChannel=11
d6e61af0ed01e2e317f4f924e71e0a24
# Keras Layer (derived): Conv Kernel Plane - OutputChannel=25, InputChannel=12
2404ff2c1bee2d28be20fc12d20c1626
# Keras Layer (derived): Conv Kernel Plane - OutputChannel=25, InputChannel=13
b9e9c1e7f2ef8fe0b081e40708002a4e
# Keras Layer (derived): Conv Kernel Plane - OutputChannel=25, InputChannel=14
d2c406ffc6d3f745d30de517e21df23a
# Keras Layer (derived): Conv Kernel Plane - OutputChannel=25, InputChannel=15
fa19f9ee2e210818e015e70621303c0d
# Keras Layer (derived): Conv Kernel Plane - OutputChannel=26, InputChannel=0
f7061c1be4051ce3d2d80d17e9dcf8f2
# Keras Layer (derived): Conv Kernel Plane - OutputChannel=26, InputChannel=1
e50d021ae627f109d8fed90c0926e9e4
# Keras Layer (derived): Conv Kernel Plane - OutputChannel=26, InputChannel=2
ec2ef4d2f3131c1802131819082f2f1a
# Keras Layer (derived): Conv Kernel Plane - OutputChannel=26, InputChannel=3
05250319c1e30c0efcce0a14d917f1e3
# Keras Layer (derived): Conv Kernel Plane - OutputChannel=26, InputChannel=4
05eebddfede4d30238f6f1050e1d2a19
# Keras Layer (derived): Conv Kernel Plane - OutputChannel=26, InputChannel=5
1ed601131ab2c63940daaa171923f90f
# Keras Layer (derived): Conv Kernel Plane - OutputChannel=26, InputChannel=6
13ef16051cbc81fb15e4ce0504e013fd
# Keras Layer (derived): Conv Kernel Plane - OutputChannel=26, InputChannel=7
f4ecfffbdfff3709e3181bfea9fd2ff1
# Keras Layer (derived): Conv Kernel Plane - OutputChannel=26, InputChannel=8
97dffb0fc8f30bf8c8fa0bfc19072518
# Keras Layer (derived): Conv Kernel Plane - OutputChannel=26, InputChannel=9
2af1f2045babe7415bdfad2716f2dbf3
# Keras Layer (derived): Conv Kernel Plane - OutputChannel=26, InputChannel=10
fcfae6102137db0be8d9e7f5fa0dfd03
# Keras Layer (derived): Conv Kernel Plane - OutputChannel=26, InputChannel=11
0cdc2c2e16e0cd2dfed0a6280dcf2117
# Keras Layer (derived): Conv Kernel Plane - OutputChannel=26, InputChannel=12
09defd15f3f6fd24d1d5fafff0030bf2
# Keras Layer (derived): Conv Kernel Plane - OutputChannel=26, InputChannel=13
f8e9230000c5ff11ecbaf4d9f70f22d7
# Keras Layer (derived): Conv Kernel Plane - OutputChannel=26, InputChannel=14
e71925fe07f1e2f919eff9051508f7e4
# Keras Layer (derived): Conv Kernel Plane - OutputChannel=26, InputChannel=15
d3e8e915d8f4200f020838f6dde63923
# Keras Layer (derived): Conv Kernel Plane - OutputChannel=27, InputChannel=0
e9dddedb33f902d8521c08f4121bf703
# Keras Layer (derived): Conv Kernel Plane - OutputChannel=27, InputChannel=1
2018f1cffc1af618f6f50209f60e0d12
# Keras Layer (derived): Conv Kernel Plane - OutputChannel=27, InputChannel=2
f9efc81ee211fa28f322ee05f7040013
# Keras Layer (derived): Conv Kernel Plane - OutputChannel=27, InputChannel=3
dfd0a5f7dcf10d300f1ee72403091017
# Keras Layer (derived): Conv Kernel Plane - OutputChannel=27, InputChannel=4
6025fb2de2df141820282b24292f1717
# Keras Layer (derived): Conv Kernel Plane - OutputChannel=27, InputChannel=5
e9cf0f4b28de95150ff5dc1a0f28f717
# Keras Layer (derived): Conv Kernel Plane - OutputChannel=27, InputChannel=6
fcdcbeb5bc81eb0d0ddaefb7e6f30c8c
# Keras Layer (derived): Conv Kernel Plane - OutputChannel=27, InputChannel=7
1c04bdf00d24da1e0f17e1f1e50f15fb
# Keras Layer (derived): Conv Kernel Plane - OutputChannel=27, InputChannel=8
cf0de599b7dd1baffbed0be52404e0e4
# Keras Layer (derived): Conv Kernel Plane - OutputChannel=27, InputChannel=9
0ed7d024f7ee1d45faeddf021b06c4f5
# Keras Layer (derived): Conv Kernel Plane - OutputChannel=27, InputChannel=10
efeb000e272e1209eff723bd1a220ad6
# Keras Layer (derived): Conv Kernel Plane - OutputChannel=27, InputChannel=11
09ecd6de96f2f5d0dfddeade14cfd7f9
# Keras Layer (derived): Conv Kernel Plane - OutputChannel=27, InputChannel=12
bcc9f1dfa8dd0becebf3e9ef16ddfdf1
# Keras Layer (derived): Conv Kernel Plane - OutputChannel=27, InputChannel=13
ecf7e119f8daf08f3cce21fc2be92e0d
# Keras Layer (derived): Conv Kernel Plane - OutputChannel=27, InputChannel=14
cd85c809c4effff90928cbf2f403ea06
# Keras Layer (derived): Conv Kernel Plane - OutputChannel=27, InputChannel=15
fe14072118264c0f26f405effee0e837
# Keras Layer (derived): Conv Kernel Plane - OutputChannel=28, InputChannel=0
080d0602f1e5c9e8f41ce7fdee03f60f
# Keras Layer (derived): Conv Kernel Plane - OutputChannel=28, InputChannel=1
ff1dde0dfd1eb2f52506b50c070cc6ef
# Keras Layer (derived): Conv Kernel Plane - OutputChannel=28, InputChannel=2
ecf70c0c061002022800e5ee11190afb
# Keras Layer (derived): Conv Kernel Plane - OutputChannel=28, InputChannel=3
120ffef2fa14d8c514171d09f7ff02e7
# Keras Layer (derived): Conv Kernel Plane - OutputChannel=28, InputChannel=4
10eae206dd0b2de1c71718eff3260f10
# Keras Layer (derived): Conv Kernel Plane - OutputChannel=28, InputChannel=5
fe13f200f6d9f202cbf73d01e5e14df3
# Keras Layer (derived): Conv Kernel Plane - OutputChannel=28, InputChannel=6
fcf8c702faecdde9dece0f06df0f2424
# Keras Layer (derived): Conv Kernel Plane - OutputChannel=28, InputChannel=7
1aeefaf0f71ede910f1f03f8230febf0
# Keras Layer (derived): Conv Kernel Plane - OutputChannel=28, InputChannel=8
f2fef3f70af327eaf3f8e9ebeef3f513
# Keras Layer (derived): Conv Kernel Plane - OutputChannel=28, InputChannel=9
f2fa1d1de1cc0bfadff67f44f9ed3ef0
# Keras Layer (derived): Conv Kernel Plane - OutputChannel=28, InputChannel=10
0505dac0e9de1211dec9c20d1008e823
# Keras Layer (derived): Conv Kernel Plane - OutputChannel=28, InputChannel=11
0fe0f8f8eadbffebd3fe331912f91516
# Keras Layer (derived): Conv Kernel Plane - OutputChannel=28, InputChannel=12
0905f1e613effb281bf60cece00137fb
# Keras Layer (derived): Conv Kernel Plane - OutputChannel=28, InputChannel=13
fb0ce3fa080cfdecefeef2e71af6f6c3
# Keras Layer (derived): Conv Kernel Plane - OutputChannel=28, InputChannel=14
0cf5dd1506edf6f9f5f5e90df1fd0605
# Keras Layer (derived): Conv Kernel Plane - OutputChannel=28, InputChannel=15
d7eedafde90bf503f024e9c3f718f611
# Keras Layer (derived): Conv Kernel Plane - OutputChannel=29, InputChannel=0
023e30f20310130beffac208d1bfe0ec
# Keras Layer (derived): Conv Kernel Plane - OutputChannel=29, InputChannel=1
fe0300ca0fb1e7c70e812ce522ee08df
# Keras Layer (derived): Conv Kernel Plane - OutputChannel=29, InputChannel=2
ed13f8eb212520e9f50214f8dfe1e8e2
# Keras Layer (derived): Conv Kernel Plane - OutputChannel=29, InputChannel=3
c4f9eb1c291615c5ee01f1e7ce11aec4
# Keras Layer (derived): Conv Kernel Plane - OutputChannel=29, InputChannel=4
fcd7ce36e7fad2d711e2f40922cc0400
# Keras Layer (derived): Conv Kernel Plane - OutputChannel=29, InputChannel=5
d7ab152b04f712ec18ff0c07e6fd1a16
# Keras Layer (derived): Conv Kernel Plane - OutputChannel=29, InputChannel=6
efb6e003d506effb05f212d7bee115d1
# Keras Layer (derived): Conv Kernel Plane - OutputChannel=29, InputChannel=7
de1702f7fcd806facfd6bdce3fd924e9
# Keras Layer (derived): Conv Kernel Plane - OutputChannel=29, InputChannel=8
f92cf3f0ff4d2d2cfc0a094d0cd7e5c8
# Keras Layer (derived): Conv Kernel Plane - OutputChannel=29, InputChannel=9
f9b6c905d01f2810e5365632dcf00df0
# Keras Layer (derived): Conv Kernel Plane - OutputChannel=29, InputChannel=10
eac1e40defff282ddcc8d32ae7221010
# Keras Layer (derived): Conv Kernel Plane - OutputChannel=29, InputChannel=11
d7e6d0ba0314191d072007f0c30e1726
# Keras Layer (derived): Conv Kernel Plane - OutputChannel=29, InputChannel=12
3c22f2102853504111d9f8ddf18ddfec
# Keras Layer (derived): Conv Kernel Plane - OutputChannel=29, InputChannel=13
241b0afd1e39fc131921ff3510f5ba20
# Keras Layer (derived): Conv Kernel Plane - OutputChannel=29, InputChannel=14
d51ed613f92d20e1cf0be0b7b6e20ed0
# Keras Layer (derived): Conv Kernel Plane - OutputChannel=29, InputChannel=15
d7df2a2504211003feddec0cf609fe04
# Keras Layer (derived): Conv Kernel Plane - OutputChannel=30, InputChannel=0
f0ee1f362908ebdb1815e0facfddca04
# Keras Layer (derived): Conv Kernel Plane - OutputChannel=30, InputChannel=1
b8bc080d0a3ce31e0800f608ffd9efe2
# Keras Layer (derived): Conv Kernel Plane - OutputChannel=30, InputChannel=2
0ffb07e93221381c270cdfdcc396d103
# Keras Layer (derived): Conv Kernel Plane - OutputChannel=30, InputChannel=3
02ddd1f6e9fc083d151f1c3cd41d3a2b
# Keras Layer (derived): Conv Kernel Plane - OutputChannel=30, InputChannel=4
bd0e271dd700ece60cf5e4111ee3b31d
# Keras Layer (derived): Conv Kernel Plane - OutputChannel=30, InputChannel=5
ccbacad2a399da07fe141d3f2324eaf7
# Keras Layer (derived): Conv Kernel Plane - OutputChannel=30, InputChannel=6
2227f1209e8106d90c0e1f161bf23744
# Keras Layer (derived): Conv Kernel Plane - OutputChannel=30, InputChannel=7
c0e7f8cd0416231e222a2a0de9f2e00a
# Keras Layer (derived): Conv Kernel Plane - OutputChannel=30, InputChannel=8
ef16f5d9fcf80123e1e0c801b21809ec
# Keras Layer (derived): Conv Kernel Plane - OutputChannel=30, InputChannel=9
f6e6b91119a49eeeede8b9d4fd56e529
# Keras Layer (derived): Conv Kernel Plane - OutputChannel=30, InputChannel=10
de02c0f7a2f3b4fddc050a18050b1e08
# Keras Layer (derived): Conv Kernel Plane - OutputChannel=30, InputChannel=11
1af2e906eacef3fea40ec0da0e3b3e08
# Keras Layer (derived): Conv Kernel Plane - OutputChannel=30, InputChannel=12
12efdad905e1e201fd0a3621f707fee4
# Keras Layer (derived): Conv Kernel Plane - OutputChannel=30, InputChannel=13
0b05e6f504f60314f41cef12f60800cd
# Keras Layer (derived): Conv Kernel Plane - OutputChannel=30, InputChannel=14
2209e6e9f106bd16160ff0051b0ffbe7
# Keras Layer (derived): Conv Kernel Plane - OutputChannel=30, InputChannel=15
f8c2e8e8d40b360c1413ff0d19e6d5a9
# Keras Layer (derived): Conv Kernel Plane - OutputChannel=31, InputChannel=0
98c8f30caabdef1ee9fe1c1004320f09
# Keras Layer (derived): Conv Kernel Plane - OutputChannel=31, InputChannel=1
e70d382cfb201e14e5fffddef3bdf81a
# Keras Layer (derived): Conv Kernel Plane - OutputChannel=31, InputChannel=2
02fafd1ab2faee11bce91a161713f804
# Keras Layer (derived): Conv Kernel Plane - OutputChannel=31, InputChannel=3
32beff0ae00420f95b451921f100f1fd
# Keras Layer (derived): Conv Kernel Plane - OutputChannel=31, InputChannel=4
f5391efa24fd101525d101cb09f61106
# Keras Layer (derived): Conv Kernel Plane - OutputChannel=31, InputChannel=5
f42ae0f0f7272409d41c19e4ddf0d009
# Keras Layer (derived): Conv Kernel Plane - OutputChannel=31, InputChannel=6
f3dd100d00fe12060919180eeafed4f1
# Keras Layer (derived): Conv Kernel Plane - OutputChannel=31, InputChannel=7
b581d6ebf7d52af6ebf4f10dd4f3f130
# Keras Layer (derived): Conv Kernel Plane - OutputChannel=31, InputChannel=8
3a04f41509d0ce07bef2fc100d181a15
# Keras Layer (derived): Conv Kernel Plane - OutputChannel=31, InputChannel=9
2418070d263833040af407e114cf061e
# Keras Layer (derived): Conv Kernel Plane - OutputChannel=31, InputChannel=10
08ee1304550dfbfb10212000f81ee1fd
# Keras Layer (derived): Conv Kernel Plane - OutputChannel=31, InputChannel=11
d423df0f1b0028e012d1ef1306d6e11d
# Keras Layer (derived): Conv Kernel Plane - OutputChannel=31, InputChannel=12
10b6e80fa210322cc6252319114112f7
# Keras Layer (derived): Conv Kernel Plane - OutputChannel=31, InputChannel=13
e1e20c4bf3d41607feedf0051027f8fb
# Keras Layer (derived): Conv Kernel Plane - OutputChannel=31, InputChannel=14
c1d0ecf4ef132a3d0130f9061422f8fc
# Keras Layer (derived): Conv Kernel Plane - OutputChannel=31, InputChannel=15
fb0ff124e7c2fbdabbd3e7f6ff00dc09
# End Tensor

# Tensor Name (TFLite): tfl.pseudo_qconst5
# Original Shape: [np.int32(64), np.int32(4), np.int32(4), np.int32(32)]
# Dtype: <class 'numpy.int8'>
# Keras Layer (derived): Conv Kernel Plane - OutputChannel=0, InputChannel=0
e7f602f8f40c1d040547ffdc0d00de31
# Keras Layer (derived): Conv Kernel Plane - OutputChannel=0, InputChannel=1
f0ba0e0c0d18e3ec032e1718f70cece3
# Keras Layer (derived): Conv Kernel Plane - OutputChannel=0, InputChannel=2
f4e2f9e3cbff00d1f9dee5fdf802d8cc
# Keras Layer (derived): Conv Kernel Plane - OutputChannel=0, InputChannel=3
0614de27b8ff040f0303f4f6efa81217
# Keras Layer (derived): Conv Kernel Plane - OutputChannel=0, InputChannel=4
1b10d516c10ecfdb180716451b02ecf7
# Keras Layer (derived): Conv Kernel Plane - OutputChannel=0, InputChannel=5
e62f17d0bfe4eec20ff609061126c528
# Keras Layer (derived): Conv Kernel Plane - OutputChannel=0, InputChannel=6
122507fce4b91ce81a0ee2ecfe1a14db
# Keras Layer (derived): Conv Kernel Plane - OutputChannel=0, InputChannel=7
f5ddd881f416f92b0d08ec19f123f632
# Keras Layer (derived): Conv Kernel Plane - OutputChannel=0, InputChannel=8
15decb29d3eae50a0ee9180ff4df15f6
# Keras Layer (derived): Conv Kernel Plane - OutputChannel=0, InputChannel=9
f0e8fd0ffeeae8e6213cf2ef1528fd0c
# Keras Layer (derived): Conv Kernel Plane - OutputChannel=0, InputChannel=10
06eb0d04f6c0e307110ed0ea0b0d32ed
# Keras Layer (derived): Conv Kernel Plane - OutputChannel=0, InputChannel=11
042b08af1ef0fe0fb304fe33d4fe330c
# Keras Layer (derived): Conv Kernel Plane - OutputChannel=0, InputChannel=12
ebec0134f8ea012a24dbea03fad4f6ea
# Keras Layer (derived): Conv Kernel Plane - OutputChannel=0, InputChannel=13
fb03f6f4dd18ef080b141a25f3161d14
# Keras Layer (derived): Conv Kernel Plane - OutputChannel=0, InputChannel=14
f3051720f50f12ecbe2f11020dd1eee6
# Keras Layer (derived): Conv Kernel Plane - OutputChannel=0, InputChannel=15
f5eeef0eeff6f2dd090dd70632ebd31b
# Keras Layer (derived): Conv Kernel Plane - OutputChannel=0, InputChannel=16
28ee0ac724eaf20d001423220ce8de08
# Keras Layer (derived): Conv Kernel Plane - OutputChannel=0, InputChannel=17
e3fd1305c8d6e8190c37eb0d250f1428
# Keras Layer (derived): Conv Kernel Plane - OutputChannel=0, InputChannel=18
fff0f8d7d001f6f7f8efe010052d3711
# Keras Layer (derived): Conv Kernel Plane - OutputChannel=0, InputChannel=19
bdce0c31f0031cdd3eed1a1bf924e2c4
# Keras Layer (derived): Conv Kernel Plane - OutputChannel=0, InputChannel=20
1af60c10dbfaf6fae3f0e9f00cf5fce7
# Keras Layer (derived): Conv Kernel Plane - OutputChannel=0, InputChannel=21
d3030c2003032f090902e507fadce5d3
# Keras Layer (derived): Conv Kernel Plane - OutputChannel=0, InputChannel=22
1de2e9fad3e9ff0811e909223531241d
# Keras Layer (derived): Conv Kernel Plane - OutputChannel=0, InputChannel=23
17ec2600fbd50104fa2ae8fa100bd0d4
# Keras Layer (derived): Conv Kernel Plane - OutputChannel=0, InputChannel=24
0ed9d8b3200b01b8f1013b460c1ef605
# Keras Layer (derived): Conv Kernel Plane - OutputChannel=0, InputChannel=25
86f219dfea01e900cf1ceb13d9f3204b
# Keras Layer (derived): Conv Kernel Plane - OutputChannel=0, InputChannel=26
21ee110cdef3ec081afe02241a04e8f8
# Keras Layer (derived): Conv Kernel Plane - OutputChannel=0, InputChannel=27
1fe2d9ddd211de9e2e18fee840e4c19d
# Keras Layer (derived): Conv Kernel Plane - OutputChannel=0, InputChannel=28
03e902e71be9f61fbf1ef0cebb0c1007
# Keras Layer (derived): Conv Kernel Plane - OutputChannel=0, InputChannel=29
d513f6170afcfb04fafbf33314ed020c
# Keras Layer (derived): Conv Kernel Plane - OutputChannel=0, InputChannel=30
0c1ff4e6091212e2f1dd0e42f5f6efd9
# Keras Layer (derived): Conv Kernel Plane - OutputChannel=0, InputChannel=31
df3ed2cef81bdaf8e7de07f901e1f4fe
# Keras Layer (derived): Conv Kernel Plane - OutputChannel=1, InputChannel=0
f3f2002904f9e2dfee2410e805271af9
# Keras Layer (derived): Conv Kernel Plane - OutputChannel=1, InputChannel=1
f3fceee70905f1e5250cdf0f04e105ff
# Keras Layer (derived): Conv Kernel Plane - OutputChannel=1, InputChannel=2
e6fafdfedbe41620f311ff0efcd2d818
# Keras Layer (derived): Conv Kernel Plane - OutputChannel=1, InputChannel=3
1e1a03100c10f3ddfc0cf1eee8effde1
# Keras Layer (derived): Conv Kernel Plane - OutputChannel=1, InputChannel=4
0cdce7faf30fecf2f5dc09d401dafd1f
# Keras Layer (derived): Conv Kernel Plane - OutputChannel=1, InputChannel=5
fb121b0215fcf10301f0030101e3d410
# Keras Layer (derived): Conv Kernel Plane - OutputChannel=1, InputChannel=6
ebff0aec0cfbe9fafd0211e814ff0df5
# Keras Layer (derived): Conv Kernel Plane - OutputChannel=1, InputChannel=7
111809cb181afaecdd08c9dba781b10f
# Keras Layer (derived): Conv Kernel Plane - OutputChannel=1, InputChannel=8
0220f9f3ee00fb1115db14f8f7e4eaf2
# Keras Layer (derived): Conv Kernel Plane - OutputChannel=1, InputChannel=9
10050c2303120cfe120ae6bffc1216dc
# Keras Layer (derived): Conv Kernel Plane - OutputChannel=1, InputChannel=10
f31701f3fefdf4ef2918fee6de13f415
# Keras Layer (derived): Conv Kernel Plane - OutputChannel=1, InputChannel=11
f90b0810fa19fa19070105f50afafed9
# Keras Layer (derived): Conv Kernel Plane - OutputChannel=1, InputChannel=12
11040afcfb0bf1f4fa09f7d810080ad4
# Keras Layer (derived): Conv Kernel Plane - OutputChannel=1, InputChannel=13
f7010319fbf40be9041307f320e800eb
# Keras Layer (derived): Conv Kernel Plane - OutputChannel=1, InputChannel=14
01e50cfff10123fcbc0aed09f3eedcef
# Keras Layer (derived): Conv Kernel Plane - OutputChannel=1, InputChannel=15
d5f0fc1b04ea0fecf5f90dfadcf2ecfb
# Keras Layer (derived): Conv Kernel Plane - OutputChannel=1, InputChannel=16
fef616030801f0f403e5e71e0ceeeae8
# Keras Layer (derived): Conv Kernel Plane - OutputChannel=1, InputChannel=17
fe01f5e7f5ffe53112ff04e60c1030ef
# Keras Layer (derived): Conv Kernel Plane - OutputChannel=1, InputChannel=18
08dc1c0cf0ccf8f206e8f301e5e1e1d7
# Keras Layer (derived): Conv Kernel Plane - OutputChannel=1, InputChannel=19
0702f5fcfbec070bfb01dd19fc00f50e
# Keras Layer (derived): Conv Kernel Plane - OutputChannel=1, InputChannel=20
00f5f802e5ff0a06fff60bf8deecf6f9
# Keras Layer (derived): Conv Kernel Plane - OutputChannel=1, InputChannel=21
f1f918f402cafafadffa02b70307f60c
# Keras Layer (derived): Conv Kernel Plane - OutputChannel=1, InputChannel=22
f5e9291bf3f8221a0b0ee8e91ff2efc5
# Keras Layer (derived): Conv Kernel Plane - OutputChannel=1, InputChannel=23
0d0ff5f606f7ed02f4edf305e8071f06
# Keras Layer (derived): Conv Kernel Plane - OutputChannel=1, InputChannel=24
f400ebf7e0e2061310ff101a2cfe1828
# Keras Layer (derived): Conv Kernel Plane - OutputChannel=1, InputChannel=25
21070006f2000cfb000411fbd4b6e8b0
# Keras Layer (derived): Conv Kernel Plane - OutputChannel=1, InputChannel=26
0013f8ee01120af602e2ed0fe9c9d9ce
# Keras Layer (derived): Conv Kernel Plane - OutputChannel=1, InputChannel=27
2816160cf1f203060cf205eaee21c3f2
# Keras Layer (derived): Conv Kernel Plane - OutputChannel=1, InputChannel=28
ff03201a1d1bfcf500e016041dd0eaf8
# Keras Layer (derived): Conv Kernel Plane - OutputChannel=1, InputChannel=29
08f107f4f6d8f4f0f2fefaf4100e0714
# Keras Layer (derived): Conv Kernel Plane - OutputChannel=1, InputChannel=30
f5f6ed1300e916de2206270be5ed0807
# Keras Layer (derived): Conv Kernel Plane - OutputChannel=1, InputChannel=31
06fa03ebfc01de0e0916fdc6e1e3ecf1
# Keras Layer (derived): Conv Kernel Plane - OutputChannel=2, InputChannel=0
f23effecf928dd05fdd01aecfe25fa12
# Keras Layer (derived): Conv Kernel Plane - OutputChannel=2, InputChannel=1
06faf9dc2914ccccedf21dfc1009e914
# Keras Layer (derived): Conv Kernel Plane - OutputChannel=2, InputChannel=2
c4ff14f9d9dffb241f3711d52ffe04f9
# Keras Layer (derived): Conv Kernel Plane - OutputChannel=2, InputChannel=3
130e07d7ba2ce3f604dadf013ae6f40d
# Keras Layer (derived): Conv Kernel Plane - OutputChannel=2, InputChannel=4
ffc22cfccb141df41516fe111412f90f
# Keras Layer (derived): Conv Kernel Plane - OutputChannel=2, InputChannel=5
06eb1afa21f2f5f42d05ecee100108e0
# Keras Layer (derived): Conv Kernel Plane - OutputChannel=2, InputChannel=6
15e601b0f4f306e405fd1be9b219dbd9
# Keras Layer (derived): Conv Kernel Plane - OutputChannel=2, InputChannel=7
f9def9fff5a70bf6b5d11c3935c6c7c1
# Keras Layer (derived): Conv Kernel Plane - OutputChannel=2, InputChannel=8
141801f7be15f8ecebe00517d3e5fdf7
# Keras Layer (derived): Conv Kernel Plane - OutputChannel=2, InputChannel=9
ee02c6ed1c121d088114080d9c005121
# Keras Layer (derived): Conv Kernel Plane - OutputChannel=2, InputChannel=10
f8fee2db360405fd11e9fb04a3f60007
# Keras Layer (derived): Conv Kernel Plane - OutputChannel=2, InputChannel=11
e309ea20e0ecf9f302d4ea030efcf726
# Keras Layer (derived): Conv Kernel Plane - OutputChannel=2, InputChannel=12
180d0fddef13f4f4eedc1205020d23e2
# Keras Layer (derived): Conv Kernel Plane - OutputChannel=2, InputChannel=13
ff0510d71d0503d802401afdc2d1030e
# Keras Layer (derived): Conv Kernel Plane - OutputChannel=2, InputChannel=14
2111340a9aff30f91c0e381f20f018bb
# Keras Layer (derived): Conv Kernel Plane - OutputChannel=2, InputChannel=15
1ad2ef2706d2f70ff81805eaf2ff09d0
# Keras Layer (derived): Conv Kernel Plane - OutputChannel=2, InputChannel=16
06ffdc07dfdbe0000c0023eadef4fb1d
# Keras Layer (derived): Conv Kernel Plane - OutputChannel=2, InputChannel=17
010bfb390a14f5d8ecddcfe0eef5270b
# Keras Layer (derived): Conv Kernel Plane - OutputChannel=2, InputChannel=18
dbeccfd8f80106100302f9f0180ab40c
# Keras Layer (derived): Conv Kernel Plane - OutputChannel=2, InputChannel=19
eaf12103fbe2031f20ff07ff3a0ad9f8
# Keras Layer (derived): Conv Kernel Plane - OutputChannel=2, InputChannel=20
35eae3f51aebf6f4c7fceee6cae21305
# Keras Layer (derived): Conv Kernel Plane - OutputChannel=2, InputChannel=21
ac1126f118f307013c01edf5fefdfed3
# Keras Layer (derived): Conv Kernel Plane - OutputChannel=2, InputChannel=22
ea0423f1eed814f3031f2ae7261df42a
# Keras Layer (derived): Conv Kernel Plane - OutputChannel=2, InputChannel=23
0ffd0adb1013e622071d090918efddca
# Keras Layer (derived): Conv Kernel Plane - OutputChannel=2, InputChannel=24
29ecd80efe02f4d4ff1f22fc06fada40
# Keras Layer (derived): Conv Kernel Plane - OutputChannel=2, InputChannel=25
f4f7e2ea3dfd9a1a10e717ee14e6d807
# Keras Layer (derived): Conv Kernel Plane - OutputChannel=2, InputChannel=26
f10003e2cf030123fae10826b2bce30a
# Keras Layer (derived): Conv Kernel Plane - OutputChannel=2, InputChannel=27
0ad01e21f724f806b1ee0d5df21ffe00
# Keras Layer (derived): Conv Kernel Plane - OutputChannel=2, InputChannel=28
eecefe14d40df935152b0e0a0616eee1
# Keras Layer (derived): Conv Kernel Plane - OutputChannel=2, InputChannel=29
12e804d4fbbc12f015ecf7f6140df5f6
# Keras Layer (derived): Conv Kernel Plane - OutputChannel=2, InputChannel=30
eed83028eefaf5dee61df61c04123311
# Keras Layer (derived): Conv Kernel Plane - OutputChannel=2, InputChannel=31
032e160acafdf4eed7eb03e72132f7e1
# Keras Layer (derived): Conv Kernel Plane - OutputChannel=3, InputChannel=0
f80602e41cf6d3ebd3220e15023323d0
# Keras Layer (derived): Conv Kernel Plane - OutputChannel=3, InputChannel=1
cdc5d6fa0d0707183023e3e7e3c06206
# Keras Layer (derived): Conv Kernel Plane - OutputChannel=3, InputChannel=2
090d02d6dbf2d9fb06ec2c02dbf9e41c
# Keras Layer (derived): Conv Kernel Plane - OutputChannel=3, InputChannel=3
37041cf4bbed0939fce6f1d403fe0ff6
# Keras Layer (derived): Conv Kernel Plane - OutputChannel=3, InputChannel=4
0848aada0cfbd123f6fd0cfbb9f81509
# Keras Layer (derived): Conv Kernel Plane - OutputChannel=3, InputChannel=5
d6e8f012e018fb07f9060aec1eeb0be5
# Keras Layer (derived): Conv Kernel Plane - OutputChannel=3, InputChannel=6
1c06cee7f729fe250df5f502fde5f09e
# Keras Layer (derived): Conv Kernel Plane - OutputChannel=3, InputChannel=7
f640c35917feb00604e6f913edac2d3d
# Keras Layer (derived): Conv Kernel Plane - OutputChannel=3, InputChannel=8
ef270c011611e8f10d0bf7f20ffd13a5
# Keras Layer (derived): Conv Kernel Plane - OutputChannel=3, InputChannel=9
ebf9ff512f03e4f218e101f0cd811fb9
# Keras Layer (derived): Conv Kernel Plane - OutputChannel=3, InputChannel=10
27ec00102230f1ef14f601ff10c533ef
# Keras Layer (derived): Conv Kernel Plane - OutputChannel=3, InputChannel=11
dae032e9f6ed08ec14f9e9400d27fd27
# Keras Layer (derived): Conv Kernel Plane - OutputChannel=3, InputChannel=12
ffd6caef00f70729cffffd07173212cb
# Keras Layer (derived): Conv Kernel Plane - OutputChannel=3, InputChannel=13
facddadbf7ff102ee6121603d9f5f4d9
# Keras Layer (derived): Conv Kernel Plane - OutputChannel=3, InputChannel=14
0fd50c10edf21a1efdc302000708c40b
# Keras Layer (derived): Conv Kernel Plane - OutputChannel=3, InputChannel=15
df100032e70619de02e6db2eea170c0b
# Keras Layer (derived): Conv Kernel Plane - OutputChannel=3, InputChannel=16
05d9e515d2fbf62717df13dfecc206e6
# Keras Layer (derived): Conv Kernel Plane - OutputChannel=3, InputChannel=17
c70cf31b11d101cafefec8c8023900f4
# Keras Layer (derived): Conv Kernel Plane - OutputChannel=3, InputChannel=18
abf9fafd092720ff0f12ef11f1dc27fc
# Keras Layer (derived): Conv Kernel Plane - OutputChannel=3, InputChannel=19
08191144cfbda81adc06090ad4daf127
# Keras Layer (derived): Conv Kernel Plane - OutputChannel=3, InputChannel=20
12e3f4e2130700e61f100710e1e1ddbf
# Keras Layer (derived): Conv Kernel Plane - OutputChannel=3, InputChannel=21
9eef03e505f2e6010cf4b024fe0a26dd
# Keras Layer (derived): Conv Kernel Plane - OutputChannel=3, InputChannel=22
03e9f6dc180edde9c6f2d7022a029813
# Keras Layer (derived): Conv Kernel Plane - OutputChannel=3, InputChannel=23
40dfe5f3fc13031cacdd1029fccded56
# Keras Layer (derived): Conv Kernel Plane - OutputChannel=3, InputChannel=24
e503faf51dce0c0bc90f3f05d6251c0c
# Keras Layer (derived): Conv Kernel Plane - OutputChannel=3, InputChannel=25
ede303f713faa0d51fca1bca1fa11bda
# Keras Layer (derived): Conv Kernel Plane - OutputChannel=3, InputChannel=26
d8f5020600090cfe0a0093cfec0eff03
# Keras Layer (derived): Conv Kernel Plane - OutputChannel=3, InputChannel=27
37f7f80bf9fafbdbece6fcfbdd0f0200
# Keras Layer (derived): Conv Kernel Plane - OutputChannel=3, InputChannel=28
02ea28f71ed9d30e33abfa030eb23314
# Keras Layer (derived): Conv Kernel Plane - OutputChannel=3, InputChannel=29
d9d80006cf27022a4d0f010c212715cc
# Keras Layer (derived): Conv Kernel Plane - OutputChannel=3, InputChannel=30
d5e4e3e1ea03fbeff50402e5dedd0f06
# Keras Layer (derived): Conv Kernel Plane - OutputChannel=3, InputChannel=31
e0e9eebe1703251c10f0f72e33ef28f4
# Keras Layer (derived): Conv Kernel Plane - OutputChannel=4, InputChannel=0
2f030f1e18f101f7cab14eeefd0fe510
# Keras Layer (derived): Conv Kernel Plane - OutputChannel=4, InputChannel=1
022dd1e3cae2c514fd1ded2fd7081deb
# Keras Layer (derived): Conv Kernel Plane - OutputChannel=4, InputChannel=2
fd22e3ed0d172e00fed2124432f22427
# Keras Layer (derived): Conv Kernel Plane - OutputChannel=4, InputChannel=3
feee1ce8053b1fa4ab392fb219d5c38c
# Keras Layer (derived): Conv Kernel Plane - OutputChannel=4, InputChannel=4
23fa1083110e1203e90715533b13d8c5
# Keras Layer (derived): Conv Kernel Plane - OutputChannel=4, InputChannel=5
0df6fcdc38dd1020fcc40517e7cfe589
# Keras Layer (derived): Conv Kernel Plane - OutputChannel=4, InputChannel=6
0df0e30decde23050045203102f7c6ce
# Keras Layer (derived): Conv Kernel Plane - OutputChannel=4, InputChannel=7
212248903347ebaebc44344239c62a0a
# Keras Layer (derived): Conv Kernel Plane - OutputChannel=4, InputChannel=8
e809e358f12f199ad13d16d018ead50e
# Keras Layer (derived): Conv Kernel Plane - OutputChannel=4, InputChannel=9
0e4621f61bedcd1d0de5e9e0dfde9ee6
# Keras Layer (derived): Conv Kernel Plane - OutputChannel=4, InputChannel=10
07d7dad7f5dd062db4d418f5b6d119e9
# Keras Layer (derived): Conv Kernel Plane - OutputChannel=4, InputChannel=11
c2cd08e1e6060be9e75250351b0c9a07
# Keras Layer (derived): Conv Kernel Plane - OutputChannel=4, InputChannel=12
0304fb030b012220e10cd306ca17d893
# Keras Layer (derived): Conv Kernel Plane - OutputChannel=4, InputChannel=13
3ee4f007e720e23530de031618fcfb4a
# Keras Layer (derived): Conv Kernel Plane - OutputChannel=4, InputChannel=14
2f22c60cf33efab728eedc0c3ee80b5d
# Keras Layer (derived): Conv Kernel Plane - OutputChannel=4, InputChannel=15
f005df2df8f007a3df1bf4fa12d8e416
# Keras Layer (derived): Conv Kernel Plane - OutputChannel=4, InputChannel=16
b7f50ffb09ce11e93ef2fd140227d125
# Keras Layer (derived): Conv Kernel Plane - OutputChannel=4, InputChannel=17
231001143cca15ec43cc2f142314f3bb
# Keras Layer (derived): Conv Kernel Plane - OutputChannel=4, InputChannel=18
eaeef632ff0d1b0689d9e5d618e2ff3f
# Keras Layer (derived): Conv Kernel Plane - OutputChannel=4, InputChannel=19
f9e51d29e6ceed204f012f2fedcd160f
# Keras Layer (derived): Conv Kernel Plane - OutputChannel=4, InputChannel=20
f1c626e4f1f7071639ff1027fef91008
# Keras Layer (derived): Conv Kernel Plane - OutputChannel=4, InputChannel=21
0b3054ceebfcdf2fbcf9de4320cce5f8
# Keras Layer (derived): Conv Kernel Plane - OutputChannel=4, InputChannel=22
d402cb2aec25d11627ef440dbaf6eaf4
# Keras Layer (derived): Conv Kernel Plane - OutputChannel=4, InputChannel=23
b8f6df3a15fbd81a4112004b39ed15f5
# Keras Layer (derived): Conv Kernel Plane - OutputChannel=4, InputChannel=24
0df5ef2c02ff02021be717550af82ce0
# Keras Layer (derived): Conv Kernel Plane - OutputChannel=4, InputChannel=25
e5d5eea8040d251f04df11d4cbfb992c
# Keras Layer (derived): Conv Kernel Plane - OutputChannel=4, InputChannel=26
a60cdc44b4dfe0ec1e33b40020150f36
# Keras Layer (derived): Conv Kernel Plane - OutputChannel=4, InputChannel=27
239badc5acea160201ed1a14e505011f
# Keras Layer (derived): Conv Kernel Plane - OutputChannel=4, InputChannel=28
ead904ef0ee5abe72bf0c6a9141909e2
# Keras Layer (derived): Conv Kernel Plane - OutputChannel=4, InputChannel=29
15f7eed8b501cee1f1282a1242fbfe10
# Keras Layer (derived): Conv Kernel Plane - OutputChannel=4, InputChannel=30
cb0d2ac9e209d3c20ef2e881e2f3d92d
# Keras Layer (derived): Conv Kernel Plane - OutputChannel=4, InputChannel=31
d513e1ab15ffd3f4ebfcc9550ae40b41
# Keras Layer (derived): Conv Kernel Plane - OutputChannel=5, InputChannel=0
0e041711ee093a27d3dcd32cc71411ef
# Keras Layer (derived): Conv Kernel Plane - OutputChannel=5, InputChannel=1
1df323f0f0f5ff0901300511032a11ec
# Keras Layer (derived): Conv Kernel Plane - OutputChannel=5, InputChannel=2
27020d0d0d050a00f9f2e6ee2e2a1d0d
# Keras Layer (derived): Conv Kernel Plane - OutputChannel=5, InputChannel=3
e1fec515f5d5f806dc0d37d4ca09b31e
# Keras Layer (derived): Conv Kernel Plane - OutputChannel=5, InputChannel=4
cee1fbeadec6f0d70be7e912a019b5e1
# Keras Layer (derived): Conv Kernel Plane - OutputChannel=5, InputChannel=5
fd0b4a14f4f9c9f00ff509230a0dff1e
# Keras Layer (derived): Conv Kernel Plane - OutputChannel=5, InputChannel=6
f8e90ffecb1a03090b02f3020117fe11
# Keras Layer (derived): Conv Kernel Plane - OutputChannel=5, InputChannel=7
c20907081e24f985b6a29fa0ea290404
# Keras Layer (derived): Conv Kernel Plane - OutputChannel=5, InputChannel=8
eefed433efeae90ccd08feff2922ee25
# Keras Layer (derived): Conv Kernel Plane - OutputChannel=5, InputChannel=9
a3fd223223bd0513e9fd250404f4e5f6
# Keras Layer (derived): Conv Kernel Plane - OutputChannel=5, InputChannel=10
02140dcecff7f4e7ea0a18f8f9deede4
# Keras Layer (derived): Conv Kernel Plane - OutputChannel=5, InputChannel=11
e00cd1c914efffef2d02ebd6fd06f923
# Keras Layer (derived): Conv Kernel Plane - OutputChannel=5, InputChannel=12
16091b1d02b6e4f32422f22bfed60e35
# Keras Layer (derived): Conv Kernel Plane - OutputChannel=5, InputChannel=13
0c2d050f0a06d9e4f8f6f4b02c0906f1
# Keras Layer (derived): Conv Kernel Plane - OutputChannel=5, InputChannel=14
3e0bcec3071817d8fff600f3060aeeba
# Keras Layer (derived): Conv Kernel Plane - OutputChannel=5, InputChannel=15
dae4ee09a2d8e5cd3f00ead9a809dff7
# Keras Layer (derived): Conv Kernel Plane - OutputChannel=5, InputChannel=16
c1d4ba27f4fded0d1c0d07feff1a0d10
# Keras Layer (derived): Conv Kernel Plane - OutputChannel=5, InputChannel=17
e6053229f2d9141819f911fd1432cb32
# Keras Layer (derived): Conv Kernel Plane - OutputChannel=5, InputChannel=18
f0fdf7d40a162bffd7fef9e4fd2085ec
# Keras Layer (derived): Conv Kernel Plane - OutputChannel=5, InputChannel=19
f30c0dacfdf1051227f0d6d814c6e5fe
# Keras Layer (derived): Conv Kernel Plane - OutputChannel=5, InputChannel=20
d8b0dbca3ce60119f410e1e421f81ff0
# Keras Layer (derived): Conv Kernel Plane - OutputChannel=5, InputChannel=21
ea0cf3f7191705300be3132709f0e217
# Keras Layer (derived): Conv Kernel Plane - OutputChannel=5, InputChannel=22
8f1fd50c27fb40f9161f0b4501040fd8
# Keras Layer (derived): Conv Kernel Plane - OutputChannel=5, InputChannel=23
2113302cf5f7ef27e3f4082fe3ec32dd
# Keras Layer (derived): Conv Kernel Plane - OutputChannel=5, InputChannel=24
35dffe85290609f22002c9facc1ce339
# Keras Layer (derived): Conv Kernel Plane - OutputChannel=5, InputChannel=25
2dfdf315f2ebe827b340f3e60910e906
# Keras Layer (derived): Conv Kernel Plane - OutputChannel=5, InputChannel=26
fcf8fd0cc6faef022507f206c2dce124
# Keras Layer (derived): Conv Kernel Plane - OutputChannel=5, InputChannel=27
0a9c0681ddfaf7e3bf00f1f4fd082609
# Keras Layer (derived): Conv Kernel Plane - OutputChannel=5, InputChannel=28
cbe7f61b02f9ef03d925091e08311627
# Keras Layer (derived): Conv Kernel Plane - OutputChannel=5, InputChannel=29
d906e800bce5ce0a0c12f6f510f6f0fe
# Keras Layer (derived): Conv Kernel Plane - OutputChannel=5, InputChannel=30
d9cbd4fd020b56090d0df520b402e8fa
# Keras Layer (derived): Conv Kernel Plane - OutputChannel=5, InputChannel=31
c1dfc1261ed1d9fae5fd04f3020ae926
# Keras Layer (derived): Conv Kernel Plane - OutputChannel=6, InputChannel=0
2003dcc4efe1bcab2fa1b94418fa0218
# Keras Layer (derived): Conv Kernel Plane - OutputChannel=6, InputChannel=1
ed031bbf1de7ed2d1e44badcfd0a3910
# Keras Layer (derived): Conv Kernel Plane - OutputChannel=6, InputChannel=2
fc0f0eeef2f712f2f2fccff9313f47d9
# Keras Layer (derived): Conv Kernel Plane - OutputChannel=6, InputChannel=3
2b00f1ddf1f7dfb9a9fddaf40603feec
# Keras Layer (derived): Conv Kernel Plane - OutputChannel=6, InputChannel=4
f6ecfc6d090ece14e0e2d1bcc5c5f22f
# Keras Layer (derived): Conv Kernel Plane - OutputChannel=6, InputChannel=5
da0117eeeeda2fe61713331ae2f22403
# Keras Layer (derived): Conv Kernel Plane - OutputChannel=6, InputChannel=6
f7e90619d91fdb16f325181bbdbec200
# Keras Layer (derived): Conv Kernel Plane - OutputChannel=6, InputChannel=7
28010a3cf507bca8fe19d0c92d12dfe6
# Keras Layer (derived): Conv Kernel Plane - OutputChannel=6, InputChannel=8
1e16d114f705f0da1108f40caaacfdf2
# Keras Layer (derived): Conv Kernel Plane - OutputChannel=6, InputChannel=9
fd182cff2f1846a9022317fe01f4fcff
# Keras Layer (derived): Conv Kernel Plane - OutputChannel=6, InputChannel=10
d4f3fb1a170b2525260729f0edd008d2
# Keras Layer (derived): Conv Kernel Plane - OutputChannel=6, InputChannel=11
07fe2422d8f0e726f3de0e1a06e5e510
# Keras Layer (derived): Conv Kernel Plane - OutputChannel=6, InputChannel=12
d9fc1603e001c401202d2c12222b052b
# Keras Layer (derived): Conv Kernel Plane - OutputChannel=6, InputChannel=13
0eff27f92f1005e20c1c0b571de40d00
# Keras Layer (derived): Conv Kernel Plane - OutputChannel=6, InputChannel=14
eb00c91edae2e605dbe83bdd0414e1f8
# Keras Layer (derived): Conv Kernel Plane - OutputChannel=6, InputChannel=15
c60f0b2df6ebdce5fde9bac6ed130515
# Keras Layer (derived): Conv Kernel Plane - OutputChannel=6, InputChannel=16
5c050810f2fdbcc600fcf3ee1920171a
# Keras Layer (derived): Conv Kernel Plane - OutputChannel=6, InputChannel=17
f2cb30fce4f422f1e3edfbbe2dd103fc
# Keras Layer (derived): Conv Kernel Plane - OutputChannel=6, InputChannel=18
02e3fafceef9eee608f2f6e3f5d7cd0e
# Keras Layer (derived): Conv Kernel Plane - OutputChannel=6, InputChannel=19
c9f11ad1fc23f6f312f52722ee1f1c17
# Keras Layer (derived): Conv Kernel Plane - OutputChannel=6, InputChannel=20
2109dc22e5e3c80ef9f9ab0be2e8fa04
# Keras Layer (derived): Conv Kernel Plane - OutputChannel=6, InputChannel=21
e3c00adef10bfae804dd172d0ef52105
# Keras Layer (derived): Conv Kernel Plane - OutputChannel=6, InputChannel=22
03ca00060c0607a6f80616f210ecd1f9
# Keras Layer (derived): Conv Kernel Plane - OutputChannel=6, InputChannel=23
24ea05bf05d8dd81050d110a25f136cf
# Keras Layer (derived): Conv Kernel Plane - OutputChannel=6, InputChannel=24
0bf13efa0ff30c1b132900d814e0ef02
# Keras Layer (derived): Conv Kernel Plane - OutputChannel=6, InputChannel=25
03202e12f8f1e9fce4d71722c2e22728
# Keras Layer (derived): Conv Kernel Plane - OutputChannel=6, InputChannel=26
ef06ff04f5001611fbfc1314862be9f3
# Keras Layer (derived): Conv Kernel Plane - OutputChannel=6, InputChannel=27
f31319061af1f814d0bc042a24eb14fd
# Keras Layer (derived): Conv Kernel Plane - OutputChannel=6, InputChannel=28
e80c040d06250a070b23ff21500dd5bd
# Keras Layer (derived): Conv Kernel Plane - OutputChannel=6, InputChannel=29
fed11328071df8f9f8030cfe2a0828de
# Keras Layer (derived): Conv Kernel Plane - OutputChannel=6, InputChannel=30
19f200251ae311e8fb0afa04bde3e4af
# Keras Layer (derived): Conv Kernel Plane - OutputChannel=6, InputChannel=31
e824ebfe1ae6133c01f1cb0615bccfa8
# Keras Layer (derived): Conv Kernel Plane - OutputChannel=7, InputChannel=0
ddf30c9da304fbe6b2f2b5e938fa2bdd
# Keras Layer (derived): Conv Kernel Plane - OutputChannel=7, InputChannel=1
07ffd9eb25efd0a7e9dfb7e3de0c37fa
# Keras Layer (derived): Conv Kernel Plane - OutputChannel=7, InputChannel=2
0d15271adfebe8e8c23537e89102d0d5
# Keras Layer (derived): Conv Kernel Plane - OutputChannel=7, InputChannel=3
f509de12e02bdffaadf31ad8ee033e31
# Keras Layer (derived): Conv Kernel Plane - OutputChannel=7, InputChannel=4
1808064122e91711c3ecee19dffa1ff4
# Keras Layer (derived): Conv Kernel Plane - OutputChannel=7, InputChannel=5
15da1408d3fdfae8f9013dd65118280b
# Keras Layer (derived): Conv Kernel Plane - OutputChannel=7, InputChannel=6
f7eff2d23936fb14f110e9e2b6a51ce3
# Keras Layer (derived): Conv Kernel Plane - OutputChannel=7, InputChannel=7
18d7afcad8debafd13ccf4c5a02b371c
# Keras Layer (derived): Conv Kernel Plane - OutputChannel=7, InputChannel=8
1ef5f712c905df11f229e8d737ecc826
# Keras Layer (derived): Conv Kernel Plane - OutputChannel=7, InputChannel=9
0ae1edf32eccd7e74639ef2903f2f0ef
# Keras Layer (derived): Conv Kernel Plane - OutputChannel=7, InputChannel=10
161f12bc38d522ba03f81901371e0bf9
# Keras Layer (derived): Conv Kernel Plane - OutputChannel=7, InputChannel=11
fed228f1ec25e6271614f30b5312eec3
# Keras Layer (derived): Conv Kernel Plane - OutputChannel=7, InputChannel=12
e8dfe89e1508e41df001e122db0b2b2c
# Keras Layer (derived): Conv Kernel Plane - OutputChannel=7, InputChannel=13
040afafbf8e5d5c1003b163b0eed4137
# Keras Layer (derived): Conv Kernel Plane - OutputChannel=7, InputChannel=14
1be1eeddadfad2de1b18f8514112f3f9
# Keras Layer (derived): Conv Kernel Plane - OutputChannel=7, InputChannel=15
d2181cd7e3f029f8a72cef26a8eae409
# Keras Layer (derived): Conv Kernel Plane - OutputChannel=7, InputChannel=16
20e1f3f32501153230040c14f013f0f9
# Keras Layer (derived): Conv Kernel Plane - OutputChannel=7, InputChannel=17
a7e21724aa14012231bc87fd514a126a
# Keras Layer (derived): Conv Kernel Plane - OutputChannel=7, InputChannel=18
01091f08e0dcfcd2bccbe35bce11b6e7
# Keras Layer (derived): Conv Kernel Plane - OutputChannel=7, InputChannel=19
1b15fae4f3f01a27c925fd3ebf13f90d
# Keras Layer (derived): Conv Kernel Plane - OutputChannel=7, InputChannel=20
2befe00de1c41e2e0613dc06e806ced3
# Keras Layer (derived): Conv Kernel Plane - OutputChannel=7, InputChannel=21
df171734c10ddeffc4134214c1cfdcc6
# Keras Layer (derived): Conv Kernel Plane - OutputChannel=7, InputChannel=22
